{
  "version": "1.0",
  "truncation": null,
  "padding": null,
  "added_tokens": [
    {
      "id": 0,
      "content": "[PAD]",
      "single_word": false,
      "lstrip": false,
      "rstrip": false,
      "normalized": false,
      "special": true
    },
    {
      "id": 1,
      "content": "[CLS]",
      "single_word": false,
      "lstrip": false,
      "rstrip": false,
      "normalized": false,
      "special": true
    },
    {
      "id": 2,
      "content": "[SEP]",
      "single_word": false,
      "lstrip": false,
      "rstrip": false,
      "normalized": false,
      "special": true
    },
    {
      "id": 3,
      "content": "[UNK]",
      "single_word": false,
      "lstrip": false,
      "rstrip": false,
      "normalized": false,
      "special": true
    }
  ],
  "normalizer": null,
  "pre_tokenizer": {
    "type": "Whitespace"
  },
  "post_processor": null,
  "decoder": null,
  "model": {
    "type": "WordPiece",
    "unk_token": "[UNK]",
    "continuing_subword_prefix": "##",
    "max_input_chars_per_word": 100,
    "vocab": {
      "[PAD]": 0,
      "[CLS]": 1,
      "[SEP]": 2,
      "[UNK]": 3,
      "\b": 4,
      "\u0010": 5,
      "!": 6,
      "\"": 7,
      "#": 8,
      "$": 9,
      "%": 10,
      "&": 11,
      "'": 12,
      "(": 13,
      ")": 14,
      "*": 15,
      "+": 16,
      ",": 17,
      "-": 18,
      ".": 19,
      "/": 20,
      "0": 21,
      "1": 22,
      "2": 23,
      "3": 24,
      "4": 25,
      "5": 26,
      "6": 27,
      "7": 28,
      "8": 29,
      "9": 30,
      ":": 31,
      ";": 32,
      "<": 33,
      "=": 34,
      ">": 35,
      "?": 36,
      "@": 37,
      "[": 38,
      "\\": 39,
      "]": 40,
      "^": 41,
      "_": 42,
      "`": 43,
      "a": 44,
      "b": 45,
      "c": 46,
      "d": 47,
      "e": 48,
      "f": 49,
      "g": 50,
      "h": 51,
      "i": 52,
      "j": 53,
      "k": 54,
      "l": 55,
      "m": 56,
      "n": 57,
      "o": 58,
      "p": 59,
      "q": 60,
      "r": 61,
      "s": 62,
      "t": 63,
      "u": 64,
      "v": 65,
      "w": 66,
      "x": 67,
      "y": 68,
      "z": 69,
      "{": 70,
      "|": 71,
      "}": 72,
      "~": 73,
      "": 74,
      "": 75,
      "¡": 76,
      "¢": 77,
      "£": 78,
      "¤": 79,
      "¥": 80,
      "§": 81,
      "¨": 82,
      "©": 83,
      "«": 84,
      "¬": 85,
      "­": 86,
      "®": 87,
      "¯": 88,
      "°": 89,
      "±": 90,
      "²": 91,
      "³": 92,
      "´": 93,
      "µ": 94,
      "·": 95,
      "º": 96,
      "»": 97,
      "¼": 98,
      "½": 99,
      "¾": 100,
      "¿": 101,
      "×": 102,
      "ß": 103,
      "à": 104,
      "á": 105,
      "â": 106,
      "ã": 107,
      "ä": 108,
      "å": 109,
      "æ": 110,
      "ç": 111,
      "è": 112,
      "é": 113,
      "ê": 114,
      "ì": 115,
      "í": 116,
      "î": 117,
      "ï": 118,
      "ñ": 119,
      "ò": 120,
      "ó": 121,
      "ô": 122,
      "õ": 123,
      "ö": 124,
      "÷": 125,
      "ø": 126,
      "ù": 127,
      "ú": 128,
      "û": 129,
      "ü": 130,
      "þ": 131,
      "ā": 132,
      "ć": 133,
      "ė": 134,
      "ĺ": 135,
      "ł": 136,
      "œ": 137,
      "ţ": 138,
      "ų": 139,
      "ư": 140,
      "ǎ": 141,
      "ǒ": 142,
      "ɛ": 143,
      "ɣ": 144,
      "ɾ": 145,
      "ʁ": 146,
      "ʃ": 147,
      "ʖ": 148,
      "ʰ": 149,
      "ʳ": 150,
      "ʷ": 151,
      "ʸ": 152,
      "ʻ": 153,
      "˘": 154,
      "˚": 155,
      "ˢ": 156,
      "ˣ": 157,
      "̃": 158,
      "̹": 159,
      "̈́": 160,
      "͜": 161,
      "͟": 162,
      "͠": 163,
      "͡": 164,
      "α": 165,
      "ι": 166,
      "κ": 167,
      "ν": 168,
      "π": 169,
      "τ": 170,
      "ω": 171,
      "ϟ": 172,
      "а": 173,
      "б": 174,
      "д": 175,
      "е": 176,
      "и": 177,
      "к": 178,
      "м": 179,
      "о": 180,
      "р": 181,
      "х": 182,
      "ь": 183,
      "я": 184,
      "ә": 185,
      "א": 186,
      "ב": 187,
      "ד": 188,
      "ה": 189,
      "י": 190,
      "מ": 191,
      "ע": 192,
      "ר": 193,
      "ת": 194,
      "ء": 195,
      "أ": 196,
      "إ": 197,
      "ا": 198,
      "ب": 199,
      "ة": 200,
      "ج": 201,
      "ح": 202,
      "خ": 203,
      "د": 204,
      "ر": 205,
      "ز": 206,
      "س": 207,
      "ش": 208,
      "ص": 209,
      "ع": 210,
      "غ": 211,
      "ق": 212,
      "ل": 213,
      "م": 214,
      "ن": 215,
      "ه": 216,
      "و": 217,
      "ى": 218,
      "ي": 219,
      "ً": 220,
      "َ": 221,
      "ُ": 222,
      "ِ": 223,
      "ّ": 224,
      "ْ": 225,
      "٩": 226,
      "۶": 227,
      "ॣ": 228,
      "ಠ": 229,
      "ಥ": 230,
      "ง": 231,
      "ᗡ": 232,
      "ᴵ": 233,
      "ᵃ": 234,
      "ᵇ": 235,
      "ᵈ": 236,
      "ᵉ": 237,
      "ᵍ": 238,
      "ᵏ": 239,
      "ᵐ": 240,
      "ᵒ": 241,
      "ᵗ": 242,
      "ᵘ": 243,
      "ᶜ": 244,
      "ᶠ": 245,
      "ᶦ": 246,
      "ᶫ": 247,
      "ᶰ": 248,
      "ệ": 249,
      "ố": 250,
      "ớ": 251,
      "ờ": 252,
      "​": 253,
      "‍": 254,
      "‎": 255,
      "–": 256,
      "—": 257,
      "―": 258,
      "‘": 259,
      "’": 260,
      "‚": 261,
      "“": 262,
      "”": 263,
      "„": 264,
      "•": 265,
      "…": 266,
      "‪": 267,
      "‬": 268,
      "′": 269,
      "″": 270,
      "‼": 271,
      "‽": 272,
      "‿": 273,
      "€": 274,
      "₹": 275,
      "℃": 276,
      "℅": 277,
      "™": 278,
      "↑": 279,
      "→": 280,
      "∞": 281,
      "≈": 282,
      "≠": 283,
      "≥": 284,
      "⊙": 285,
      "⌐": 286,
      "⌓": 287,
      "⌘": 288,
      "━": 289,
      "└": 290,
      "┘": 291,
      "┻": 292,
      "╥": 293,
      "╭": 294,
      "╮": 295,
      "╯": 296,
      "╱": 297,
      "╲": 298,
      "■": 299,
      "□": 300,
      "▰": 301,
      "◉": 302,
      "◕": 303,
      "◡": 304,
      "◦": 305,
      "☞": 306,
      "☺": 307,
      "♀": 308,
      "♂": 309,
      "♡": 310,
      "♥": 311,
      "♪": 312,
      "♫": 313,
      "⚆": 314,
      "✅": 315,
      "✖": 316,
      "✿": 317,
      "❤": 318,
      "⬆": 319,
      "。": 320,
      "《": 321,
      "》": 322,
      "〜": 323,
      "い": 324,
      "お": 325,
      "か": 326,
      "ご": 327,
      "し": 328,
      "す": 329,
      "た": 330,
      "ち": 331,
      "っ": 332,
      "て": 333,
      "で": 334,
      "ね": 335,
      "は": 336,
      "へ": 337,
      "べ": 338,
      "ま": 339,
      "も": 340,
      "よ": 341,
      "る": 342,
      "ろ": 343,
      "を": 344,
      "ん": 345,
      "ァ": 346,
      "キ": 347,
      "ク": 348,
      "グ": 349,
      "ケ": 350,
      "サ": 351,
      "ス": 352,
      "セ": 353,
      "ッ": 354,
      "ツ": 355,
      "テ": 356,
      "ド": 357,
      "バ": 358,
      "フ": 359,
      "ブ": 360,
      "プ": 361,
      "ホ": 362,
      "ラ": 363,
      "ル": 364,
      "ヮ": 365,
      "ン": 366,
      "・": 367,
      "ー": 368,
      "ㄏ": 369,
      "ㅅ": 370,
      "ㅇ": 371,
      "一": 372,
      "万": 373,
      "三": 374,
      "上": 375,
      "不": 376,
      "个": 377,
      "中": 378,
      "串": 379,
      "么": 380,
      "买": 381,
      "了": 382,
      "二": 383,
      "人": 384,
      "什": 385,
      "今": 386,
      "他": 387,
      "以": 388,
      "们": 389,
      "你": 390,
      "個": 391,
      "全": 392,
      "六": 393,
      "冗": 394,
      "出": 395,
      "別": 396,
      "十": 397,
      "卖": 398,
      "去": 399,
      "只": 400,
      "可": 401,
      "吃": 402,
      "后": 403,
      "吐": 404,
      "呀": 405,
      "哎": 406,
      "因": 407,
      "国": 408,
      "图": 409,
      "圈": 410,
      "堂": 411,
      "多": 412,
      "大": 413,
      "天": 414,
      "太": 415,
      "套": 416,
      "女": 417,
      "好": 418,
      "嫩": 419,
      "子": 420,
      "存": 421,
      "安": 422,
      "完": 423,
      "定": 424,
      "小": 425,
      "差": 426,
      "幫": 427,
      "很": 428,
      "心": 429,
      "想": 430,
      "慰": 431,
      "我": 432,
      "所": 433,
      "拉": 434,
      "文": 435,
      "方": 436,
      "是": 437,
      "晚": 438,
      "最": 439,
      "有": 440,
      "样": 441,
      "油": 442,
      "洋": 443,
      "為": 444,
      "烟": 445,
      "照": 446,
      "爷": 447,
      "牛": 448,
      "瓜": 449,
      "甜": 450,
      "用": 451,
      "男": 452,
      "痴": 453,
      "白": 454,
      "的": 455,
      "知": 456,
      "石": 457,
      "种": 458,
      "米": 459,
      "羊": 460,
      "美": 461,
      "老": 462,
      "肉": 463,
      "肚": 464,
      "自": 465,
      "英": 466,
      "茄": 467,
      "草": 468,
      "落": 469,
      "要": 470,
      "見": 471,
      "話": 472,
      "講": 473,
      "该": 474,
      "貴": 475,
      "買": 476,
      "跟": 477,
      "辣": 478,
      "还": 479,
      "这": 480,
      "這": 481,
      "那": 482,
      "部": 483,
      "都": 484,
      "食": 485,
      "饭": 486,
      "高": 487,
      "鱼": 488,
      "鸡": 489,
      "麻": 490,
      "麼": 491,
      "黄": 492,
      "꒪": 493,
      "개": 494,
      "곰": 495,
      "광": 496,
      "두": 497,
      "만": 498,
      "미": 499,
      "방": 500,
      "새": 501,
      "숲": 502,
      "식": 503,
      "친": 504,
      "회": 505,
      "": 506,
      "": 507,
      "️": 508,
      "︵": 509,
      "﹏": 510,
      "﻿": 511,
      "！": 512,
      "＂": 513,
      "（": 514,
      "）": 515,
      "，": 516,
      "：": 517,
      "＝": 518,
      "？": 519,
      "｡": 520,
      "･": 521,
      "ﾟ": 522,
      "🌏": 523,
      "🌴": 524,
      "🌶": 525,
      "🌹": 526,
      "🌺": 527,
      "🌻": 528,
      "🍃": 529,
      "🍌": 530,
      "🍎": 531,
      "🍷": 532,
      "🎁": 533,
      "🎂": 534,
      "🎄": 535,
      "🎅": 536,
      "🎉": 537,
      "🎺": 538,
      "🏻": 539,
      "🏼": 540,
      "🏽": 541,
      "🐝": 542,
      "🐩": 543,
      "👌": 544,
      "👍": 545,
      "👎": 546,
      "💀": 547,
      "💚": 548,
      "💛": 549,
      "💡": 550,
      "💤": 551,
      "💦": 552,
      "💨": 553,
      "💩": 554,
      "💪": 555,
      "💯": 556,
      "💻": 557,
      "🔥": 558,
      "🔫": 559,
      "🕰": 560,
      "🖖": 561,
      "😀": 562,
      "😁": 563,
      "😂": 564,
      "😃": 565,
      "😄": 566,
      "😅": 567,
      "😆": 568,
      "😈": 569,
      "😉": 570,
      "😊": 571,
      "😌": 572,
      "😍": 573,
      "😎": 574,
      "😏": 575,
      "😐": 576,
      "😑": 577,
      "😒": 578,
      "😓": 579,
      "😔": 580,
      "😕": 581,
      "😖": 582,
      "😘": 583,
      "😙": 584,
      "😚": 585,
      "😛": 586,
      "😜": 587,
      "😞": 588,
      "😟": 589,
      "😢": 590,
      "😣": 591,
      "😤": 592,
      "😥": 593,
      "😧": 594,
      "😨": 595,
      "😩": 596,
      "😪": 597,
      "😬": 598,
      "😭": 599,
      "😯": 600,
      "😰": 601,
      "😱": 602,
      "😲": 603,
      "😳": 604,
      "😴": 605,
      "😵": 606,
      "😶": 607,
      "😷": 608,
      "😻": 609,
      "🙁": 610,
      "🙃": 611,
      "🙄": 612,
      "🙈": 613,
      "🤑": 614,
      "🤔": 615,
      "🤕": 616,
      "🤗": 617,
      "🤘": 618,
      "🤣": 619,
      "🤦": 620,
      "🤷": 621,
      "🦆": 622,
      "##u": 623,
      "##g": 624,
      "##d": 625,
      "##o": 626,
      "##c": 627,
      "##t": 628,
      "##r": 629,
      "##a": 630,
      "##i": 631,
      "##e": 632,
      "##m": 633,
      "##h": 634,
      "##k": 635,
      "##7": 636,
      "##n": 637,
      "##2": 638,
      "##p": 639,
      "##s": 640,
      "##0": 641,
      "##l": 642,
      "##b": 643,
      "##v": 644,
      "##w": 645,
      "##4": 646,
      "##f": 647,
      "##y": 648,
      "##j": 649,
      "##5": 650,
      "##不": 651,
      "##吃": 652,
      "##太": 653,
      "##多": 654,
      "##了": 655,
      "##8": 656,
      "##x": 657,
      "##ل": 658,
      "##ر": 659,
      "##َ": 660,
      "##ّ": 661,
      "##ح": 662,
      "##ِ": 663,
      "##ي": 664,
      "##م": 665,
      "##*": 666,
      "##)": 667,
      "##3": 668,
      "##z": 669,
      "##,": 670,
      "##<": 671,
      "##q": 672,
      "##_": 673,
      "##!": 674,
      "##ä": 675,
      "##6": 676,
      "##1": 677,
      "##é": 678,
      "##.": 679,
      "##-": 680,
      "##9": 681,
      "##>": 682,
      "##\"": 683,
      "##…": 684,
      "##„": 685,
      "##^": 686,
      "##'": 687,
      "##?": 688,
      "##”": 689,
      "##😩": 690,
      "##ü": 691,
      "##:": 692,
      "##(": 693,
      "##/": 694,
      "##&": 695,
      "##$": 696,
      "##@": 697,
      "##ᶦ": 698,
      "##ˢ": 699,
      "##ᵉ": 700,
      "###": 701,
      "##|": 702,
      "##[": 703,
      "##]": 704,
      "##烟": 705,
      "##◕": 706,
      "##辣": 707,
      "##黄": 708,
      "##瓜": 709,
      "##+": 710,
      "##ʖ": 711,
      "##｡": 712,
      "##à": 713,
      "##€": 714,
      "##~": 715,
      "##ç": 716,
      "##%": 717,
      "##;": 718,
      "##\\": 719,
      "##╱": 720,
      "##í": 721,
      "##=": 722,
      "##á": 723,
      "##ق": 724,
      "##ا": 725,
      "##ų": 726,
      "##å": 727,
      "##ó": 728,
      "##}": 729,
      "##“": 730,
      "##🤘": 731,
      "##´": 732,
      "##・": 733,
      "##ン": 734,
      "##‿": 735,
      "##è": 736,
      "##س": 737,
      "##ö": 738,
      "##😭": 739,
      "##¿": 740,
      "##ú": 741,
      "##🌻": 742,
      "##💚": 743,
      "##•": 744,
      "##‎": 745,
      "##’": 746,
      "##¤": 747,
      "##ệ": 748,
      "##–": 749,
      "##º": 750,
      "##{": 751,
      "##种": 752,
      "##大": 753,
      "##麻": 754,
      "##是": 755,
      "##什": 756,
      "##么": 757,
      "##样": 758,
      "##子": 759,
      "##ñ": 760,
      "##`": 761,
      "##個": 762,
      "##😀": 763,
      "##ł": 764,
      "##»": 765,
      "##ى": 766,
      "##痴": 767,
      "##ι": 768,
      "##為": 769,
      "##麼": 770,
      "##跟": 771,
      "##我": 772,
      "##用": 773,
      "##英": 774,
      "##文": 775,
      "##講": 776,
      "##話": 777,
      "##¬": 778,
      "##﹏": 779,
      "##ಥ": 780,
      "##━": 781,
      "##┻": 782,
      "##他": 783,
      "##们": 784,
      "##只": 785,
      "##卖": 786,
      "##六": 787,
      "##个": 788,
      "##还": 789,
      "##十": 790,
      "##二": 791,
      "##£": 792,
      "##🍃": 793,
      "##🌺": 794,
      "##🌴": 795,
      "##—": 796,
      "##ø": 797,
      "##ô": 798,
      "##😞": 799,
      "##🎉": 800,
      "##😍": 801,
      "##â": 802,
      "##ᶠ": 803,
      "##개": 804,
      "##새": 805,
      "##е": 806,
      "##р": 807,
      "##ь": 808,
      "##м": 809,
      "##о": 810,
      "##😂": 811,
      "##두": 812,
      "##°": 813,
      "##ê": 814,
      "##🏼": 815,
      "##💦": 816,
      "##💻": 817,
      "##͜": 818,
      "##肚": 819,
      "##🙈": 820,
      "##إ": 821,
      "##ن": 822,
      "##ج": 823,
      "##ز": 824,
      "##ة": 825,
      "##油": 826,
      "##吐": 827,
      "##​": 828,
      "##و": 829,
      "##ᶰ": 830,
      "##ᵈ": 831,
      "##🎺": 832,
      "##µ": 833,
      "##✿": 834,
      "##™": 835,
      "##«": 836,
      "##ᶜ": 837,
      "##ᵗ": 838,
      "##ᵘ": 839,
      "##ᵃ": 840,
      "##ᶫ": 841,
      "##ʸ": 842,
      "##😄": 843,
      "##🏻": 844,
      "##¯": 845,
      "##ʻ": 846,
      "##광": 847,
      "##ã": 848,
      "##ホ": 849,
      "##ー": 850,
      "##テ": 851,
      "##ᵏ": 852,
      "##꒪": 853,
      "##╯": 854,
      "##□": 855,
      "##）": 856,
      "##︵": 857,
      "##完": 858,
      "##饭": 859,
      "##以": 860,
      "##后": 861,
      "##ת": 862,
      "##ה": 863,
      "##。": 864,
      "##̃": 865,
      "##⌐": 866,
      "##■": 867,
      "##出": 868,
      "##し": 869,
      "##グ": 870,
      "##ル": 871,
      "##プ": 872,
      "##セ": 873,
      "##ッ": 874,
      "##ク": 875,
      "##ス": 876,
      "##а": 877,
      "##х": 878,
      "##👎": 879,
      "##ᵒ": 880,
      "##ء": 881,
      "##買": 882,
      "##那": 883,
      "##图": 884,
      "##都": 885,
      "##◉": 886,
      "##😉": 887,
      "##ß": 888,
      "##ɣ": 889,
      "##😅": 890,
      "##ǒ": 891,
      "##식": 892,
      "##♪": 893,
      "##ì": 894,
      "##ư": 895,
      "##ờ": 896,
      "##б": 897,
      "##╥": 898,
      "##た": 899,
      "##い": 900,
      "##🔥": 901,
      "##ố": 902,
      "##ā": 903,
      "##ï": 904,
      "##¡": 905,
      "##غ": 906,
      "##全": 907,
      "##ه": 908,
      "##ち": 909,
      "##ろ": 910,
      "##ん": 911,
      "##知": 912,
      "##っ": 913,
      "##て": 914,
      "##ま": 915,
      "##す": 916,
      "##만": 917,
      "##ヮ": 918,
      "##ﾟ": 919,
      "##ù": 920,
      "##ァ": 921,
      "##貴": 922,
      "##方": 923,
      "##¥": 924,
      "##и": 925,
      "##α": 926,
      "##💛": 927,
      "##▰": 928,
      "##˘": 929,
      "##◡": 930,
      "##食": 931,
      "##べ": 932,
      "##る": 933,
      "##î": 934,
      "##👍": 935,
      "##安": 936,
      "##套": 937,
      "##ツ": 938,
      "##を": 939,
      "##･": 940,
      "##ಠ": 941,
      "##😤": 942,
      "##👌": 943,
      "##ㄏ": 944,
      "##к": 945,
      "##я": 946,
      "##ع": 947,
      "##ب": 948,
      "##一": 949,
      "##定": 950,
      "##要": 951,
      "##去": 952,
      "##天": 953,
      "##堂": 954,
      "##好": 955,
      "##的": 956,
      "##💀": 957,
      "##😴": 958,
      "##😵": 959,
      "##😣": 960,
      "##爷": 961,
      "##ʁ": 962,
      "##÷": 963,
      "##﻿": 964,
      "##😳": 965,
      "##‘": 966,
      "##̈́": 967,
      "##ْ": 968,
      "##ラ": 969,
      "##☞": 970,
      "##ᵍ": 971,
      "##照": 972,
      "##ד": 973,
      "##ב": 974,
      "##ר": 975,
      "##买": 976,
      "##😙": 977,
      "##😘": 978,
      "##😚": 979,
      "##┘": 980,
      "##æ": 981,
      "##⊙": 982,
      "##☺": 983,
      "##ʳ": 984,
      "##친": 985,
      "##ɛ": 986,
      "##茄": 987,
      "##🔫": 988,
      "##κ": 989,
      "##ә": 990,
      "##小": 991,
      "##甜": 992,
      "##圈": 993,
      "##♫": 994,
      "##バ": 995,
      "##は": 996,
      "##ご": 997,
      "##存": 998,
      "##で": 999,
      "##か": 1000,
      "##心": 1001,
      "##串": 1002,
      "##╭": 1003,
      "##ĺ": 1004,
      "##🏽": 1005,
      "##̹": 1006,
      "##🍷": 1007,
      "##ُ": 1008,
      "##ص": 1009,
      "##ً": 1010,
      "##ϟ": 1011,
      "##该": 1012,
      "##很": 1013,
      "##想": 1014,
      "##三": 1015,
      "##": 1016,
      "##ش": 1017,
      "##落": 1018,
      "##差": 1019,
      "##別": 1020,
      "##ʰ": 1021,
      "##╲": 1022,
      "##œ": 1023,
      "##ớ": 1024,
      "##د": 1025,
      "##þ": 1026,
      "##😨": 1027,
      "##ć": 1028,
      "##高": 1029,
      "##よ": 1030,
      "##ね": 1031,
      "##晚": 1032,
      "##上": 1033,
      "##羊": 1034,
      "##肉": 1035,
      "##️": 1036,
      "##∞": 1037,
      "##ǎ": 1038,
      "##û": 1039,
      "##🎄": 1040,
      "##🎁": 1041,
      "##女": 1042,
      "##牛": 1043,
      "##嫩": 1044,
      "##草": 1045,
      "##鱼": 1046,
      "##米": 1047,
      "##国": 1048,
      "##人": 1049,
      "##ė": 1050,
      "##ㅅ": 1051,
      "##ㅇ": 1052,
      "##呀": 1053,
      "##😓": 1054,
      "##😶": 1055,
      "##±": 1056,
      "##😊": 1057,
      "##͡": 1058,
      "##ʃ": 1059,
      "##י": 1060,
      "##😢": 1061,
      "##😧": 1062,
      "##😒": 1063,
      "##😐": 1064,
      "##ˣ": 1065,
      "##慰": 1066,
      "##\u0010": 1067,
      "th": 1068,
      "##in": 1069,
      "##er": 1070,
      "the": 1071,
      "##nd": 1072,
      "##ing": 1073,
      "##ed": 1074,
      "to": 1075,
      "and": 1076,
      "##at": 1077,
      "##ou": 1078,
      "##or": 1079,
      "##as": 1080,
      "##en": 1081,
      "my": 1082,
      "##ll": 1083,
      "##ar": 1084,
      "##es": 1085,
      "##on": 1086,
      "##it": 1087,
      "in": 1088,
      "##om": 1089,
      "of": 1090,
      "##is": 1091,
      "##ut": 1092,
      "##an": 1093,
      "##et": 1094,
      "it": 1095,
      "ha": 1096,
      "was": 1097,
      "##ot": 1098,
      "##ow": 1099,
      "##ck": 1100,
      "wh": 1101,
      "on": 1102,
      "##ay": 1103,
      "##le": 1104,
      "##id": 1105,
      "st": 1106,
      "##ea": 1107,
      "sh": 1108,
      "be": 1109,
      "##st": 1110,
      "##ly": 1111,
      "##gh": 1112,
      "that": 1113,
      "me": 1114,
      "##ch": 1115,
      "so": 1116,
      "##ur": 1117,
      "##ve": 1118,
      "we": 1119,
      "for": 1120,
      "##ent": 1121,
      "##se": 1122,
      "##ld": 1123,
      "##ir": 1124,
      "##oo": 1125,
      "##ver": 1126,
      "##ri": 1127,
      "##ce": 1128,
      "##ere": 1129,
      "##ke": 1130,
      "as": 1131,
      "##ith": 1132,
      "this": 1133,
      "##all": 1134,
      "he": 1135,
      "##al": 1136,
      "with": 1137,
      "up": 1138,
      "at": 1139,
      "an": 1140,
      "##ght": 1141,
      "##im": 1142,
      "is": 1143,
      "out": 1144,
      "##re": 1145,
      "##ome": 1146,
      "but": 1147,
      "li": 1148,
      "she": 1149,
      "##ro": 1150,
      "##ter": 1151,
      "##pp": 1152,
      "##am": 1153,
      "##ct": 1154,
      "had": 1155,
      "her": 1156,
      "##ion": 1157,
      "se": 1158,
      "re": 1159,
      "not": 1160,
      "do": 1161,
      "##out": 1162,
      "##ust": 1163,
      "##ould": 1164,
      "go": 1165,
      "ba": 1166,
      "ne": 1167,
      "get": 1168,
      "you": 1169,
      "##king": 1170,
      "##art": 1171,
      "fr": 1172,
      "##ic": 1173,
      "ab": 1174,
      "##th": 1175,
      "##ra": 1176,
      "have": 1177,
      "##end": 1178,
      "fe": 1179,
      "##ight": 1180,
      "just": 1181,
      "##one": 1182,
      "##il": 1183,
      "fu": 1184,
      "##au": 1185,
      "ch": 1186,
      "rea": 1187,
      "##ally": 1188,
      "all": 1189,
      "about": 1190,
      "##ill": 1191,
      "##ess": 1192,
      "##rou": 1193,
      "ma": 1194,
      "some": 1195,
      "did": 1196,
      "wor": 1197,
      "de": 1198,
      "##riend": 1199,
      "##ant": 1200,
      "##ore": 1201,
      "back": 1202,
      "like": 1203,
      "al": 1204,
      "##un": 1205,
      "##op": 1206,
      "##est": 1207,
      "##ate": 1208,
      "##us": 1209,
      "from": 1210,
      "com": 1211,
      "##ge": 1212,
      "kn": 1213,
      "##ard": 1214,
      "when": 1215,
      "whi": 1216,
      "##ast": 1217,
      "##ry": 1218,
      "off": 1219,
      "one": 1220,
      "##ain": 1221,
      "ex": 1222,
      "tim": 1223,
      "##..": 1224,
      "po": 1225,
      "##um": 1226,
      "##ind": 1227,
      "##lf": 1228,
      "there": 1229,
      "what": 1230,
      "##li": 1231,
      "##ting": 1232,
      "they": 1233,
      "##ked": 1234,
      "got": 1235,
      "sa": 1236,
      "##her": 1237,
      "##to": 1238,
      "af": 1239,
      "sp": 1240,
      "##own": 1241,
      "no": 1242,
      "con": 1243,
      "now": 1244,
      "fuck": 1245,
      "##ead": 1246,
      "##ide": 1247,
      "friend": 1248,
      "start": 1249,
      "##lo": 1250,
      "ever": 1251,
      "##ood": 1252,
      "##ick": 1253,
      "pl": 1254,
      "ag": 1255,
      "time": 1256,
      "after": 1257,
      "any": 1258,
      "happ": 1259,
      "or": 1260,
      "te": 1261,
      "loo": 1262,
      "ta": 1263,
      "##ers": 1264,
      "then": 1265,
      "bec": 1266,
      "##el": 1267,
      "##ass": 1268,
      "hou": 1269,
      "##ame": 1270,
      "his": 1271,
      "were": 1272,
      "into": 1273,
      "pro": 1274,
      "##way": 1275,
      "##ause": 1276,
      "him": 1277,
      "day": 1278,
      "le": 1279,
      "us": 1280,
      "can": 1281,
      "would": 1282,
      "##if": 1283,
      "##ad": 1284,
      "am": 1285,
      "un": 1286,
      "su": 1287,
      "over": 1288,
      "ro": 1289,
      "co": 1290,
      "pr": 1291,
      "happen": 1292,
      "didn": 1293,
      "down": 1294,
      "##ep": 1295,
      "...": 1296,
      "mo": 1297,
      "by": 1298,
      "##ation": 1299,
      "because": 1300,
      "##hing": 1301,
      "if": 1302,
      "see": 1303,
      "##lly": 1304,
      "could": 1305,
      "##ear": 1306,
      "##ig": 1307,
      "know": 1308,
      "##ble": 1309,
      "##ving": 1310,
      "lo": 1311,
      "car": 1312,
      "who": 1313,
      "every": 1314,
      "##ks": 1315,
      "##day": 1316,
      "##round": 1317,
      "##urn": 1318,
      "##ong": 1319,
      "say": 1320,
      "fa": 1321,
      "en": 1322,
      "##ul": 1323,
      "too": 1324,
      "are": 1325,
      "dec": 1326,
      "thou": 1327,
      "bo": 1328,
      "##ven": 1329,
      "them": 1330,
      "##ater": 1331,
      "gir": 1332,
      "cou": 1333,
      "going": 1334,
      "fir": 1335,
      "gu": 1336,
      "how": 1337,
      "##ist": 1338,
      "sc": 1339,
      "cl": 1340,
      "##ure": 1341,
      "went": 1342,
      "##ort": 1343,
      "br": 1344,
      "##ice": 1345,
      "been": 1346,
      "##ine": 1347,
      "thin": 1348,
      "##other": 1349,
      "sm": 1350,
      "dr": 1351,
      "##ool": 1352,
      "thing": 1353,
      "don": 1354,
      "work": 1355,
      "##tle": 1356,
      "year": 1357,
      "really": 1358,
      "our": 1359,
      "##and": 1360,
      "call": 1361,
      "##xt": 1362,
      "lit": 1363,
      "##ous": 1364,
      "##ty": 1365,
      "##de": 1366,
      "want": 1367,
      "##ive": 1368,
      "happened": 1369,
      "qu": 1370,
      "while": 1371,
      "bl": 1372,
      "##ect": 1373,
      "around": 1374,
      "##ap": 1375,
      "im": 1376,
      "##fore": 1377,
      "try": 1378,
      "pe": 1379,
      "still": 1380,
      "before": 1381,
      "min": 1382,
      "##self": 1383,
      "stu": 1384,
      "home": 1385,
      "which": 1386,
      "##ther": 1387,
      "said": 1388,
      "wal": 1389,
      "ph": 1390,
      "man": 1391,
      "##pl": 1392,
      "##ually": 1393,
      "##ag": 1394,
      "shit": 1395,
      "few": 1396,
      "well": 1397,
      "where": 1398,
      "ve": 1399,
      "##ment": 1400,
      "##int": 1401,
      "thought": 1402,
      "room": 1403,
      "being": 1404,
      "tw": 1405,
      "tell": 1406,
      "other": 1407,
      "##ning": 1408,
      "##ff": 1409,
      "only": 1410,
      "##ip": 1411,
      "turn": 1412,
      "way": 1413,
      "##ite": 1414,
      "right": 1415,
      "feel": 1416,
      "##ie": 1417,
      "##co": 1418,
      "hand": 1419,
      "##ft": 1420,
      "first": 1421,
      "##ery": 1422,
      "hour": 1423,
      "even": 1424,
      "little": 1425,
      "decid": 1426,
      "##omet": 1427,
      "good": 1428,
      "today": 1429,
      "##ath": 1430,
      "more": 1431,
      "ac": 1432,
      "##age": 1433,
      "night": 1434,
      "wee": 1435,
      "##thing": 1436,
      "##ss": 1437,
      "somet": 1438,
      "minut": 1439,
      "has": 1440,
      "ar": 1441,
      "sch": 1442,
      "than": 1443,
      "girl": 1444,
      "##ab": 1445,
      "gra": 1446,
      "##ound": 1447,
      "end": 1448,
      "jo": 1449,
      "bu": 1450,
      "fin": 1451,
      "started": 1452,
      "myself": 1453,
      "op": 1454,
      "put": 1455,
      "wa": 1456,
      "guy": 1457,
      "friends": 1458,
      "decided": 1459,
      "ho": 1460,
      "##ack": 1461,
      "act": 1462,
      "ago": 1463,
      "##ish": 1464,
      "##uch": 1465,
      "tri": 1466,
      "tal": 1467,
      "##so": 1468,
      "mom": 1469,
      "door": 1470,
      "let": 1471,
      "##ious": 1472,
      "par": 1473,
      "head": 1474,
      "school": 1475,
      "told": 1476,
      "again": 1477,
      "need": 1478,
      "##em": 1479,
      "##atch": 1480,
      "next": 1481,
      "sit": 1482,
      "##dd": 1483,
      "pret": 1484,
      "##ber": 1485,
      "make": 1486,
      "##ue": 1487,
      "something": 1488,
      "part": 1489,
      "take": 1490,
      "peop": 1491,
      "two": 1492,
      "people": 1493,
      "sin": 1494,
      "very": 1495,
      "fl": 1496,
      "##ward": 1497,
      "house": 1498,
      "##ity": 1499,
      "ass": 1500,
      "pu": 1501,
      "minutes": 1502,
      "think": 1503,
      "last": 1504,
      ").": 1505,
      "##rough": 1506,
      "phone": 1507,
      "through": 1508,
      "##ved": 1509,
      "##iss": 1510,
      "##ory": 1511,
      "getting": 1512,
      "##nder": 1513,
      "##room": 1514,
      "never": 1515,
      "bot": 1516,
      "##pped": 1517,
      "pretty": 1518,
      "dri": 1519,
      "bit": 1520,
      "##per": 1521,
      "em": 1522,
      "##dit": 1523,
      "##ents": 1524,
      "here": 1525,
      "##igh": 1526,
      "show": 1527,
      "left": 1528,
      "much": 1529,
      "##med": 1530,
      "##ily": 1531,
      "##lt": 1532,
      "open": 1533,
      "point": 1534,
      "new": 1535,
      "##ell": 1536,
      "sl": 1537,
      "cont": 1538,
      "##ach": 1539,
      "app": 1540,
      "made": 1541,
      "##ang": 1542,
      "wr": 1543,
      "che": 1544,
      "will": 1545,
      "cle": 1546,
      "tr": 1547,
      "away": 1548,
      "ke": 1549,
      "rem": 1550,
      "trying": 1551,
      "##dy": 1552,
      "class": 1553,
      "your": 1554,
      "face": 1555,
      "look": 1556,
      "sw": 1557,
      "lea": 1558,
      "##ated": 1559,
      "old": 1560,
      "##pt": 1561,
      "##ace": 1562,
      "##ies": 1563,
      "later": 1564,
      "##side": 1565,
      "dis": 1566,
      "##ree": 1567,
      "wasn": 1568,
      "##ating": 1569,
      "since": 1570,
      "##row": 1571,
      "long": 1572,
      "play": 1573,
      "also": 1574,
      "##ently": 1575,
      "##ely": 1576,
      "##iz": 1577,
      "mon": 1578,
      "##liz": 1579,
      "fo": 1580,
      "lau": 1581,
      "years": 1582,
      "clo": 1583,
      "their": 1584,
      "id": 1585,
      "realiz": 1586,
      "##uck": 1587,
      ".\"": 1588,
      "res": 1589,
      "should": 1590,
      "##wn": 1591,
      "came": 1592,
      "run": 1593,
      "took": 1594,
      "water": 1595,
      "##ple": 1596,
      "##orm": 1597,
      "##ac": 1598,
      "unt": 1599,
      "acc": 1600,
      "##ough": 1601,
      "find": 1602,
      "bad": 1603,
      "bed": 1604,
      "##fe": 1605,
      "bath": 1606,
      "most": 1607,
      "mor": 1608,
      "things": 1609,
      "##eak": 1610,
      "inst": 1611,
      "##ance": 1612,
      "##gg": 1613,
      "##eam": 1614,
      "comp": 1615,
      "red": 1616,
      "##ush": 1617,
      "tra": 1618,
      "under": 1619,
      "until": 1620,
      "come": 1621,
      "actually": 1622,
      "hours": 1623,
      "10": 1624,
      "##ont": 1625,
      "##nt": 1626,
      "cr": 1627,
      "##po": 1628,
      "##air": 1629,
      "##be": 1630,
      "##eal": 1631,
      "lot": 1632,
      "wait": 1633,
      "##qu": 1634,
      "hel": 1635,
      "asked": 1636,
      "gre": 1637,
      "ll": 1638,
      "fucking": 1639,
      "##ves": 1640,
      "##ase": 1641,
      "ey": 1642,
      "##ately": 1643,
      "sure": 1644,
      "month": 1645,
      "##cond": 1646,
      "kid": 1647,
      "another": 1648,
      "aw": 1649,
      "##leep": 1650,
      "having": 1651,
      "big": 1652,
      "second": 1653,
      "##ash": 1654,
      "att": 1655,
      "bet": 1656,
      "##ways": 1657,
      "morning": 1658,
      "hit": 1659,
      "help": 1660,
      "wanted": 1661,
      "##ably": 1662,
      "does": 1663,
      "##ence": 1664,
      "laugh": 1665,
      "bathroom": 1666,
      "##ail": 1667,
      "tried": 1668,
      "high": 1669,
      "pull": 1670,
      "dad": 1671,
      "##kes": 1672,
      "##ew": 1673,
      "str": 1674,
      "inter": 1675,
      "felt": 1676,
      "kind": 1677,
      "why": 1678,
      "**": 1679,
      "everything": 1680,
      "##cked": 1681,
      "week": 1682,
      "clean": 1683,
      "half": 1684,
      "##ump": 1685,
      "may": 1686,
      "doing": 1687,
      "##sp": 1688,
      "per": 1689,
      "anything": 1690,
      "##ild": 1691,
      "watch": 1692,
      "##ol": 1693,
      "##ically": 1694,
      "story": 1695,
      "front": 1696,
      "##lfriend": 1697,
      "days": 1698,
      "looking": 1699,
      "girlfriend": 1700,
      "beg": 1701,
      "##are": 1702,
      "saw": 1703,
      "fun": 1704,
      "looked": 1705,
      "##our": 1706,
      "life": 1707,
      "post": 1708,
      "couple": 1709,
      "fam": 1710,
      "des": 1711,
      "rest": 1712,
      "drin": 1713,
      "##get": 1714,
      "##os": 1715,
      "someone": 1716,
      "pers": 1717,
      "ear": 1718,
      "hard": 1719,
      "pass": 1720,
      "pain": 1721,
      "place": 1722,
      "prob": 1723,
      "everyone": 1724,
      "##able": 1725,
      "quick": 1726,
      "##act": 1727,
      "found": 1728,
      "##ose": 1729,
      "compl": 1730,
      "nothing": 1731,
      "ad": 1732,
      "##mo": 1733,
      "##ave": 1734,
      "##ps": 1735,
      "probably": 1736,
      "yes": 1737,
      "##each": 1738,
      "grab": 1739,
      "flo": 1740,
      "keep": 1741,
      "sho": 1742,
      "side": 1743,
      "##ook": 1744,
      "sn": 1745,
      "##ions": 1746,
      "##ather": 1747,
      "walk": 1748,
      "20": 1749,
      "thinking": 1750,
      "enough": 1751,
      "##read": 1752,
      "bus": 1753,
      "finally": 1754,
      "gl": 1755,
      "parents": 1756,
      "##bo": 1757,
      "person": 1758,
      "##der": 1759,
      "ok": 1760,
      "hot": 1761,
      "##unk": 1762,
      "##orn": 1763,
      "##ten": 1764,
      "?\"": 1765,
      "pre": 1766,
      "##ans": 1767,
      "cra": 1768,
      "couldn": 1769,
      "##ee": 1770,
      "dro": 1771,
      "##unch": 1772,
      "##les": 1773,
      "rec": 1774,
      "both": 1775,
      "use": 1776,
      "mess": 1777,
      "whole": 1778,
      "ob": 1779,
      "##ife": 1780,
      "done": 1781,
      "its": 1782,
      "##aring": 1783,
      "stop": 1784,
      "called": 1785,
      "ev": 1786,
      "##ual": 1787,
      "pick": 1788,
      "sk": 1789,
      "says": 1790,
      "sleep": 1791,
      "##itch": 1792,
      "talking": 1793,
      "bar": 1794,
      "scr": 1795,
      "job": 1796,
      "set": 1797,
      "same": 1798,
      "##pr": 1799,
      "##ci": 1800,
      "best": 1801,
      "##ub": 1802,
      "family": 1803,
      "##ise": 1804,
      "floor": 1805,
      "tif": 1806,
      "##oke": 1807,
      "##gs": 1808,
      "##most": 1809,
      "wrong": 1810,
      "gi": 1811,
      "knew": 1812,
      "oh": 1813,
      "almost": 1814,
      "saying": 1815,
      "fucked": 1816,
      "without": 1817,
      "##fer": 1818,
      "rep": 1819,
      "idea": 1820,
      "##ling": 1821,
      "making": 1822,
      "cour": 1823,
      "##ake": 1824,
      "##ile": 1825,
      "##led": 1826,
      "##ire": 1827,
      "##ever": 1828,
      "small": 1829,
      "ended": 1830,
      "##ember": 1831,
      "##ister": 1832,
      "##ful": 1833,
      "stuff": 1834,
      "edit": 1835,
      "wind": 1836,
      "tifu": 1837,
      "boy": 1838,
      "##ank": 1839,
      "coll": 1840,
      "##vers": 1841,
      "check": 1842,
      "great": 1843,
      "##pping": 1844,
      "##ict": 1845,
      "##ident": 1846,
      "feeling": 1847,
      "##umb": 1848,
      "those": 1849,
      "bro": 1850,
      "teach": 1851,
      "give": 1852,
      "ser": 1853,
      "complet": 1854,
      "expl": 1855,
      "own": 1856,
      "##ount": 1857,
      "sitting": 1858,
      "remember": 1859,
      "leave": 1860,
      "inc": 1861,
      "##ilet": 1862,
      "toilet": 1863,
      "##wh": 1864,
      "##sh": 1865,
      "##ken": 1866,
      "light": 1867,
      "real": 1868,
      "##up": 1869,
      "##ason": 1870,
      "cut": 1871,
      "\".": 1872,
      "30": 1873,
      "hop": 1874,
      "comes": 1875,
      "months": 1876,
      "mid": 1877,
      "nice": 1878,
      "ask": 1879,
      "always": 1880,
      "##ding": 1881,
      "..": 1882,
      "beh": 1883,
      "stand": 1884,
      "##ying": 1885,
      "drive": 1886,
      "##medi": 1887,
      "fast": 1888,
      "sex": 1889,
      "bas": 1890,
      "##oth": 1891,
      "sur": 1892,
      "##ned": 1893,
      "immedi": 1894,
      "exp": 1895,
      "##ention": 1896,
      "sat": 1897,
      "though": 1898,
      "these": 1899,
      "talk": 1900,
      "##ix": 1901,
      "turned": 1902,
      "conf": 1903,
      "ent": 1904,
      "used": 1905,
      "##uring": 1906,
      "##--": 1907,
      "wife": 1908,
      "pay": 1909,
      "##ms": 1910,
      "fig": 1911,
      "mother": 1912,
      "hear": 1913,
      "rel": 1914,
      "near": 1915,
      "mind": 1916,
      "##less": 1917,
      "reddit": 1918,
      "##ied": 1919,
      "inside": 1920,
      "text": 1921,
      "##ary": 1922,
      "met": 1923,
      "##ens": 1924,
      "brother": 1925,
      "outside": 1926,
      "##part": 1927,
      "each": 1928,
      "cur": 1929,
      "##ph": 1930,
      "##ready": 1931,
      "already": 1932,
      "shower": 1933,
      "course": 1934,
      "),": 1935,
      "##ird": 1936,
      "full": 1937,
      "dam": 1938,
      "doesn": 1939,
      "##ult": 1940,
      "immediately": 1941,
      "burn": 1942,
      "##az": 1943,
      "piss": 1944,
      "stay": 1945,
      "##yp": 1946,
      "once": 1947,
      "explain": 1948,
      "break": 1949,
      ":/": 1950,
      "finish": 1951,
      "##ross": 1952,
      "hu": 1953,
      "##tt": 1954,
      "throw": 1955,
      "top": 1956,
      "##sing": 1957,
      "instead": 1958,
      "##ced": 1959,
      "manag": 1960,
      "weeks": 1961,
      "hell": 1962,
      "gave": 1963,
      "##ib": 1964,
      "el": 1965,
      "reason": 1966,
      "taking": 1967,
      "cau": 1968,
      "realized": 1969,
      "##fu": 1970,
      "dir": 1971,
      "quickly": 1972,
      "##vious": 1973,
      "##rew": 1974,
      "!\"": 1975,
      "ret": 1976,
      "##by": 1977,
      "starts": 1978,
      "times": 1979,
      "dog": 1980,
      "##ants": 1981,
      "hur": 1982,
      "htt": 1983,
      "bra": 1984,
      "norm": 1985,
      "drunk": 1986,
      "://": 1987,
      "##ger": 1988,
      "sto": 1989,
      "window": 1990,
      "goes": 1991,
      "sister": 1992,
      "##sed": 1993,
      "##lie": 1994,
      "##airs": 1995,
      "##ange": 1996,
      "hold": 1997,
      "##outh": 1998,
      "##arm": 1999,
      "##ner": 2000,
      "short": 2001,
      "blood": 2002,
      "forg": 2003,
      "anyway": 2004,
      "name": 2005,
      "walking": 2006,
      "during": 2007,
      "walked": 2008,
      "ext": 2009,
      "##log": 2010,
      "food": 2011,
      "##llow": 2012,
      "past": 2013,
      "pict": 2014,
      "maybe": 2015,
      "##een": 2016,
      "coming": 2017,
      "turns": 2018,
      "pan": 2019,
      "dif": 2020,
      "##bed": 2021,
      "mar": 2022,
      "##ared": 2023,
      "proble": 2024,
      "##ates": 2025,
      "behind": 2026,
      "close": 2027,
      "guess": 2028,
      "event": 2029,
      "stup": 2030,
      "##ured": 2031,
      "inf": 2032,
      "notic": 2033,
      "##oney": 2034,
      "##ets": 2035,
      "##red": 2036,
      "##ia": 2037,
      "##ign": 2038,
      "forward": 2039,
      "sub": 2040,
      "ter": 2041,
      "fall": 2042,
      "working": 2043,
      "##vie": 2044,
      "stra": 2045,
      "teacher": 2046,
      "##ted": 2047,
      "hands": 2048,
      "supp": 2049,
      "wall": 2050,
      "stupid": 2051,
      "##ors": 2052,
      "super": 2053,
      "##ical": 2054,
      "##ces": 2055,
      "##ny": 2056,
      "eyes": 2057,
      "needed": 2058,
      "decide": 2059,
      "fire": 2060,
      "late": 2061,
      "fine": 2062,
      "##wards": 2063,
      "gr": 2064,
      "soon": 2065,
      "reg": 2066,
      "smell": 2067,
      "meet": 2068,
      "gets": 2069,
      "wom": 2070,
      "office": 2071,
      "plan": 2072,
      "better": 2073,
      "moment": 2074,
      "##cept": 2075,
      "##ys": 2076,
      "luck": 2077,
      "quite": 2078,
      "##atter": 2079,
      "ran": 2080,
      "heard": 2081,
      "add": 2082,
      "completely": 2083,
      "love": 2084,
      "yell": 2085,
      "hor": 2086,
      "kids": 2087,
      "##ible": 2088,
      "realize": 2089,
      "forgot": 2090,
      "many": 2091,
      "exc": 2092,
      "##partment": 2093,
      "guys": 2094,
      "pap": 2095,
      "money": 2096,
      "game": 2097,
      "eye": 2098,
      "##ds": 2099,
      "##amp": 2100,
      "live": 2101,
      "bag": 2102,
      "##arr": 2103,
      "move": 2104,
      "sound": 2105,
      "running": 2106,
      "sent": 2107,
      "##gether": 2108,
      "sor": 2109,
      "comm": 2110,
      "playing": 2111,
      "##where": 2112,
      "##ceed": 2113,
      "else": 2114,
      "list": 2115,
      "comput": 2116,
      "begin": 2117,
      "air": 2118,
      "three": 2119,
      "##uation": 2120,
      "##cc": 2121,
      "together": 2122,
      "cat": 2123,
      "might": 2124,
      "telling": 2125,
      "mouth": 2126,
      "##fort": 2127,
      "care": 2128,
      "entire": 2129,
      "##gn": 2130,
      "hair": 2131,
      "inv": 2132,
      "cover": 2133,
      "ball": 2134,
      "typ": 2135,
      "appar": 2136,
      "hang": 2137,
      "##ular": 2138,
      "miss": 2139,
      "accident": 2140,
      "##na": 2141,
      "##ud": 2142,
      "##ction": 2143,
      "looks": 2144,
      "least": 2145,
      "cool": 2146,
      "15": 2147,
      "however": 2148,
      "##dden": 2149,
      "stud": 2150,
      "##00": 2151,
      "##ited": 2152,
      "pants": 2153,
      "lad": 2154,
      "usually": 2155,
      "boss": 2156,
      "proceed": 2157,
      "sudden": 2158,
      "using": 2159,
      "##cks": 2160,
      "box": 2161,
      "##ered": 2162,
      "foot": 2163,
      "##no": 2164,
      "colle": 2165,
      "differ": 2166,
      "sorry": 2167,
      "spe": 2168,
      "##dle": 2169,
      "free": 2170,
      "party": 2171,
      "##io": 2172,
      "##ian": 2173,
      "black": 2174,
      "lost": 2175,
      "laughing": 2176,
      "waiting": 2177,
      "yea": 2178,
      "yester": 2179,
      "college": 2180,
      "##ork": 2181,
      "yesterday": 2182,
      "able": 2183,
      "dra": 2184,
      "##erally": 2185,
      "ton": 2186,
      "apparently": 2187,
      "pri": 2188,
      "##iv": 2189,
      "eat": 2190,
      "follow": 2191,
      "jump": 2192,
      "mean": 2193,
      "##umber": 2194,
      "grou": 2195,
      "mist": 2196,
      "##friend": 2197,
      "asking": 2198,
      "must": 2199,
      "noticed": 2200,
      "paper": 2201,
      "order": 2202,
      "poss": 2203,
      "slow": 2204,
      "vis": 2205,
      "##ru": 2206,
      "situation": 2207,
      "store": 2208,
      "less": 2209,
      "cop": 2210,
      "test": 2211,
      "onto": 2212,
      "computer": 2213,
      "##ract": 2214,
      "cons": 2215,
      "##ept": 2216,
      "contin": 2217,
      "##ons": 2218,
      "##essed": 2219,
      "basically": 2220,
      "##ween": 2221,
      "##fully": 2222,
      "la": 2223,
      "##ised": 2224,
      "along": 2225,
      "fing": 2226,
      "ins": 2227,
      "between": 2228,
      "card": 2229,
      "problem": 2230,
      "deal": 2231,
      "middle": 2232,
      "send": 2233,
      "gone": 2234,
      "anyone": 2235,
      "dick": 2236,
      "fact": 2237,
      "wouldn": 2238,
      "lou": 2239,
      "bottle": 2240,
      "##ried": 2241,
      "leg": 2242,
      "##**": 2243,
      "seconds": 2244,
      "##irt": 2245,
      "swe": 2246,
      "okay": 2247,
      "bou": 2248,
      "boyfriend": 2249,
      "ru": 2250,
      "##kward": 2251,
      "##used": 2252,
      "apo": 2253,
      "quest": 2254,
      "##ho": 2255,
      "##ined": 2256,
      "kept": 2257,
      "awkward": 2258,
      "sim": 2259,
      "##ition": 2260,
      "##ital": 2261,
      "imp": 2262,
      "##vel": 2263,
      "hurt": 2264,
      "eventually": 2265,
      "group": 2266,
      "##eaking": 2267,
      "road": 2268,
      "spr": 2269,
      "yeah": 2270,
      "int": 2271,
      "##ert": 2272,
      "eng": 2273,
      "emb": 2274,
      "god": 2275,
      "....": 2276,
      "notice": 2277,
      "emp": 2278,
      "et": 2279,
      "seat": 2280,
      "number": 2281,
      "din": 2282,
      "vide": 2283,
      "different": 2284,
      "girls": 2285,
      "##arge": 2286,
      "straight": 2287,
      "ready": 2288,
      "watching": 2289,
      "drink": 2290,
      "apolog": 2291,
      "http": 2292,
      "direct": 2293,
      "seen": 2294,
      "isn": 2295,
      "##ired": 2296,
      "obvious": 2297,
      "##ord": 2298,
      "far": 2299,
      "weird": 2300,
      "##ift": 2301,
      "wo": 2302,
      "##any": 2303,
      "gen": 2304,
      "##umm": 2305,
      "##lice": 2306,
      "glass": 2307,
      "lap": 2308,
      "##ial": 2309,
      "##ung": 2310,
      "worse": 2311,
      "thank": 2312,
      "##ames": 2313,
      "tells": 2314,
      "eas": 2315,
      "loc": 2316,
      "perf": 2317,
      "##sw": 2318,
      "grand": 2319,
      "etc": 2320,
      "roll": 2321,
      "butt": 2322,
      "began": 2323,
      "cry": 2324,
      "##ither": 2325,
      "##ars": 2326,
      "apartment": 2327,
      "##du": 2328,
      "arri": 2329,
      "read": 2330,
      "kill": 2331,
      "##ress": 2332,
      "fill": 2333,
      "##iting": 2334,
      "won": 2335,
      "##ject": 2336,
      "kitch": 2337,
      "kitchen": 2338,
      "across": 2339,
      "##ark": 2340,
      "scream": 2341,
      "woke": 2342,
      "##cy": 2343,
      "##jo": 2344,
      "body": 2345,
      "##ings": 2346,
      "neigh": 2347,
      "conc": 2348,
      "neighb": 2349,
      "kick": 2350,
      "woman": 2351,
      "clear": 2352,
      "##ues": 2353,
      "##ower": 2354,
      "lunch": 2355,
      "pie": 2356,
      "pack": 2357,
      "mus": 2358,
      "cli": 2359,
      "town": 2360,
      "fell": 2361,
      "reach": 2362,
      "sever": 2363,
      "sort": 2364,
      "figured": 2365,
      "table": 2366,
      "police": 2367,
      "leaving": 2368,
      "mil": 2369,
      "build": 2370,
      "literally": 2371,
      "huge": 2372,
      "normal": 2373,
      "yet": 2374,
      "pulled": 2375,
      "##lic": 2376,
      "answ": 2377,
      "broke": 2378,
      "##body": 2379,
      "belie": 2380,
      "convers": 2381,
      "step": 2382,
      "##top": 2383,
      "hope": 2384,
      "pres": 2385,
      "bri": 2386,
      "##ah": 2387,
      "whate": 2388,
      "##ug": 2389,
      "med": 2390,
      "asks": 2391,
      "wash": 2392,
      "embarr": 2393,
      "whatever": 2394,
      "such": 2395,
      "##rible": 2396,
      "##ense": 2397,
      "ground": 2398,
      "train": 2399,
      "det": 2400,
      "##ize": 2401,
      "child": 2402,
      "email": 2403,
      "##cial": 2404,
      "##ures": 2405,
      "due": 2406,
      "##ma": 2407,
      "loud": 2408,
      "chr": 2409,
      "stopped": 2410,
      "##ude": 2411,
      "happy": 2412,
      "underst": 2413,
      "##cking": 2414,
      "funny": 2415,
      "def": 2416,
      "lady": 2417,
      "##iet": 2418,
      "##kend": 2419,
      "conversation": 2420,
      "ple": 2421,
      "cre": 2422,
      "pen": 2423,
      "tot": 2424,
      "smo": 2425,
      "dinner": 2426,
      "lear": 2427,
      "pot": 2428,
      "weekend": 2429,
      "exper": 2430,
      "embarrass": 2431,
      "eating": 2432,
      "##zy": 2433,
      "ind": 2434,
      "##ror": 2435,
      "vo": 2436,
      "hosp": 2437,
      "area": 2438,
      "youn": 2439,
      "living": 2440,
      "##ship": 2441,
      "date": 2442,
      "hospital": 2443,
      "##ering": 2444,
      "unc": 2445,
      "ble": 2446,
      "accidentally": 2447,
      "##ness": 2448,
      "stre": 2449,
      "early": 2450,
      "##antly": 2451,
      "##ink": 2452,
      "buy": 2453,
      "sy": 2454,
      "stuck": 2455,
      "feet": 2456,
      "sec": 2457,
      "tow": 2458,
      "bought": 2459,
      "hey": 2460,
      "driving": 2461,
      "company": 2462,
      "##iday": 2463,
      "arm": 2464,
      "av": 2465,
      "##iot": 2466,
      "##ike": 2467,
      "drinking": 2468,
      "contact": 2469,
      "cho": 2470,
      "resp": 2471,
      "fix": 2472,
      "mine": 2473,
      "coff": 2474,
      "standing": 2475,
      "line": 2476,
      "##man": 2477,
      "cold": 2478,
      "picture": 2479,
      "##ghter": 2480,
      "finished": 2481,
      "recently": 2482,
      "mention": 2483,
      "mistake": 2484,
      "blo": 2485,
      "gas": 2486,
      "trip": 2487,
      "sign": 2488,
      "towards": 2489,
      "seemed": 2490,
      "##ics": 2491,
      "desk": 2492,
      "video": 2493,
      "sing": 2494,
      "cloth": 2495,
      "##oop": 2496,
      "##ested": 2497,
      "mem": 2498,
      "##gur": 2499,
      "##bs": 2500,
      "##lut": 2501,
      "gf": 2502,
      "haven": 2503,
      "dead": 2504,
      "stom": 2505,
      "##iness": 2506,
      "return": 2507,
      "worst": 2508,
      "account": 2509,
      "suddenly": 2510,
      "spent": 2511,
      "##stairs": 2512,
      "exact": 2513,
      "minute": 2514,
      "##ected": 2515,
      "tick": 2516,
      "coffee": 2517,
      "##cket": 2518,
      "anyways": 2519,
      "cal": 2520,
      "opened": 2521,
      "doct": 2522,
      "##ages": 2523,
      "serious": 2524,
      "bott": 2525,
      "##ience": 2526,
      "laptop": 2527,
      "shot": 2528,
      "gon": 2529,
      "##reen": 2530,
      "##cess": 2531,
      "##ized": 2532,
      "either": 2533,
      "stick": 2534,
      "spot": 2535,
      "pissed": 2536,
      "ele": 2537,
      "##ushed": 2538,
      "sil": 2539,
      "surpr": 2540,
      "dist": 2541,
      "giving": 2542,
      "##sc": 2543,
      "grabbed": 2544,
      "bring": 2545,
      "enjo": 2546,
      "tom": 2547,
      "##cing": 2548,
      "##bing": 2549,
      "roomm": 2550,
      "lay": 2551,
      "##ines": 2552,
      "##how": 2553,
      "joke": 2554,
      "remo": 2555,
      "##nday": 2556,
      "nat": 2557,
      "##aked": 2558,
      "pur": 2559,
      "imgur": 2560,
      "gonna": 2561,
      "assum": 2562,
      "##unt": 2563,
      "shirt": 2564,
      "bur": 2565,
      "wonder": 2566,
      "large": 2567,
      "##ugg": 2568,
      "pee": 2569,
      "##book": 2570,
      "land": 2571,
      "ride": 2572,
      "damn": 2573,
      "alone": 2574,
      "bir": 2575,
      "##ments": 2576,
      "##line": 2577,
      "##rem": 2578,
      "idiot": 2579,
      "kno": 2580,
      "##----": 2581,
      "street": 2582,
      "##osed": 2583,
      "wake": 2584,
      "bre": 2585,
      "hon": 2586,
      "truck": 2587,
      "clos": 2588,
      "case": 2589,
      "heart": 2590,
      "perfect": 2591,
      "relation": 2592,
      "disc": 2593,
      "moved": 2594,
      "##ession": 2595,
      "##orrow": 2596,
      "understand": 2597,
      "white": 2598,
      "caught": 2599,
      "birth": 2600,
      "dumb": 2601,
      "stomach": 2602,
      "prof": 2603,
      "12": 2604,
      "obviously": 2605,
      "##ret": 2606,
      "##vice": 2607,
      "##esh": 2608,
      ".)": 2609,
      "pop": 2610,
      "rid": 2611,
      "occ": 2612,
      "several": 2613,
      "char": 2614,
      "screen": 2615,
      "upd": 2616,
      "father": 2617,
      "bow": 2618,
      "##ator": 2619,
      "rather": 2620,
      "spend": 2621,
      "##!!": 2622,
      "summ": 2623,
      "##ored": 2624,
      "##ane": 2625,
      "exam": 2626,
      "attem": 2627,
      "worked": 2628,
      "ang": 2629,
      "clothes": 2630,
      "##erg": 2631,
      "smoke": 2632,
      "curr": 2633,
      "##ins": 2634,
      "catch": 2635,
      "thanks": 2636,
      "makes": 2637,
      "relationship": 2638,
      "christ": 2639,
      "intern": 2640,
      "form": 2641,
      "squ": 2642,
      "##its": 2643,
      "corn": 2644,
      "somehow": 2645,
      "##lier": 2646,
      "##ze": 2647,
      "##let": 2648,
      "gar": 2649,
      "usual": 2650,
      "managed": 2651,
      "building": 2652,
      "cow": 2653,
      "](": 2654,
      "threw": 2655,
      "listen": 2656,
      "sha": 2657,
      "hadn": 2658,
      "fli": 2659,
      "##ibly": 2660,
      "chang": 2661,
      "change": 2662,
      "taken": 2663,
      "cust": 2664,
      "movie": 2665,
      "##iled": 2666,
      "ups": 2667,
      "manager": 2668,
      "happens": 2669,
      "forget": 2670,
      "##ne": 2671,
      "enter": 2672,
      "key": 2673,
      "##ones": 2674,
      "##ued": 2675,
      "seeing": 2676,
      "rece": 2677,
      "##__": 2678,
      "sal": 2679,
      "##izz": 2680,
      "dry": 2681,
      "prom": 2682,
      "shut": 2683,
      "goo": 2684,
      "slight": 2685,
      "earlier": 2686,
      "boo": 2687,
      "##ball": 2688,
      "count": 2689,
      "##ope": 2690,
      "against": 2691,
      "nose": 2692,
      "##view": 2693,
      "extrem": 2694,
      "di": 2695,
      "hall": 2696,
      "uni": 2697,
      "##ier": 2698,
      "except": 2699,
      "porn": 2700,
      "##br": 2701,
      "ur": 2702,
      "kinda": 2703,
      "asleep": 2704,
      "local": 2705,
      "coun": 2706,
      "son": 2707,
      "four": 2708,
      "fur": 2709,
      "cup": 2710,
      "iss": 2711,
      "state": 2712,
      "cond": 2713,
      "covered": 2714,
      "custom": 2715,
      "##ground": 2716,
      "passed": 2717,
      "deep": 2718,
      "sli": 2719,
      "finger": 2720,
      "wearing": 2721,
      "##ative": 2722,
      "hum": 2723,
      "starting": 2724,
      "##oid": 2725,
      "camp": 2726,
      "crying": 2727,
      "fair": 2728,
      "holding": 2729,
      "believe": 2730,
      "##ended": 2731,
      "gotten": 2732,
      "supposed": 2733,
      "message": 2734,
      "self": 2735,
      "hea": 2736,
      "amount": 2737,
      "everywhere": 2738,
      "##ube": 2739,
      "luckily": 2740,
      "rand": 2741,
      "doctor": 2742,
      "cause": 2743,
      "##lish": 2744,
      "##rought": 2745,
      "touch": 2746,
      "##astic": 2747,
      "er": 2748,
      "abso": 2749,
      "music": 2750,
      "pa": 2751,
      "putting": 2752,
      "word": 2753,
      "partic": 2754,
      "lock": 2755,
      "figure": 2756,
      "broken": 2757,
      "##cover": 2758,
      "absolut": 2759,
      "##ym": 2760,
      "baby": 2761,
      "press": 2762,
      "##lig": 2763,
      "pos": 2764,
      "##aster": 2765,
      "##unately": 2766,
      "##arch": 2767,
      "birthday": 2768,
      "##app": 2769,
      "world": 2770,
      "sick": 2771,
      "fil": 2772,
      "panic": 2773,
      "11": 2774,
      "##hh": 2775,
      "brought": 2776,
      "wip": 2777,
      "dark": 2778,
      "team": 2779,
      "ste": 2780,
      "skin": 2781,
      "park": 2782,
      "phot": 2783,
      "summer": 2784,
      "station": 2785,
      "knows": 2786,
      "ign": 2787,
      "calling": 2788,
      "##head": 2789,
      "legs": 2790,
      "note": 2791,
      "amaz": 2792,
      "business": 2793,
      "cleaning": 2794,
      "##ench": 2795,
      "crazy": 2796,
      "reading": 2797,
      "ner": 2798,
      "chat": 2799,
      "towel": 2800,
      "##ming": 2801,
      "question": 2802,
      "update": 2803,
      "random": 2804,
      "talked": 2805,
      "incl": 2806,
      "##mit": 2807,
      "piece": 2808,
      "takes": 2809,
      "honest": 2810,
      "bike": 2811,
      "possible": 2812,
      "##more": 2813,
      "sometim": 2814,
      "search": 2815,
      "chick": 2816,
      "proceeded": 2817,
      "slowly": 2818,
      "dou": 2819,
      "##uss": 2820,
      "dude": 2821,
      "parking": 2822,
      "ref": 2823,
      "tre": 2824,
      "budd": 2825,
      "eff": 2826,
      "confused": 2827,
      "dropped": 2828,
      "moving": 2829,
      "student": 2830,
      "words": 2831,
      "appro": 2832,
      "##ote": 2833,
      "fart": 2834,
      "##pond": 2835,
      "ra": 2836,
      "tomorrow": 2837,
      "cor": 2838,
      "##fw": 2839,
      "##iling": 2840,
      "##ene": 2841,
      "offic": 2842,
      "mass": 2843,
      "jack": 2844,
      "screaming": 2845,
      "trou": 2846,
      "picked": 2847,
      "five": 2848,
      "roommate": 2849,
      "cous": 2850,
      "couch": 2851,
      "\",": 2852,
      "bottom": 2853,
      "lead": 2854,
      "calls": 2855,
      "##mas": 2856,
      "drop": 2857,
      "##band": 2858,
      "young": 2859,
      "war": 2860,
      "anymore": 2861,
      "respond": 2862,
      "import": 2863,
      "knowing": 2864,
      "attempt": 2865,
      "wet": 2866,
      "##itely": 2867,
      "dau": 2868,
      "pub": 2869,
      "pictures": 2870,
      "cowork": 2871,
      "bunch": 2872,
      "ice": 2873,
      "speak": 2874,
      "attention": 2875,
      "##gle": 2876,
      "fly": 2877,
      "allow": 2878,
      "##ider": 2879,
      "facebook": 2880,
      "stri": 2881,
      "hung": 2882,
      "##ged": 2883,
      "background": 2884,
      "ns": 2885,
      "##board": 2886,
      "poor": 2887,
      "extremely": 2888,
      "meant": 2889,
      "##ric": 2890,
      "##hole": 2891,
      "##yed": 2892,
      "##als": 2893,
      "poop": 2894,
      "friday": 2895,
      "process": 2896,
      "city": 2897,
      "hus": 2898,
      "##ster": 2899,
      "sink": 2900,
      "keys": 2901,
      "single": 2902,
      "exactly": 2903,
      "wants": 2904,
      "##ations": 2905,
      "meeting": 2906,
      "corner": 2907,
      "type": 2908,
      "##hol": 2909,
      "brain": 2910,
      "mach": 2911,
      "unfort": 2912,
      "beer": 2913,
      "##ior": 2914,
      "ri": 2915,
      "fight": 2916,
      "worth": 2917,
      "tast": 2918,
      "balls": 2919,
      "normally": 2920,
      "nsfw": 2921,
      "scared": 2922,
      "closed": 2923,
      "matter": 2924,
      "spray": 2925,
      "particular": 2926,
      "opp": 2927,
      "imag": 2928,
      "locked": 2929,
      "natur": 2930,
      "mad": 2931,
      "empty": 2932,
      "longer": 2933,
      "ce": 2934,
      "##pm": 2935,
      "contro": 2936,
      "rub": 2937,
      "power": 2938,
      "tired": 2939,
      "##ses": 2940,
      "burning": 2941,
      "husband": 2942,
      "ant": 2943,
      "laughed": 2944,
      "##ushing": 2945,
      "##vy": 2946,
      "shop": 2947,
      "##ilar": 2948,
      "##ww": 2949,
      "please": 2950,
      "conv": 2951,
      "spl": 2952,
      "scratch": 2953,
      "hotel": 2954,
      "ir": 2955,
      "neighbor": 2956,
      "bedroom": 2957,
      "tv": 2958,
      "main": 2959,
      "##eth": 2960,
      "naked": 2961,
      "trans": 2962,
      "ate": 2963,
      "requ": 2964,
      "##gged": 2965,
      "cam": 2966,
      "christmas": 2967,
      "fresh": 2968,
      "##lied": 2969,
      "mot": 2970,
      "##ade": 2971,
      "voice": 2972,
      "bitch": 2973,
      "hanging": 2974,
      "##ape": 2975,
      "pizz": 2976,
      "##ising": 2977,
      "col": 2978,
      "plac": 2979,
      "interview": 2980,
      "defin": 2981,
      "daughter": 2982,
      "vac": 2983,
      "hole": 2984,
      "wed": 2985,
      "##gr": 2986,
      "extra": 2987,
      "##esome": 2988,
      "flight": 2989,
      "pour": 2990,
      "chance": 2991,
      "##cri": 2992,
      "##ased": 2993,
      "seems": 2994,
      "blow": 2995,
      "nearly": 2996,
      "sometimes": 2997,
      "proper": 2998,
      "filled": 2999,
      "##ime": 3000,
      "often": 3001,
      "prep": 3002,
      "##te": 3003,
      "asshole": 3004,
      "grade": 3005,
      "##ially": 3006,
      "gym": 3007,
      "answer": 3008,
      "important": 3009,
      "ten": 3010,
      "100": 3011,
      "sus": 3012,
      "50": 3013,
      "sem": 3014,
      "quiet": 3015,
      "win": 3016,
      "games": 3017,
      "stairs": 3018,
      "currently": 3019,
      "ed": 3020,
      "fan": 3021,
      "experience": 3022,
      "##pper": 3023,
      "drove": 3024,
      "walks": 3025,
      "vom": 3026,
      "##cially": 3027,
      "##eding": 3028,
      "avoid": 3029,
      "##gin": 3030,
      "stood": 3031,
      "mum": 3032,
      "within": 3033,
      "became": 3034,
      "##right": 3035,
      "kiss": 3036,
      "present": 3037,
      "##aur": 3038,
      "bowl": 3039,
      "base": 3040,
      "weed": 3041,
      "cost": 3042,
      "https": 3043,
      "totally": 3044,
      "aut": 3045,
      "tech": 3046,
      "yelling": 3047,
      "##ik": 3048,
      "damage": 3049,
      "##gue": 3050,
      "##oof": 3051,
      "load": 3052,
      "##ific": 3053,
      "absolutely": 3054,
      "##load": 3055,
      "terrible": 3056,
      "tonight": 3057,
      "pizza": 3058,
      "screw": 3059,
      "sun": 3060,
      "band": 3061,
      "fav": 3062,
      "ca": 3063,
      "##ides": 3064,
      "bea": 3065,
      "shift": 3066,
      "slightly": 3067,
      "checked": 3068,
      "##zz": 3069,
      "perio": 3070,
      "cap": 3071,
      "unfortunately": 3072,
      "bill": 3073,
      "needless": 3074,
      "awesome": 3075,
      "##use": 3076,
      "##rif": 3077,
      "##min": 3078,
      "inform": 3079,
      "english": 3080,
      "driver": 3081,
      "alarm": 3082,
      "cert": 3083,
      "given": 3084,
      "project": 3085,
      "##mm": 3086,
      "ju": 3087,
      "trash": 3088,
      "upon": 3089,
      "expect": 3090,
      "evening": 3091,
      "##cle": 3092,
      "book": 3093,
      "prin": 3094,
      "barely": 3095,
      "stor": 3096,
      "pocket": 3097,
      "mix": 3098,
      "sleeping": 3099,
      "susp": 3100,
      "excited": 3101,
      "mic": 3102,
      "##loy": 3103,
      "esc": 3104,
      "works": 3105,
      "definitely": 3106,
      "univers": 3107,
      "##iny": 3108,
      "sweet": 3109,
      "older": 3110,
      "##ield": 3111,
      "##ging": 3112,
      "##aw": 3113,
      "##ax": 3114,
      "board": 3115,
      "##port": 3116,
      "low": 3117,
      "angry": 3118,
      "alco": 3119,
      "restaur": 3120,
      "students": 3121,
      "mis": 3122,
      "heal": 3123,
      "staring": 3124,
      "final": 3125,
      "share": 3126,
      "alcohol": 3127,
      "chair": 3128,
      "chill": 3129,
      "cops": 3130,
      "learned": 3131,
      "law": 3132,
      "penis": 3133,
      "cent": 3134,
      "dest": 3135,
      "breath": 3136,
      "trust": 3137,
      "##atory": 3138,
      "cook": 3139,
      "dream": 3140,
      "cousin": 3141,
      "cash": 3142,
      "easy": 3143,
      "pat": 3144,
      "##fortable": 3145,
      "letting": 3146,
      "wood": 3147,
      "const": 3148,
      "beaut": 3149,
      "result": 3150,
      "ring": 3151,
      "cab": 3152,
      "arrived": 3153,
      "conn": 3154,
      "lab": 3155,
      "missed": 3156,
      "thinks": 3157,
      "trouble": 3158,
      "##aa": 3159,
      "hoping": 3160,
      "naturally": 3161,
      "##amed": 3162,
      "counter": 3163,
      "##av": 3164,
      "##sel": 3165,
      "warm": 3166,
      "showed": 3167,
      "played": 3168,
      "drinks": 3169,
      "gro": 3170,
      "##ese": 3171,
      "known": 3172,
      "##ection": 3173,
      "##mon": 3174,
      "rele": 3175,
      "##urity": 3176,
      "nb": 3177,
      "##ining": 3178,
      "##stem": 3179,
      "##aining": 3180,
      "plastic": 3181,
      "repl": 3182,
      "pract": 3183,
      "shitty": 3184,
      "##eel": 3185,
      "hate": 3186,
      "##ency": 3187,
      "wer": 3188,
      "system": 3189,
      "windows": 3190,
      "##ren": 3191,
      "push": 3192,
      "continued": 3193,
      "continue": 3194,
      "university": 3195,
      "level": 3196,
      "##ashed": 3197,
      "machine": 3198,
      "adv": 3199,
      "questions": 3200,
      "sens": 3201,
      "lights": 3202,
      "online": 3203,
      "period": 3204,
      "employ": 3205,
      "position": 3206,
      "didnt": 3207,
      "restaurant": 3208,
      "maj": 3209,
      "tip": 3210,
      "sol": 3211,
      "complete": 3212,
      "monday": 3213,
      "brow": 3214,
      "fit": 3215,
      "##ities": 3216,
      "oil": 3217,
      "wra": 3218,
      "gun": 3219,
      "writing": 3220,
      "##work": 3221,
      "recei": 3222,
      "##rect": 3223,
      "disg": 3224,
      "sau": 3225,
      "changed": 3226,
      "country": 3227,
      "buddy": 3228,
      "handle": 3229,
      "security": 3230,
      "pill": 3231,
      "happening": 3232,
      "liked": 3233,
      "internet": 3234,
      "certain": 3235,
      "je": 3236,
      "liqu": 3237,
      "doll": 3238,
      "means": 3239,
      "embarrassed": 3240,
      "##reed": 3241,
      "##ili": 3242,
      "song": 3243,
      "weren": 3244,
      "death": 3245,
      "##ha": 3246,
      "cars": 3247,
      "cute": 3248,
      "##ler": 3249,
      "sugg": 3250,
      "button": 3251,
      "explo": 3252,
      "##ats": 3253,
      "pool": 3254,
      "www": 3255,
      "club": 3256,
      "round": 3257,
      "study": 3258,
      "opt": 3259,
      "40": 3260,
      "##eral": 3261,
      "bel": 3262,
      "oblig": 3263,
      "##ches": 3264,
      "visit": 3265,
      "nbsp": 3266,
      "freaking": 3267,
      "horrible": 3268,
      "convin": 3269,
      "rush": 3270,
      "cas": 3271,
      "##roll": 3272,
      "star": 3273,
      "speed": 3274,
      "shout": 3275,
      "shoes": 3276,
      "##par": 3277,
      "amazing": 3278,
      "--": 3279,
      "##unity": 3280,
      "clim": 3281,
      "fairly": 3282,
      "sense": 3283,
      "explained": 3284,
      "esp": 3285,
      "cu": 3286,
      "sand": 3287,
      "##ained": 3288,
      ".**": 3289,
      "interest": 3290,
      "seem": 3291,
      "panick": 3292,
      "##ters": 3293,
      "##iful": 3294,
      "downstairs": 3295,
      "control": 3296,
      "invol": 3297,
      "common": 3298,
      "enjoy": 3299,
      "fro": 3300,
      "##ending": 3301,
      "##ility": 3302,
      "sad": 3303,
      "##oint": 3304,
      "busy": 3305,
      "switch": 3306,
      "previous": 3307,
      "satur": 3308,
      "teeth": 3309,
      "non": 3310,
      "dump": 3311,
      "##anger": 3312,
      "calm": 3313,
      ",\"": 3314,
      "##ails": 3315,
      "save": 3316,
      "caused": 3317,
      "throwing": 3318,
      "draw": 3319,
      "dating": 3320,
      "?!": 3321,
      "major": 3322,
      "upstairs": 3323,
      "shoot": 3324,
      "disgust": 3325,
      "##att": 3326,
      "##aim": 3327,
      "comments": 3328,
      "ps": 3329,
      "cross": 3330,
      "safe": 3331,
      "paid": 3332,
      "mir": 3333,
      "relie": 3334,
      "##con": 3335,
      "ones": 3336,
      "died": 3337,
      "followed": 3338,
      "waited": 3339,
      "18": 3340,
      "201": 3341,
      "paying": 3342,
      "saturday": 3343,
      "instantly": 3344,
      "garage": 3345,
      "google": 3346,
      "nobody": 3347,
      "punch": 3348,
      "begins": 3349,
      "teen": 3350,
      "oth": 3351,
      "regular": 3352,
      "jp": 3353,
      "##que": 3354,
      "nur": 3355,
      "##vous": 3356,
      "hid": 3357,
      "others": 3358,
      "bull": 3359,
      "##oring": 3360,
      "ill": 3361,
      "net": 3362,
      "men": 3363,
      "wheel": 3364,
      "##icle": 3365,
      "lose": 3366,
      ".....": 3367,
      "art": 3368,
      "surprise": 3369,
      "hy": 3370,
      "accept": 3371,
      "lets": 3372,
      "needs": 3373,
      "beautiful": 3374,
      "espe": 3375,
      "##idge": 3376,
      "following": 3377,
      "##col": 3378,
      "shame": 3379,
      "##phone": 3380,
      "especially": 3381,
      "himself": 3382,
      "headed": 3383,
      "ment": 3384,
      "45": 3385,
      "chicken": 3386,
      "org": 3387,
      "mult": 3388,
      "produ": 3389,
      "classes": 3390,
      "strong": 3391,
      "coo": 3392,
      "directly": 3393,
      "snow": 3394,
      "upset": 3395,
      "crush": 3396,
      "hi": 3397,
      "wish": 3398,
      "ticket": 3399,
      "##ision": 3400,
      "##ef": 3401,
      "write": 3402,
      "underw": 3403,
      "##uding": 3404,
      "milk": 3405,
      "da": 3406,
      "##eric": 3407,
      "nervous": 3408,
      "jpg": 3409,
      "die": 3410,
      "further": 3411,
      "##ishing": 3412,
      "feels": 3413,
      "somewhere": 3414,
      "women": 3415,
      "favor": 3416,
      "watched": 3417,
      "alright": 3418,
      "falling": 3419,
      "breaking": 3420,
      "anno": 3421,
      "ori": 3422,
      "##ault": 3423,
      "become": 3424,
      "customer": 3425,
      "imagine": 3426,
      "gri": 3427,
      "##etch": 3428,
      "fat": 3429,
      "##ien": 3430,
      "25": 3431,
      "brown": 3432,
      "gives": 3433,
      "bigg": 3434,
      "attack": 3435,
      "afterno": 3436,
      "fingers": 3437,
      "honestly": 3438,
      "##amm": 3439,
      "##hood": 3440,
      "abo": 3441,
      "##onse": 3442,
      "tem": 3443,
      "cleaned": 3444,
      "##tf": 3445,
      "delet": 3446,
      "blue": 3447,
      "mostly": 3448,
      "##uu": 3449,
      "##bb": 3450,
      "lim": 3451,
      "metal": 3452,
      "##aged": 3453,
      "total": 3454,
      "dont": 3455,
      "disapp": 3456,
      "cream": 3457,
      "kicked": 3458,
      "afternoon": 3459,
      "age": 3460,
      "##not": 3461,
      "including": 3462,
      "shock": 3463,
      "smoking": 3464,
      "16": 3465,
      "##cer": 3466,
      "dogs": 3467,
      "response": 3468,
      "seriously": 3469,
      "elect": 3470,
      "tex": 3471,
      "!!!": 3472,
      "possibly": 3473,
      "stayed": 3474,
      "clearly": 3475,
      "flat": 3476,
      "ban": 3477,
      "phys": 3478,
      "wear": 3479,
      "##eap": 3480,
      "camer": 3481,
      "deli": 3482,
      "scene": 3483,
      "tiny": 3484,
      "00": 3485,
      "sle": 3486,
      "dig": 3487,
      "horror": 3488,
      "thr": 3489,
      "turning": 3490,
      "##uts": 3491,
      "thro": 3492,
      "##ume": 3493,
      "approach": 3494,
      "yout": 3495,
      "bal": 3496,
      "stall": 3497,
      "twice": 3498,
      "rac": 3499,
      "worried": 3500,
      "agreed": 3501,
      "discover": 3502,
      "jumped": 3503,
      "massive": 3504,
      "above": 3505,
      "smart": 3506,
      "wondering": 3507,
      "tor": 3508,
      "##ient": 3509,
      "cir": 3510,
      "##ees": 3511,
      "knife": 3512,
      "##light": 3513,
      "third": 3514,
      "##oun": 3515,
      "##ilt": 3516,
      "assumed": 3517,
      "nope": 3518,
      "##pri": 3519,
      "service": 3520,
      "##ustr": 3521,
      "carry": 3522,
      "special": 3523,
      "replied": 3524,
      "val": 3525,
      "##uff": 3526,
      "manage": 3527,
      "laz": 3528,
      "page": 3529,
      "missing": 3530,
      "cand": 3531,
      "reply": 3532,
      "slam": 3533,
      "##fast": 3534,
      "chest": 3535,
      "thankfully": 3536,
      "alth": 3537,
      "actual": 3538,
      "heavy": 3539,
      "bleeding": 3540,
      "public": 3541,
      "lived": 3542,
      "lift": 3543,
      "tap": 3544,
      "underwear": 3545,
      "impr": 3546,
      "although": 3547,
      "photo": 3548,
      "arms": 3549,
      "none": 3550,
      "ahead": 3551,
      "snap": 3552,
      "deg": 3553,
      "breakfast": 3554,
      "##ey": 3555,
      "##urb": 3556,
      "pair": 3557,
      "##itive": 3558,
      "sending": 3559,
      "doors": 3560,
      "noise": 3561,
      "jer": 3562,
      "vie": 3563,
      "priv": 3564,
      "staying": 3565,
      "sunday": 3566,
      "##ature": 3567,
      "force": 3568,
      "##ket": 3569,
      "heat": 3570,
      "spo": 3571,
      "coworker": 3572,
      "##ester": 3573,
      "remembered": 3574,
      "wallet": 3575,
      "log": 3576,
      "vol": 3577,
      "consid": 3578,
      "tree": 3579,
      "personal": 3580,
      "view": 3581,
      "tab": 3582,
      "shorts": 3583,
      "gift": 3584,
      "##ensive": 3585,
      "comment": 3586,
      "tooth": 3587,
      "##iple": 3588,
      "ruined": 3589,
      "dirty": 3590,
      "yard": 3591,
      "##owing": 3592,
      "reached": 3593,
      "##land": 3594,
      "dress": 3595,
      "opening": 3596,
      "aren": 3597,
      "lying": 3598,
      "##ded": 3599,
      "hist": 3600,
      "incred": 3601,
      "leaves": 3602,
      "##ously": 3603,
      "##ina": 3604,
      "##ply": 3605,
      "!!": 3606,
      "tit": 3607,
      "progr": 3608,
      "tears": 3609,
      "swim": 3610,
      "lives": 3611,
      "##--------": 3612,
      "odd": 3613,
      "##ices": 3614,
      "grow": 3615,
      "rough": 3616,
      "hitting": 3617,
      "dish": 3618,
      "dan": 3619,
      "social": 3620,
      "allowed": 3621,
      "gay": 3622,
      "held": 3623,
      "flash": 3624,
      "egg": 3625,
      "batter": 3626,
      "lesson": 3627,
      "sweat": 3628,
      "effect": 3629,
      "##night": 3630,
      "worry": 3631,
      "fi": 3632,
      "vi": 3633,
      "checking": 3634,
      "received": 3635,
      "chocol": 3636,
      "space": 3637,
      "aff": 3638,
      "information": 3639,
      "report": 3640,
      "pressure": 3641,
      "##ker": 3642,
      "##ich": 3643,
      "americ": 3644,
      "wanting": 3645,
      "##box": 3646,
      "##hn": 3647,
      "obligatory": 3648,
      "pulling": 3649,
      "drank": 3650,
      "silence": 3651,
      "remind": 3652,
      "200": 3653,
      "tight": 3654,
      "nor": 3655,
      "sell": 3656,
      "##ries": 3657,
      "joking": 3658,
      "bright": 3659,
      "##](": 3660,
      "liquid": 3661,
      "##eng": 3662,
      "hits": 3663,
      "weight": 3664,
      "occas": 3665,
      "##male": 3666,
      "hill": 3667,
      "miles": 3668,
      "messages": 3669,
      "mentioned": 3670,
      "mail": 3671,
      "##ffic": 3672,
      "incident": 3673,
      "spec": 3674,
      "##ugs": 3675,
      "listening": 3676,
      "thre": 3677,
      "##oned": 3678,
      "pet": 3679,
      "creep": 3680,
      "shoulder": 3681,
      "bes": 3682,
      "itself": 3683,
      "##ified": 3684,
      "washing": 3685,
      "blank": 3686,
      "male": 3687,
      "##ta": 3688,
      "sounds": 3689,
      "female": 3690,
      "rout": 3691,
      "issue": 3692,
      "carp": 3693,
      "##els": 3694,
      "showing": 3695,
      "whil": 3696,
      "wtf": 3697,
      "sched": 3698,
      "spill": 3699,
      "##selves": 3700,
      "problems": 3701,
      "descri": 3702,
      "simply": 3703,
      "officer": 3704,
      "##ains": 3705,
      "whilst": 3706,
      "offered": 3707,
      "##ouse": 3708,
      "rock": 3709,
      "correct": 3710,
      "ep": 3711,
      "desp": 3712,
      "bank": 3713,
      "realised": 3714,
      "support": 3715,
      "arr": 3716,
      "bored": 3717,
      "pump": 3718,
      "profess": 3719,
      "ess": 3720,
      "lazy": 3721,
      "lucky": 3722,
      "##eaks": 3723,
      "neck": 3724,
      "sou": 3725,
      "blind": 3726,
      "glasses": 3727,
      "numb": 3728,
      "beat": 3729,
      "deliver": 3730,
      "wik": 3731,
      "##away": 3732,
      "appear": 3733,
      "vomit": 3734,
      "origin": 3735,
      "losing": 3736,
      "history": 3737,
      "anx": 3738,
      "##ipe": 3739,
      "repe": 3740,
      "department": 3741,
      "failed": 3742,
      "setting": 3743,
      "till": 3744,
      "##erm": 3745,
      "closer": 3746,
      "favorite": 3747,
      "##aff": 3748,
      "remove": 3749,
      "tend": 3750,
      "soft": 3751,
      "posted": 3752,
      "issues": 3753,
      "grad": 3754,
      "emerg": 3755,
      "##ruct": 3756,
      "##oming": 3757,
      "john": 3758,
      "hol": 3759,
      "bother": 3760,
      "fully": 3761,
      "strange": 3762,
      "crack": 3763,
      "smile": 3764,
      "youtube": 3765,
      "uncom": 3766,
      "laying": 3767,
      "health": 3768,
      "fired": 3769,
      "##ances": 3770,
      "gig": 3771,
      "ann": 3772,
      "##old": 3773,
      "##rified": 3774,
      "##ched": 3775,
      "blah": 3776,
      "rent": 3777,
      "causing": 3778,
      "shar": 3779,
      "##ively": 3780,
      "decides": 3781,
      "prot": 3782,
      "chocolate": 3783,
      "buying": 3784,
      "apologize": 3785,
      "##ules": 3786,
      "boot": 3787,
      "##ises": 3788,
      "##gging": 3789,
      "fear": 3790,
      "green": 3791,
      "fut": 3792,
      "hide": 3793,
      "match": 3794,
      "occur": 3795,
      "helped": 3796,
      "throat": 3797,
      "##pack": 3798,
      "campus": 3799,
      "yelled": 3800,
      "##ashing": 3801,
      "cheese": 3802,
      "condom": 3803,
      "##____": 3804,
      "realizing": 3805,
      "##ute": 3806,
      "##...": 3807,
      "news": 3808,
      "crap": 3809,
      "texted": 3810,
      "var": 3811,
      "relax": 3812,
      "admit": 3813,
      "destro": 3814,
      "##itten": 3815,
      "field": 3816,
      "backst": 3817,
      "##enty": 3818,
      "##idence": 3819,
      "##ison": 3820,
      "cart": 3821,
      "lots": 3822,
      "children": 3823,
      "pun": 3824,
      "cred": 3825,
      "interested": 3826,
      "##fet": 3827,
      "##cious": 3828,
      "...\"": 3829,
      "##apped": 3830,
      "##izing": 3831,
      "##lies": 3832,
      "14": 3833,
      "bat": 3834,
      "size": 3835,
      "sen": 3836,
      "princ": 3837,
      "aunt": 3838,
      "beach": 3839,
      "engine": 3840,
      "herself": 3841,
      "younger": 3842,
      "##ened": 3843,
      "awful": 3844,
      "har": 3845,
      "##ls": 3846,
      "excuse": 3847,
      "multiple": 3848,
      "reco": 3849,
      "plus": 3850,
      "##isted": 3851,
      "medic": 3852,
      "horn": 3853,
      "biggest": 3854,
      "dev": 3855,
      "address": 3856,
      "six": 3857,
      "texting": 3858,
      "program": 3859,
      "taste": 3860,
      "##ination": 3861,
      "pm": 3862,
      "##ppy": 3863,
      "13": 3864,
      "##ky": 3865,
      "worker": 3866,
      "true": 3867,
      "webs": 3868,
      "camera": 3869,
      "inj": 3870,
      "arrive": 3871,
      "holiday": 3872,
      "opport": 3873,
      "easily": 3874,
      "concer": 3875,
      "human": 3876,
      "cig": 3877,
      "block": 3878,
      "wrote": 3879,
      "port": 3880,
      "laughter": 3881,
      "helping": 3882,
      "uncle": 3883,
      "##igned": 3884,
      "shouldn": 3885,
      "intro": 3886,
      "solid": 3887,
      "bon": 3888,
      "vacation": 3889,
      "whenever": 3890,
      "##bit": 3891,
      "##asing": 3892,
      "anim": 3893,
      "trail": 3894,
      "occasion": 3895,
      "19": 3896,
      "microw": 3897,
      "##omb": 3898,
      "chem": 3899,
      "invited": 3900,
      "loved": 3901,
      "##ato": 3902,
      "holy": 3903,
      "##vent": 3904,
      "backstory": 3905,
      "17": 3906,
      "fle": 3907,
      "traffic": 3908,
      "install": 3909,
      "##gar": 3910,
      "##here": 3911,
      "wipe": 3912,
      "hasn": 3913,
      "throwaway": 3914,
      "ord": 3915,
      "dance": 3916,
      "link": 3917,
      "##gra": 3918,
      "rain": 3919,
      "tea": 3920,
      "knee": 3921,
      "airport": 3922,
      "halfway": 3923,
      "double": 3924,
      "burst": 3925,
      "pol": 3926,
      "rip": 3927,
      "purch": 3928,
      "runs": 3929,
      "similar": 3930,
      "cell": 3931,
      "cough": 3932,
      "ends": 3933,
      "forgetting": 3934,
      "wedding": 3935,
      "##da": 3936,
      "##phones": 3937,
      "##cum": 3938,
      "chur": 3939,
      "texts": 3940,
      "cock": 3941,
      "restroom": 3942,
      "photos": 3943,
      "soap": 3944,
      "led": 3945,
      "despite": 3946,
      "professor": 3947,
      "pushed": 3948,
      "host": 3949,
      "flying": 3950,
      "giant": 3951,
      "bang": 3952,
      "likely": 3953,
      "owner": 3954,
      "fridge": 3955,
      "sauce": 3956,
      "pound": 3957,
      "laund": 3958,
      "lines": 3959,
      "techn": 3960,
      "mast": 3961,
      "##ges": 3962,
      "afterwards": 3963,
      "guard": 3964,
      "carpet": 3965,
      "tickets": 3966,
      "vag": 3967,
      "fore": 3968,
      "##otion": 3969,
      "rad": 3970,
      "thumb": 3971,
      "mirror": 3972,
      "##zen": 3973,
      "meal": 3974,
      "cheap": 3975,
      "shows": 3976,
      "apart": 3977,
      "parts": 3978,
      "##cent": 3979,
      "lean": 3980,
      "##entially": 3981,
      "attract": 3982,
      "##fuck": 3983,
      "burned": 3984,
      "removed": 3985,
      "site": 3986,
      "likes": 3987,
      "apologized": 3988,
      "24": 3989,
      "wound": 3990,
      "oven": 3991,
      "glo": 3992,
      "##xic": 3993,
      "##ether": 3994,
      "##eaked": 3995,
      "fold": 3996,
      "brand": 3997,
      "chee": 3998,
      "crow": 3999,
      "item": 4000,
      "lie": 4001,
      "nearby": 4002,
      "##ium": 4003,
      "##usted": 4004,
      "teachers": 4005,
      "##).": 4006,
      "returned": 4007,
      "slept": 4008,
      "##ex": 4009,
      "depr": 4010,
      "parked": 4011,
      "expected": 4012,
      "beginning": 4013,
      "reaction": 4014,
      "nurse": 4015,
      "##urance": 4016,
      "stories": 4017,
      "warning": 4018,
      "edge": 4019,
      "refer": 4020,
      "fake": 4021,
      "heading": 4022,
      "##ching": 4023,
      "succ": 4024,
      "dressed": 4025,
      "planned": 4026,
      "staff": 4027,
      "emergency": 4028,
      "ver": 4029,
      "pin": 4030,
      "pieces": 4031,
      "##gress": 4032,
      "##zing": 4033,
      "rev": 4034,
      "spread": 4035,
      "sees": 4036,
      "simple": 4037,
      "fish": 4038,
      "freak": 4039,
      "church": 4040,
      "##ists": 4041,
      "feelings": 4042,
      "##rib": 4043,
      "##ney": 4044,
      "tub": 4045,
      "##ext": 4046,
      "gold": 4047,
      "##tern": 4048,
      "shopping": 4049,
      "advice": 4050,
      "finding": 4051,
      "semester": 4052,
      "spider": 4053,
      "pc": 4054,
      "##me": 4055,
      "ordered": 4056,
      "regret": 4057,
      "masturb": 4058,
      "equ": 4059,
      "##go": 4060,
      "laid": 4061,
      "##time": 4062,
      "jokes": 4063,
      "dorm": 4064,
      "wide": 4065,
      "reasons": 4066,
      "laundry": 4067,
      "stops": 4068,
      "whether": 4069,
      "instruct": 4070,
      "##iety": 4071,
      "##urs": 4072,
      "sexual": 4073,
      "future": 4074,
      "tur": 4075,
      "##inder": 4076,
      "desper": 4077,
      "secret": 4078,
      "##aging": 4079,
      "rules": 4080,
      "confir": 4081,
      "hilar": 4082,
      "##iest": 4083,
      "inten": 4084,
      "throughout": 4085,
      "grandma": 4086,
      "hallway": 4087,
      "incredibly": 4088,
      "direction": 4089,
      "##hip": 4090,
      "opportunity": 4091,
      "backpack": 4092,
      "arg": 4093,
      "##what": 4094,
      "craw": 4095,
      "shaking": 4096,
      "viol": 4097,
      "mr": 4098,
      "##rupt": 4099,
      "agree": 4100,
      "##ager": 4101,
      "##ength": 4102,
      "##ette": 4103,
      "##eless": 4104,
      "insurance": 4105,
      "realise": 4106,
      "avail": 4107,
      "respons": 4108,
      "##ka": 4109,
      "context": 4110,
      "cum": 4111,
      "smooth": 4112,
      "pepper": 4113,
      "amb": 4114,
      "comb": 4115,
      "flow": 4116,
      "hearing": 4117,
      "battery": 4118,
      "recover": 4119,
      "threat": 4120,
      "surg": 4121,
      "'.": 4122,
      "mut": 4123,
      "elev": 4124,
      "mag": 4125,
      "##ify": 4126,
      "center": 4127,
      "und": 4128,
      "##akes": 4129,
      "foc": 4130,
      "posts": 4131,
      "path": 4132,
      "posting": 4133,
      "adult": 4134,
      "ens": 4135,
      "properly": 4136,
      "##che": 4137,
      "##atic": 4138,
      "ways": 4139,
      "strugg": 4140,
      "swear": 4141,
      "added": 4142,
      "hopefully": 4143,
      "princip": 4144,
      "somewhat": 4145,
      "dep": 4146,
      "involved": 4147,
      "##he": 4148,
      "sar": 4149,
      "##aint": 4150,
      "unlo": 4151,
      "stress": 4152,
      "knock": 4153,
      "loose": 4154,
      "sharp": 4155,
      "gather": 4156,
      "##icul": 4157,
      "drugs": 4158,
      "married": 4159,
      "killed": 4160,
      "sight": 4161,
      "handed": 4162,
      "credit": 4163,
      "forever": 4164,
      "cannot": 4165,
      "learn": 4166,
      "nap": 4167,
      "insp": 4168,
      "##angu": 4169,
      "##kn": 4170,
      "##fuse": 4171,
      "experien": 4172,
      "nowhere": 4173,
      "distance": 4174,
      "fault": 4175,
      "jud": 4176,
      "suff": 4177,
      "expensive": 4178,
      "van": 4179,
      "##shit": 4180,
      "recogn": 4181,
      "cigar": 4182,
      "thats": 4183,
      "##rit": 4184,
      "mount": 4185,
      "##face": 4186,
      "decision": 4187,
      "drain": 4188,
      "silent": 4189,
      "badly": 4190,
      "typing": 4191,
      "decent": 4192,
      "langu": 4193,
      "senior": 4194,
      "split": 4195,
      "init": 4196,
      "expr": 4197,
      "mode": 4198,
      "planning": 4199,
      "##key": 4200,
      "##ational": 4201,
      "classroom": 4202,
      "forgotten": 4203,
      "neighbors": 4204,
      "mur": 4205,
      "ski": 4206,
      "whis": 4207,
      "stitch": 4208,
      "uncomfortable": 4209,
      "##ires": 4210,
      "dollars": 4211,
      "superv": 4212,
      "browsing": 4213,
      "fort": 4214,
      "##uct": 4215,
      "enc": 4216,
      "cutting": 4217,
      "##oooo": 4218,
      "wine": 4219,
      "sexy": 4220,
      "sam": 4221,
      "##ives": 4222,
      "lect": 4223,
      "##elling": 4224,
      "##aming": 4225,
      "bags": 4226,
      "hungry": 4227,
      "places": 4228,
      "knocked": 4229,
      "website": 4230,
      "microwave": 4231,
      "separ": 4232,
      "choice": 4233,
      "landed": 4234,
      "below": 4235,
      "##ointment": 4236,
      "veh": 4237,
      "coworkers": 4238,
      "delic": 4239,
      "responded": 4240,
      "shocked": 4241,
      "success": 4242,
      "hilarious": 4243,
      "slipped": 4244,
      "##ask": 4245,
      "toss": 4246,
      "spit": 4247,
      "driveway": 4248,
      "surprised": 4249,
      "mc": 4250,
      "exch": 4251,
      "##pos": 4252,
      "saved": 4253,
      "basement": 4254,
      "everybody": 4255,
      "##ences": 4256,
      "lol": 4257,
      "##eamed": 4258,
      "freaked": 4259,
      "##usion": 4260,
      "##mates": 4261,
      "steal": 4262,
      "suit": 4263,
      "access": 4264,
      "explaining": 4265,
      "plate": 4266,
      "scar": 4267,
      "tax": 4268,
      "record": 4269,
      "wiki": 4270,
      "##ped": 4271,
      "prank": 4272,
      "keeping": 4273,
      "yo": 4274,
      "cri": 4275,
      "prompt": 4276,
      "panicked": 4277,
      "contain": 4278,
      "details": 4279,
      "surgery": 4280,
      "##ana": 4281,
      "prior": 4282,
      "product": 4283,
      "mood": 4284,
      "##vies": 4285,
      "##aced": 4286,
      "embarrassing": 4287,
      "placed": 4288,
      "assume": 4289,
      "##allow": 4290,
      "ank": 4291,
      "stage": 4292,
      "hoo": 4293,
      "steps": 4294,
      "roof": 4295,
      "cooking": 4296,
      "fence": 4297,
      "offer": 4298,
      "activ": 4299,
      "interesting": 4300,
      "keeps": 4301,
      "hurts": 4302,
      "##mb": 4303,
      "lower": 4304,
      "vir": 4305,
      "expecting": 4306,
      "*.": 4307,
      "drunken": 4308,
      "hook": 4309,
      ".*": 4310,
      "language": 4311,
      "??": 4312,
      "replace": 4313,
      ":(": 4314,
      "lic": 4315,
      "juice": 4316,
      "ut": 4317,
      "##ald": 4318,
      "##ormed": 4319,
      "relative": 4320,
      "##reddit": 4321,
      "memory": 4322,
      "##uit": 4323,
      "##my": 4324,
      "bite": 4325,
      "prov": 4326,
      "##ml": 4327,
      "ash": 4328,
      "apply": 4329,
      "attach": 4330,
      "meat": 4331,
      "bru": 4332,
      "##bers": 4333,
      "suck": 4334,
      "generally": 4335,
      "cant": 4336,
      "movies": 4337,
      "pregn": 4338,
      "nail": 4339,
      "##atting": 4340,
      "ripped": 4341,
      "##yle": 4342,
      "plans": 4343,
      "passing": 4344,
      "fool": 4345,
      "greet": 4346,
      "charge": 4347,
      "##ada": 4348,
      "painful": 4349,
      "general": 4350,
      "sandw": 4351,
      "##uth": 4352,
      "flush": 4353,
      "##icy": 4354,
      "drug": 4355,
      "title": 4356,
      "bump": 4357,
      "hund": 4358,
      "rolled": 4359,
      "##miss": 4360,
      "boys": 4361,
      "pulls": 4362,
      "##mother": 4363,
      "hundred": 4364,
      "dem": 4365,
      "washed": 4366,
      "tank": 4367,
      "##ii": 4368,
      "slid": 4369,
      "dying": 4370,
      "##roud": 4371,
      "fixed": 4372,
      "jeans": 4373,
      "fre": 4374,
      "##ugged": 4375,
      "##ule": 4376,
      "bell": 4377,
      "awake": 4378,
      "principal": 4379,
      "##ero": 4380,
      "cy": 4381,
      "##ppers": 4382,
      "##ips": 4383,
      "training": 4384,
      "##ening": 4385,
      "spare": 4386,
      "blast": 4387,
      "##nes": 4388,
      "##bt": 4389,
      "scra": 4390,
      "court": 4391,
      "moments": 4392,
      "stream": 4393,
      "introdu": 4394,
      "rushed": 4395,
      "exit": 4396,
      "track": 4397,
      "diff": 4398,
      "iphone": 4399,
      "cele": 4400,
      "proud": 4401,
      "react": 4402,
      "discovered": 4403,
      "paint": 4404,
      "suggest": 4405,
      "spending": 4406,
      "clock": 4407,
      "math": 4408,
      "workers": 4409,
      "mins": 4410,
      "claim": 4411,
      "brief": 4412,
      "riding": 4413,
      "##raid": 4414,
      "degree": 4415,
      "mer": 4416,
      "names": 4417,
      "slide": 4418,
      "jun": 4419,
      "closet": 4420,
      "wan": 4421,
      "celebr": 4422,
      "ther": 4423,
      "afraid": 4424,
      "picking": 4425,
      "letter": 4426,
      "football": 4427,
      "shots": 4428,
      "bird": 4429,
      "lack": 4430,
      "frustr": 4431,
      "fuckup": 4432,
      "perfectly": 4433,
      "lid": 4434,
      "thurs": 4435,
      "anxiety": 4436,
      "##using": 4437,
      "comfortable": 4438,
      "poo": 4439,
      "mob": 4440,
      "fail": 4441,
      "option": 4442,
      "friendly": 4443,
      "minor": 4444,
      "points": 4445,
      ".”": 4446,
      "convinced": 4447,
      "##ism": 4448,
      "cance": 4449,
      "##acy": 4450,
      "glad": 4451,
      "##iliar": 4452,
      "flood": 4453,
      "puke": 4454,
      "dumbass": 4455,
      "##vert": 4456,
      "enjoying": 4457,
      "grandmother": 4458,
      ":**": 4459,
      "neighborhood": 4460,
      "thursday": 4461,
      "##ak": 4462,
      "code": 4463,
      "headphones": 4464,
      "nights": 4465,
      "private": 4466,
      "click": 4467,
      "steam": 4468,
      "##play": 4469,
      "download": 4470,
      "plane": 4471,
      "##bage": 4472,
      "##isor": 4473,
      "hello": 4474,
      "##over": 4475,
      "##ius": 4476,
      "##inting": 4477,
      "##ards": 4478,
      "storm": 4479,
      "gall": 4480,
      "rap": 4481,
      "##ware": 4482,
      "mile": 4483,
      "wow": 4484,
      "dat": 4485,
      "medical": 4486,
      "##ping": 4487,
      "attend": 4488,
      "elevator": 4489,
      "cards": 4490,
      "flip": 4491,
      "flu": 4492,
      "000": 4493,
      "info": 4494,
      "beers": 4495,
      "##yo": 4496,
      "swing": 4497,
      "mill": 4498,
      "print": 4499,
      "60": 4500,
      "hes": 4501,
      "frant": 4502,
      "##tain": 4503,
      "den": 4504,
      "anywhere": 4505,
      "consider": 4506,
      "##res": 4507,
      "horny": 4508,
      "##pting": 4509,
      "##asty": 4510,
      "price": 4511,
      "opens": 4512,
      "treat": 4513,
      "popped": 4514,
      "drops": 4515,
      "butter": 4516,
      "basket": 4517,
      "spin": 4518,
      "brush": 4519,
      "bloody": 4520,
      "section": 4521,
      "cats": 4522,
      "aware": 4523,
      "videos": 4524,
      "effort": 4525,
      "cabin": 4526,
      "cring": 4527,
      "pleas": 4528,
      "##wal": 4529,
      "chuck": 4530,
      "##iff": 4531,
      "libr": 4532,
      "suggested": 4533,
      "constantly": 4534,
      "##ption": 4535,
      "##ser": 4536,
      "tues": 4537,
      "forth": 4538,
      "action": 4539,
      "##velop": 4540,
      "soaked": 4541,
      "embarrassment": 4542,
      "bin": 4543,
      "##ording": 4544,
      "##ided": 4545,
      "shitting": 4546,
      "register": 4547,
      "screamed": 4548,
      "sounded": 4549,
      "stranger": 4550,
      "stepped": 4551,
      "psy": 4552,
      "thick": 4553,
      "oppos": 4554,
      "delicious": 4555,
      "sold": 4556,
      "american": 4557,
      "pic": 4558,
      "##ony": 4559,
      "por": 4560,
      "uns": 4561,
      "row": 4562,
      "inno": 4563,
      "mod": 4564,
      "tuesday": 4565,
      "customers": 4566,
      "##ecting": 4567,
      "sir": 4568,
      "various": 4569,
      "garbage": 4570,
      "chatting": 4571,
      "ram": 4572,
      "##aps": 4573,
      "##udes": 4574,
      "##ront": 4575,
      "intense": 4576,
      "gradu": 4577,
      "visiting": 4578,
      "dent": 4579,
      "##inct": 4580,
      "boun": 4581,
      "gross": 4582,
      "practice": 4583,
      "mort": 4584,
      "finishing": 4585,
      "current": 4586,
      "hood": 4587,
      "##....": 4588,
      "considering": 4589,
      "##sy": 4590,
      "towels": 4591,
      "jacket": 4592,
      "##itor": 4593,
      "shake": 4594,
      "imm": 4595,
      "wax": 4596,
      "brothers": 4597,
      "gate": 4598,
      "boxers": 4599,
      "##do": 4600,
      "##like": 4601,
      "span": 4602,
      "surround": 4603,
      "truth": 4604,
      "gear": 4605,
      "rot": 4606,
      "21": 4607,
      "##we": 4608,
      "##lled": 4609,
      "##ury": 4610,
      "sque": 4611,
      "studying": 4612,
      "##ype": 4613,
      "sport": 4614,
      "gramm": 4615,
      "pushing": 4616,
      "ridicul": 4617,
      "roommates": 4618,
      "winter": 4619,
      "tall": 4620,
      "##ama": 4621,
      "relief": 4622,
      "unless": 4623,
      "dropping": 4624,
      "boat": 4625,
      "disgusting": 4626,
      "##ots": 4627,
      "shortly": 4628,
      "ambul": 4629,
      "inch": 4630,
      "guest": 4631,
      "##uded": 4632,
      "vehicle": 4633,
      "squee": 4634,
      "harder": 4635,
      "##ential": 4636,
      "abs": 4637,
      "aud": 4638,
      "resear": 4639,
      "bottles": 4640,
      "stab": 4641,
      "##ival": 4642,
      "events": 4643,
      "pant": 4644,
      "##pose": 4645,
      "slip": 4646,
      "electric": 4647,
      "?)": 4648,
      "pow": 4649,
      "midnight": 4650,
      "waking": 4651,
      "500": 4652,
      "mark": 4653,
      "chew": 4654,
      "color": 4655,
      "stitches": 4656,
      "melt": 4657,
      "appre": 4658,
      "##iously": 4659,
      "wel": 4660,
      "##ring": 4661,
      "##cut": 4662,
      "organ": 4663,
      "##icult": 4664,
      "motion": 4665,
      "cake": 4666,
      "girlfriends": 4667,
      "license": 4668,
      "##cl": 4669,
      "spoke": 4670,
      "deser": 4671,
      "gent": 4672,
      "pile": 4673,
      "stare": 4674,
      "smelled": 4675,
      "packed": 4676,
      "##sand": 4677,
      "wasted": 4678,
      "tl": 4679,
      "mate": 4680,
      "skill": 4681,
      "discuss": 4682,
      "90": 4683,
      "stared": 4684,
      "sandwich": 4685,
      "est": 4686,
      "##hile": 4687,
      "##aly": 4688,
      "assist": 4689,
      "##uing": 4690,
      "ambulance": 4691,
      "faster": 4692,
      "bomb": 4693,
      "ris": 4694,
      "blur": 4695,
      "tries": 4696,
      "perform": 4697,
      "difficult": 4698,
      "walls": 4699,
      "thousand": 4700,
      "proceeds": 4701,
      "prepared": 4702,
      "pray": 4703,
      "library": 4704,
      "ceiling": 4705,
      "file": 4706,
      "##iso": 4707,
      "blew": 4708,
      "nasty": 4709,
      "##cery": 4710,
      "weather": 4711,
      "thoughts": 4712,
      "grass": 4713,
      "oper": 4714,
      "rule": 4715,
      "original": 4716,
      "burnt": 4717,
      "respect": 4718,
      "##ished": 4719,
      "exha": 4720,
      "snack": 4721,
      "acting": 4722,
      "assign": 4723,
      "grocery": 4724,
      "motor": 4725,
      "bf": 4726,
      "##kin": 4727,
      "##sequ": 4728,
      "season": 4729,
      "opposite": 4730,
      "wild": 4731,
      "tongue": 4732,
      "vers": 4733,
      "##nel": 4734,
      "tru": 4735,
      "gard": 4736,
      "concerned": 4737,
      "relig": 4738,
      "develop": 4739,
      "bullshit": 4740,
      "div": 4741,
      "##logy": 4742,
      "godd": 4743,
      "frozen": 4744,
      "messed": 4745,
      "pouring": 4746,
      "stretch": 4747,
      "supervisor": 4748,
      "aid": 4749,
      "forced": 4750,
      "appointment": 4751,
      "smells": 4752,
      "##enger": 4753,
      "##den": 4754,
      "heads": 4755,
      "meaning": 4756,
      "bigger": 4757,
      "loudly": 4758,
      "boxes": 4759,
      "particularly": 4760,
      "pregnant": 4761,
      "member": 4762,
      "mobile": 4763,
      "gentle": 4764,
      "##ckets": 4765,
      "ignore": 4766,
      "emotion": 4767,
      "typical": 4768,
      "##iment": 4769,
      "yourself": 4770,
      "ignored": 4771,
      "join": 4772,
      "killing": 4773,
      "accepted": 4774,
      "pink": 4775,
      "neither": 4776,
      "wit": 4777,
      "thir": 4778,
      "lovely": 4779,
      "pal": 4780,
      "tiss": 4781,
      "jumping": 4782,
      "potato": 4783,
      "plug": 4784,
      "unf": 4785,
      "##ron": 4786,
      "orange": 4787,
      "rob": 4788,
      "charac": 4789,
      "closing": 4790,
      "shoe": 4791,
      "members": 4792,
      "books": 4793,
      "safet": 4794,
      "travel": 4795,
      "buzz": 4796,
      "trave": 4797,
      "##nesday": 4798,
      "wednesday": 4799,
      "quit": 4800,
      "?\".": 4801,
      "appreci": 4802,
      "entir": 4803,
      "retard": 4804,
      "transfer": 4805,
      "attractive": 4806,
      "bi": 4807,
      "mall": 4808,
      "sour": 4809,
      "##ale": 4810,
      "via": 4811,
      "stove": 4812,
      "deleted": 4813,
      "pipe": 4814,
      "bear": 4815,
      "safety": 4816,
      "tar": 4817,
      "speaking": 4818,
      "subreddit": 4819,
      "wrapped": 4820,
      "knees": 4821,
      "murder": 4822,
      "awkwardly": 4823,
      "condition": 4824,
      "master": 4825,
      "careful": 4826,
      "episo": 4827,
      "relatively": 4828,
      "lin": 4829,
      "til": 4830,
      "##gling": 4831,
      "shared": 4832,
      "##zed": 4833,
      "employee": 4834,
      "profuse": 4835,
      "promptly": 4836,
      "toe": 4837,
      "apple": 4838,
      "diarr": 4839,
      "quar": 4840,
      "neighbour": 4841,
      "bum": 4842,
      "##ipped": 4843,
      "maint": 4844,
      "routine": 4845,
      "items": 4846,
      "truly": 4847,
      "pics": 4848,
      "uh": 4849,
      "session": 4850,
      "entered": 4851,
      "##rees": 4852,
      "somebody": 4853,
      "seats": 4854,
      "##por": 4855,
      "gag": 4856,
      "anger": 4857,
      "searching": 4858,
      "daily": 4859,
      "changing": 4860,
      "iron": 4861,
      "lane": 4862,
      "pad": 4863,
      "##ett": 4864,
      "parent": 4865,
      "##ddle": 4866,
      "regard": 4867,
      "smoked": 4868,
      "annoying": 4869,
      "hiding": 4870,
      "whom": 4871,
      "curious": 4872,
      "beside": 4873,
      "soda": 4874,
      "detail": 4875,
      "bucket": 4876,
      "##umbled": 4877,
      "mixed": 4878,
      "south": 4879,
      "clue": 4880,
      "loves": 4881,
      "thread": 4882,
      "wanna": 4883,
      "tinder": 4884,
      "##rd": 4885,
      "ip": 4886,
      "##mate": 4887,
      "release": 4888,
      "tube": 4889,
      "##val": 4890,
      "inches": 4891,
      "cru": 4892,
      "harm": 4893,
      "##hea": 4894,
      "breaks": 4895,
      "psych": 4896,
      "collea": 4897,
      "rolling": 4898,
      "profusely": 4899,
      "style": 4900,
      "files": 4901,
      "bare": 4902,
      "##gi": 4903,
      "flir": 4904,
      "passw": 4905,
      "##inese": 4906,
      "screwed": 4907,
      "tape": 4908,
      "snapch": 4909,
      "docum": 4910,
      "dirt": 4911,
      "commun": 4912,
      "package": 4913,
      "poison": 4914,
      "crash": 4915,
      "***": 4916,
      "vib": 4917,
      "proof": 4918,
      "profession": 4919,
      "waste": 4920,
      "##otch": 4921,
      "pointed": 4922,
      "chinese": 4923,
      "spring": 4924,
      "##come": 4925,
      "scan": 4926,
      "data": 4927,
      "thus": 4928,
      "##omm": 4929,
      "##attered": 4930,
      "vent": 4931,
      "sheets": 4932,
      "##ration": 4933,
      "written": 4934,
      "##priate": 4935,
      "bush": 4936,
      "partner": 4937,
      "ult": 4938,
      "##don": 4939,
      "clicked": 4940,
      "schedule": 4941,
      "ing": 4942,
      "burns": 4943,
      "poured": 4944,
      "goddam": 4945,
      "chose": 4946,
      "del": 4947,
      "##verage": 4948,
      "saving": 4949,
      "urge": 4950,
      "homeless": 4951,
      "eaten": 4952,
      "##bow": 4953,
      "behold": 4954,
      "flew": 4955,
      "chall": 4956,
      "bread": 4957,
      "jam": 4958,
      "cue": 4959,
      "##cil": 4960,
      "feed": 4961,
      "numbers": 4962,
      "presentation": 4963,
      "bringing": 4964,
      "mild": 4965,
      "shooting": 4966,
      "!)": 4967,
      "##cul": 4968,
      "familiar": 4969,
      "concert": 4970,
      "autom": 4971,
      "bolt": 4972,
      "terrified": 4973,
      "gotta": 4974,
      "puss": 4975,
      "eggs": 4976,
      "flag": 4977,
      "scrub": 4978,
      "fml": 4979,
      "fant": 4980,
      "##ern": 4981,
      "themselves": 4982,
      "pure": 4983,
      "unable": 4984,
      "toward": 4985,
      "##ception": 4986,
      "answered": 4987,
      "formatting": 4988,
      "request": 4989,
      "grammar": 4990,
      "swallow": 4991,
      "location": 4992,
      "acid": 4993,
      "swimming": 4994,
      "thrown": 4995,
      "rooms": 4996,
      "pitch": 4997,
      "##verse": 4998,
      "invest": 4999,
      "falls": 5000,
      "danger": 5001,
      "distract": 5002,
      "rolls": 5003,
      "panicking": 5004,
      "##ops": 5005,
      "informed": 5006,
      "choo": 5007,
      "faces": 5008,
      "shouting": 5009,
      "cigarette": 5010,
      "junk": 5011,
      "wonderful": 5012,
      "strip": 5013,
      "freshman": 5014,
      "yellow": 5015,
      "copy": 5016,
      "pissing": 5017,
      "hr": 5018,
      "##ergy": 5019,
      "rin": 5020,
      "ped": 5021,
      "ladies": 5022,
      "suspic": 5023,
      "hurry": 5024,
      "toy": 5025,
      "submit": 5026,
      "pillow": 5027,
      "ya": 5028,
      "##pa": 5029,
      "##back": 5030,
      "##rie": 5031,
      "urin": 5032,
      "jes": 5033,
      "solut": 5034,
      "skype": 5035,
      "occurred": 5036,
      "##ull": 5037,
      "##tw": 5038,
      "itch": 5039,
      "2nd": 5040,
      "##athing": 5041,
      "lar": 5042,
      "aside": 5043,
      "unlike": 5044,
      "bob": 5045,
      "answers": 5046,
      "rubbing": 5047,
      "candy": 5048,
      "blame": 5049,
      "frantically": 5050,
      "jan": 5051,
      "clar": 5052,
      "homework": 5053,
      "repair": 5054,
      "related": 5055,
      "wave": 5056,
      "doctors": 5057,
      "research": 5058,
      "diarrhea": 5059,
      "fiance": 5060,
      "80": 5061,
      "vict": 5062,
      "dut": 5063,
      "##arily": 5064,
      "blad": 5065,
      "casually": 5066,
      "##donald": 5067,
      "nearest": 5068,
      "cast": 5069,
      "sneak": 5070,
      "peeing": 5071,
      "frequ": 5072,
      "laughs": 5073,
      "blocked": 5074,
      "ger": 5075,
      "##ache": 5076,
      "announ": 5077,
      "named": 5078,
      "##ites": 5079,
      "##ective": 5080,
      "ending": 5081,
      "joint": 5082,
      "cried": 5083,
      "sits": 5084,
      "mental": 5085,
      "unkn": 5086,
      "buddies": 5087,
      "bench": 5088,
      "tour": 5089,
      "built": 5090,
      "client": 5091,
      "mac": 5092,
      "##istic": 5093,
      "ankle": 5094,
      "image": 5095,
      "bud": 5096,
      "jour": 5097,
      "race": 5098,
      "destroyed": 5099,
      "tire": 5100,
      "##aking": 5101,
      "##wise": 5102,
      "web": 5103,
      "surprising": 5104,
      "sensation": 5105,
      "underne": 5106,
      "cancer": 5107,
      "goodby": 5108,
      "essentially": 5109,
      "mcdonald": 5110,
      "mater": 5111,
      "belt": 5112,
      "attached": 5113,
      "##fli": 5114,
      "sprint": 5115,
      "##rage": 5116,
      "accom": 5117,
      "underneath": 5118,
      "asian": 5119,
      "science": 5120,
      "escape": 5121,
      "roughly": 5122,
      "##ledge": 5123,
      "garden": 5124,
      "35": 5125,
      "genius": 5126,
      "##etic": 5127,
      "sober": 5128,
      "##imately": 5129,
      "display": 5130,
      "sisters": 5131,
      "annoyed": 5132,
      "dancing": 5133,
      "##sion": 5134,
      "skip": 5135,
      "##11": 5136,
      "##](/": 5137,
      "passenger": 5138,
      "prevent": 5139,
      "wrist": 5140,
      "dear": 5141,
      "confident": 5142,
      "bast": 5143,
      "community": 5144,
      "##fl": 5145,
      "##yard": 5146,
      "exchange": 5147,
      "grew": 5148,
      "##ument": 5149,
      "compet": 5150,
      "snee": 5151,
      "french": 5152,
      "qual": 5153,
      "grabbing": 5154,
      "tun": 5155,
      "##laim": 5156,
      "backwards": 5157,
      "sore": 5158,
      "attempted": 5159,
      "reminded": 5160,
      "fortunately": 5161,
      "##walk": 5162,
      "##ays": 5163,
      "sucks": 5164,
      "##ggy": 5165,
      "jobs": 5166,
      "occasionally": 5167,
      "experienced": 5168,
      "dea": 5169,
      "spee": 5170,
      "crowd": 5171,
      "##iant": 5172,
      "bend": 5173,
      "ruining": 5174,
      "salt": 5175,
      "raz": 5176,
      "puts": 5177,
      "growing": 5178,
      "balance": 5179,
      "ge": 5180,
      "twenty": 5181,
      "##lect": 5182,
      "coach": 5183,
      "~~": 5184,
      "##ension": 5185,
      "keyboard": 5186,
      "recomm": 5187,
      "##ton": 5188,
      "challen": 5189,
      "awhile": 5190,
      "phones": 5191,
      "##plex": 5192,
      "entr": 5193,
      "##erv": 5194,
      "nuts": 5195,
      "##chan": 5196,
      "bleach": 5197,
      "na": 5198,
      "nick": 5199,
      "everyday": 5200,
      "##order": 5201,
      "squir": 5202,
      "climb": 5203,
      "##yond": 5204,
      "##mber": 5205,
      "amazon": 5206,
      "beyond": 5207,
      "connected": 5208,
      "##omes": 5209,
      "physical": 5210,
      "entirely": 5211,
      "jap": 5212,
      "thigh": 5213,
      "bent": 5214,
      "##lex": 5215,
      "##uses": 5216,
      "##for": 5217,
      "touched": 5218,
      "jesus": 5219,
      "##chool": 5220,
      "temper": 5221,
      "##pe": 5222,
      "pills": 5223,
      "locker": 5224,
      "hyster": 5225,
      "vagina": 5226,
      "mountain": 5227,
      "smack": 5228,
      "300": 5229,
      "brill": 5230,
      "knocking": 5231,
      "##bby": 5232,
      "paran": 5233,
      "filling": 5234,
      "dom": 5235,
      "fed": 5236,
      "##ga": 5237,
      "pressed": 5238,
      "dust": 5239,
      "subject": 5240,
      "utter": 5241,
      "mouse": 5242,
      "lip": 5243,
      "sym": 5244,
      "whats": 5245,
      "facing": 5246,
      "judge": 5247,
      "wand": 5248,
      "##hhhh": 5249,
      "employees": 5250,
      "##aught": 5251,
      "##umble": 5252,
      "##uled": 5253,
      "slammed": 5254,
      "eur": 5255,
      "vet": 5256,
      "##uum": 5257,
      "drag": 5258,
      "besides": 5259,
      "technically": 5260,
      "##ole": 5261,
      "3rd": 5262,
      "haha": 5263,
      "rom": 5264,
      "highway": 5265,
      "animal": 5266,
      "japan": 5267,
      "instinct": 5268,
      "covering": 5269,
      "impress": 5270,
      "patch": 5271,
      "enjoyed": 5272,
      "blanket": 5273,
      "sized": 5274,
      "##zer": 5275,
      "seal": 5276,
      "hose": 5277,
      "trick": 5278,
      "ears": 5279,
      "doubt": 5280,
      "radio": 5281,
      "##under": 5282,
      "##ender": 5283,
      "##ulting": 5284,
      "vod": 5285,
      "required": 5286,
      "volume": 5287,
      "repeated": 5288,
      "innocent": 5289,
      "password": 5290,
      "vibr": 5291,
      "ident": 5292,
      "created": 5293,
      "connect": 5294,
      "semi": 5295,
      "absolute": 5296,
      "spicy": 5297,
      "friendship": 5298,
      "##eed": 5299,
      "applic": 5300,
      "replies": 5301,
      "sigh": 5302,
      "snapchat": 5303,
      "##isf": 5304,
      "pretend": 5305,
      "vision": 5306,
      "ty": 5307,
      "recent": 5308,
      "refused": 5309,
      "racist": 5310,
      "matt": 5311,
      "plant": 5312,
      "ourselves": 5313,
      "term": 5314,
      "emails": 5315,
      "virgin": 5316,
      "borrow": 5317,
      "necess": 5318,
      "##oc": 5319,
      "otherwise": 5320,
      "breathing": 5321,
      "##?\"": 5322,
      "mexic": 5323,
      "##rel": 5324,
      "mates": 5325,
      "habit": 5326,
      "vacuum": 5327,
      "alive": 5328,
      "brings": 5329,
      "lecture": 5330,
      "que": 5331,
      "memor": 5332,
      "closest": 5333,
      "material": 5334,
      "vodka": 5335,
      "length": 5336,
      "sheet": 5337,
      "popular": 5338,
      "tail": 5339,
      "boring": 5340,
      "?!\"": 5341,
      "among": 5342,
      "based": 5343,
      "ham": 5344,
      "sugar": 5345,
      "higher": 5346,
      "san": 5347,
      "coke": 5348,
      "lun": 5349,
      "sides": 5350,
      "?”": 5351,
      "lighter": 5352,
      "terror": 5353,
      "concl": 5354,
      "attempting": 5355,
      "##ios": 5356,
      "instant": 5357,
      "solution": 5358,
      "deb": 5359,
      "speech": 5360,
      "xbox": 5361,
      "##ibility": 5362,
      "kit": 5363,
      "lately": 5364,
      "cracked": 5365,
      "##while": 5366,
      "!\".": 5367,
      "reveal": 5368,
      "contract": 5369,
      "episode": 5370,
      "shad": 5371,
      "##amb": 5372,
      "cub": 5373,
      "##itter": 5374,
      "##ointed": 5375,
      "version": 5376,
      "rack": 5377,
      "happily": 5378,
      "rear": 5379,
      "fellow": 5380,
      "flipped": 5381,
      "wiped": 5382,
      "##oud": 5383,
      "shy": 5384,
      "mini": 5385,
      "assuming": 5386,
      "belong": 5387,
      "mistakes": 5388,
      "container": 5389,
      "crotch": 5390,
      "stupidity": 5391,
      "describe": 5392,
      "upload": 5393,
      "grandpar": 5394,
      "kicking": 5395,
      "shape": 5396,
      "bone": 5397,
      "gut": 5398,
      "leading": 5399,
      "fighting": 5400,
      "##ribly": 5401,
      "22": 5402,
      "bug": 5403,
      "film": 5404,
      "max": 5405,
      "considered": 5406,
      "##inary": 5407,
      "##olen": 5408,
      "arrested": 5409,
      "ipad": 5410,
      "##asy": 5411,
      "notes": 5412,
      "incre": 5413,
      "heav": 5414,
      "convince": 5415,
      "forehead": 5416,
      "medicine": 5417,
      "goddamn": 5418,
      "btw": 5419,
      "adj": 5420,
      "pussy": 5421,
      "obli": 5422,
      "##arth": 5423,
      "plenty": 5424,
      "taxi": 5425,
      "##illy": 5426,
      "progress": 5427,
      "commit": 5428,
      "creepy": 5429,
      "##lling": 5430,
      "lied": 5431,
      "scen": 5432,
      "shaving": 5433,
      "smashed": 5434,
      "trees": 5435,
      "ridiculous": 5436,
      "lu": 5437,
      "pit": 5438,
      "previously": 5439,
      "jim": 5440,
      "##----------------": 5441,
      "jew": 5442,
      "learning": 5443,
      "##flix": 5444,
      "##des": 5445,
      "stolen": 5446,
      "chain": 5447,
      "wore": 5448,
      "available": 5449,
      "##itary": 5450,
      "lips": 5451,
      "##angers": 5452,
      "monitor": 5453,
      "##oon": 5454,
      "netflix": 5455,
      "spilled": 5456,
      "duck": 5457,
      "bits": 5458,
      "server": 5459,
      "computers": 5460,
      "separate": 5461,
      "volunt": 5462,
      "entrance": 5463,
      "clot": 5464,
      "trunk": 5465,
      "receive": 5466,
      "options": 5467,
      "demand": 5468,
      "hates": 5469,
      "lur": 5470,
      "ni": 5471,
      "##bble": 5472,
      "blowing": 5473,
      "##orge": 5474,
      "##umbling": 5475,
      "lawn": 5476,
      "##asm": 5477,
      "rude": 5478,
      "quietly": 5479,
      "carrying": 5480,
      "chemical": 5481,
      "consequ": 5482,
      "hug": 5483,
      "teenager": 5484,
      "skills": 5485,
      "hers": 5486,
      "raised": 5487,
      "##gy": 5488,
      "classmates": 5489,
      ":)": 5490,
      "folder": 5491,
      "standard": 5492,
      "profile": 5493,
      "wrap": 5494,
      "disappear": 5495,
      "media": 5496,
      "hated": 5497,
      "##ipment": 5498,
      "glue": 5499,
      "leads": 5500,
      "mortified": 5501,
      "pea": 5502,
      "##isting": 5503,
      "spelling": 5504,
      "cousins": 5505,
      "dollar": 5506,
      "grabs": 5507,
      "sticking": 5508,
      "humor": 5509,
      "bene": 5510,
      "##oot": 5511,
      "socks": 5512,
      "##imate": 5513,
      "##ipping": 5514,
      "delete": 5515,
      "##posed": 5516,
      "##mission": 5517,
      "##aste": 5518,
      "finds": 5519,
      "hurting": 5520,
      "##nds": 5521,
      "carried": 5522,
      "##ivid": 5523,
      "fancy": 5524,
      "soup": 5525,
      "focus": 5526,
      "hesit": 5527,
      "weak": 5528,
      "touching": 5529,
      "woods": 5530,
      "gum": 5531,
      "sea": 5532,
      "##cles": 5533,
      "##orious": 5534,
      "results": 5535,
      "communic": 5536,
      "suic": 5537,
      "signs": 5538,
      "grandparents": 5539,
      "discus": 5540,
      "rage": 5541,
      "##tered": 5542,
      "meanwhile": 5543,
      "river": 5544,
      "professional": 5545,
      "razor": 5546,
      "##ification": 5547,
      "satisf": 5548,
      "easier": 5549,
      "jokingly": 5550,
      "rice": 5551,
      "##list": 5552,
      "passport": 5553,
      "punched": 5554,
      "afford": 5555,
      "reception": 5556,
      "dawn": 5557,
      "##antic": 5558,
      "poke": 5559,
      "thor": 5560,
      "neg": 5561,
      "becoming": 5562,
      "nature": 5563,
      "hamm": 5564,
      "fucker": 5565,
      "##aped": 5566,
      "images": 5567,
      "understanding": 5568,
      "approached": 5569,
      "specif": 5570,
      "23": 5571,
      "##erc": 5572,
      "backyard": 5573,
      "##ley": 5574,
      "##thy": 5575,
      "confront": 5576,
      "delivery": 5577,
      "sports": 5578,
      "comfort": 5579,
      "motherfuck": 5580,
      "papers": 5581,
      "coat": 5582,
      "cheating": 5583,
      "understood": 5584,
      "stat": 5585,
      "wiping": 5586,
      "singing": 5587,
      "##eg": 5588,
      "##stand": 5589,
      "apologizing": 5590,
      "frame": 5591,
      "##icles": 5592,
      "character": 5593,
      "##rr": 5594,
      "according": 5595,
      "brilliant": 5596,
      "wasnt": 5597,
      "messing": 5598,
      "##ups": 5599,
      "##apping": 5600,
      "shes": 5601,
      "fallen": 5602,
      "addition": 5603,
      "exams": 5604,
      "fluid": 5605,
      "nut": 5606,
      "dishes": 5607,
      "micro": 5608,
      "jerk": 5609,
      "##iced": 5610,
      "basic": 5611,
      "average": 5612,
      "tou": 5613,
      "tran": 5614,
      "certainly": 5615,
      "##ruction": 5616,
      "ditch": 5617,
      "##men": 5618,
      "##riage": 5619,
      "taco": 5620,
      "##rete": 5621,
      "assignment": 5622,
      "jaw": 5623,
      "##ution": 5624,
      "bucks": 5625,
      "investig": 5626,
      "journey": 5627,
      "sucked": 5628,
      "energy": 5629,
      "greeted": 5630,
      "quarter": 5631,
      "uk": 5632,
      "potential": 5633,
      "junior": 5634,
      "##iles": 5635,
      "ants": 5636,
      "drawer": 5637,
      "##ts": 5638,
      "content": 5639,
      "##haps": 5640,
      "jar": 5641,
      "perhaps": 5642,
      "bars": 5643,
      "speaker": 5644,
      "specific": 5645,
      "fol": 5646,
      "boom": 5647,
      "suppose": 5648,
      "##giving": 5649,
      "volunte": 5650,
      "carefully": 5651,
      "goodbye": 5652,
      "applied": 5653,
      "signed": 5654,
      "casual": 5655,
      "disappointed": 5656,
      "cashier": 5657,
      "practically": 5658,
      "spanish": 5659,
      "rang": 5660,
      "##idently": 5661,
      "surv": 5662,
      "shel": 5663,
      "kissing": 5664,
      "fash": 5665,
      "hat": 5666,
      "tent": 5667,
      "lake": 5668,
      "pointing": 5669,
      "mechan": 5670,
      "passes": 5671,
      "##father": 5672,
      "##________": 5673,
      "positive": 5674,
      "70": 5675,
      "rubber": 5676,
      "[*": 5677,
      "austr": 5678,
      "##house": 5679,
      "sarah": 5680,
      "austral": 5681,
      "loss": 5682,
      "sweating": 5683,
      "##cr": 5684,
      "laun": 5685,
      "sharing": 5686,
      "allerg": 5687,
      "shelf": 5688,
      "reality": 5689,
      "dryer": 5690,
      "porch": 5691,
      "bust": 5692,
      "eld": 5693,
      "elbow": 5694,
      "subst": 5695,
      "suspended": 5696,
      "exist": 5697,
      "released": 5698,
      "confirm": 5699,
      "admin": 5700,
      "##od": 5701,
      "matters": 5702,
      "injury": 5703,
      "fashion": 5704,
      "##llen": 5705,
      "contacts": 5706,
      "blocks": 5707,
      "beard": 5708,
      "prescri": 5709,
      "magic": 5710,
      "command": 5711,
      "wont": 5712,
      "upper": 5713,
      "sky": 5714,
      "##ference": 5715,
      "german": 5716,
      "surprisingly": 5717,
      "##vant": 5718,
      "exerc": 5719,
      "recall": 5720,
      "legal": 5721,
      "cookies": 5722,
      "coughing": 5723,
      "##erly": 5724,
      "yep": 5725,
      "##ases": 5726,
      "object": 5727,
      "mentally": 5728,
      "basketball": 5729,
      "complex": 5730,
      "topic": 5731,
      "continues": 5732,
      "sprayed": 5733,
      "route": 5734,
      "risk": 5735,
      "aim": 5736,
      "##elled": 5737,
      "sett": 5738,
      "player": 5739,
      "horrified": 5740,
      "screams": 5741,
      "included": 5742,
      "##mail": 5743,
      "lif": 5744,
      "purpose": 5745,
      "##kk": 5746,
      "eight": 5747,
      "jail": 5748,
      "series": 5749,
      "mal": 5750,
      "knowledge": 5751,
      "##host": 5752,
      "depressed": 5753,
      "anal": 5754,
      "##ament": 5755,
      "willing": 5756,
      "function": 5757,
      "##school": 5758,
      "toys": 5759,
      "earth": 5760,
      "##gled": 5761,
      "shamp": 5762,
      "confusion": 5763,
      "noticing": 5764,
      "balcon": 5765,
      "##gers": 5766,
      "dealing": 5767,
      "wad": 5768,
      "burger": 5769,
      "replaced": 5770,
      "golf": 5771,
      "shampoo": 5772,
      "nightm": 5773,
      "remaining": 5774,
      "bul": 5775,
      "##anced": 5776,
      "satan": 5777,
      "equipment": 5778,
      "cable": 5779,
      "##eable": 5780,
      "unit": 5781,
      "##action": 5782,
      "##coming": 5783,
      "##mg": 5784,
      "##bar": 5785,
      "drives": 5786,
      "concrete": 5787,
      "houses": 5788,
      "tests": 5789,
      "teenage": 5790,
      "##iring": 5791,
      "terms": 5792,
      "grown": 5793,
      "receip": 5794,
      "fruit": 5795,
      "advent": 5796,
      "meas": 5797,
      "dece": 5798,
      "spots": 5799,
      "fest": 5800,
      "task": 5801,
      "disab": 5802,
      "escal": 5803,
      "target": 5804,
      "socc": 5805,
      "decl": 5806,
      "landl": 5807,
      "soul": 5808,
      "puppy": 5809,
      "determ": 5810,
      "peace": 5811,
      "breathe": 5812,
      "balcony": 5813,
      "pockets": 5814,
      "##mart": 5815,
      "##itions": 5816,
      "##shot": 5817,
      "shave": 5818,
      "locking": 5819,
      "cheek": 5820,
      "thorough": 5821,
      "##aper": 5822,
      "gloves": 5823,
      "mi": 5824,
      "sting": 5825,
      "dried": 5826,
      "perman": 5827,
      "ghost": 5828,
      "tough": 5829,
      "noises": 5830,
      "impo": 5831,
      "freezing": 5832,
      "impro": 5833,
      "urine": 5834,
      "##inc": 5835,
      "##anged": 5836,
      "soccer": 5837,
      "dild": 5838,
      "##ram": 5839,
      "##yy": 5840,
      "review": 5841,
      "spir": 5842,
      "guil": 5843,
      "##ral": 5844,
      "##igs": 5845,
      "*\"": 5846,
      "stoned": 5847,
      "wre": 5848,
      "scary": 5849,
      "insult": 5850,
      "specifically": 5851,
      "transp": 5852,
      "4th": 5853,
      "believed": 5854,
      "searched": 5855,
      "cheeks": 5856,
      "mel": 5857,
      "tone": 5858,
      "military": 5859,
      "sensitive": 5860,
      "canada": 5861,
      "yells": 5862,
      "exploded": 5863,
      "dripping": 5864,
      "intended": 5865,
      "purse": 5866,
      "##sa": 5867,
      "lube": 5868,
      "”.": 5869,
      "##gly": 5870,
      "##ca": 5871,
      "monster": 5872,
      "tons": 5873,
      "responsible": 5874,
      "hun": 5875,
      "drivers": 5876,
      "##dom": 5877,
      "plugged": 5878,
      "gener": 5879,
      "##mark": 5880,
      "tear": 5881,
      "thanksgiving": 5882,
      "zone": 5883,
      "evidence": 5884,
      "stole": 5885,
      "stopping": 5886,
      "##ij": 5887,
      "states": 5888,
      "guilty": 5889,
      "jen": 5890,
      "silly": 5891,
      "##acing": 5892,
      "hopped": 5893,
      "booked": 5894,
      "tasted": 5895,
      "loaded": 5896,
      "chilling": 5897,
      "fuel": 5898,
      "bastard": 5899,
      "theater": 5900,
      "steve": 5901,
      "##uuuu": 5902,
      "##graph": 5903,
      "##hy": 5904,
      "aggress": 5905,
      "ow": 5906,
      "deck": 5907,
      "pau": 5908,
      "##rated": 5909,
      "zero": 5910,
      "##rid": 5911,
      "##ayed": 5912,
      "ish": 5913,
      "prepare": 5914,
      "tissue": 5915,
      "##cast": 5916,
      "##town": 5917,
      "##ino": 5918,
      "bran": 5919,
      "flav": 5920,
      "conscious": 5921,
      "circle": 5922,
      "desperate": 5923,
      "clothing": 5924,
      "##iders": 5925,
      "sidewalk": 5926,
      "explan": 5927,
      "whisper": 5928,
      "911": 5929,
      "rings": 5930,
      "##down": 5931,
      "sentence": 5932,
      "catching": 5933,
      "admitted": 5934,
      "officers": 5935,
      "purchase": 5936,
      "powder": 5937,
      "flirting": 5938,
      "sales": 5939,
      "ashamed": 5940,
      "million": 5941,
      "fate": 5942,
      "beating": 5943,
      "clin": 5944,
      "bills": 5945,
      "argument": 5946,
      "smaller": 5947,
      "hind": 5948,
      "yay": 5949,
      "ine": 5950,
      "paranoid": 5951,
      "fou": 5952,
      "pretending": 5953,
      "anus": 5954,
      "scare": 5955,
      "moral": 5956,
      "auto": 5957,
      "unlocked": 5958,
      "hooked": 5959,
      "angle": 5960,
      "collect": 5961,
      "ah": 5962,
      "property": 5963,
      "mutual": 5964,
      "firm": 5965,
      "##belie": 5966,
      "charged": 5967,
      "king": 5968,
      "pean": 5969,
      "diag": 5970,
      "regularly": 5971,
      "snapped": 5972,
      "ive": 5973,
      "peel": 5974,
      "cleaner": 5975,
      "anti": 5976,
      "frustrated": 5977,
      "##rog": 5978,
      "unus": 5979,
      "##istry": 5980,
      "hopes": 5981,
      "indian": 5982,
      "flies": 5983,
      "distracted": 5984,
      "frank": 5985,
      "preface": 5986,
      "intention": 5987,
      "indeed": 5988,
      "bb": 5989,
      "##ety": 5990,
      "ignoring": 5991,
      "shouted": 5992,
      "melted": 5993,
      "exhausted": 5994,
      "uses": 5995,
      "puddle": 5996,
      "highschool": 5997,
      "assistant": 5998,
      "##hor": 5999,
      "purchased": 6000,
      "farm": 6001,
      "anybody": 6002,
      "##iped": 6003,
      "joe": 6004,
      "trigg": 6005,
      "disp": 6006,
      "strangers": 6007,
      "fb": 6008,
      "##ords": 6009,
      "joined": 6010,
      "smelling": 6011,
      "##cra": 6012,
      "workout": 6013,
      "battle": 6014,
      "prove": 6015,
      "scroll": 6016,
      "strict": 6017,
      "spoken": 6018,
      "unb": 6019,
      "instructions": 6020,
      "##yer": 6021,
      "##atically": 6022,
      "imposs": 6023,
      "ec": 6024,
      "trim": 6025,
      "freezer": 6026,
      "welcome": 6027,
      "gif": 6028,
      "hallow": 6029,
      "##ores": 6030,
      "relieved": 6031,
      "banned": 6032,
      "ast": 6033,
      "rat": 6034,
      "##atives": 6035,
      "legit": 6036,
      "scheduled": 6037,
      "guit": 6038,
      "league": 6039,
      "genu": 6040,
      "pops": 6041,
      "nar": 6042,
      "refu": 6043,
      "tag": 6044,
      "directions": 6045,
      "punish": 6046,
      "edu": 6047,
      "shits": 6048,
      "sticky": 6049,
      "holes": 6050,
      "du": 6051,
      "dun": 6052,
      "froze": 6053,
      "religious": 6054,
      "lungs": 6055,
      "grandfather": 6056,
      "cringe": 6057,
      "stro": 6058,
      "minim": 6059,
      "north": 6060,
      "shook": 6061,
      "swo": 6062,
      "folks": 6063,
      "washer": 6064,
      "##dition": 6065,
      "400": 6066,
      "##iter": 6067,
      "retarded": 6068,
      "sends": 6069,
      "##orted": 6070,
      "struggling": 6071,
      "chip": 6072,
      "remain": 6073,
      "masturbating": 6074,
      "express": 6075,
      "swollen": 6076,
      "guessed": 6077,
      "heavily": 6078,
      "backed": 6079,
      "schools": 6080,
      "arrives": 6081,
      "switched": 6082,
      "market": 6083,
      "severe": 6084,
      "strength": 6085,
      "design": 6086,
      "sliding": 6087,
      "kitten": 6088,
      "opin": 6089,
      "grades": 6090,
      "\"...": 6091,
      "stack": 6092,
      "hidden": 6093,
      "wire": 6094,
      "stumbled": 6095,
      "blister": 6096,
      "halloween": 6097,
      "genuine": 6098,
      "gaming": 6099,
      "##itude": 6100,
      "therefore": 6101,
      "saf": 6102,
      "desperately": 6103,
      "irrit": 6104,
      "nipp": 6105,
      "cer": 6106,
      "selling": 6107,
      "##rier": 6108,
      "tray": 6109,
      "boner": 6110,
      "mu": 6111,
      "mike": 6112,
      "confidence": 6113,
      "hero": 6114,
      "demon": 6115,
      "contem": 6116,
      "difference": 6117,
      "dreams": 6118,
      "tatt": 6119,
      "locks": 6120,
      "funeral": 6121,
      "apology": 6122,
      "raise": 6123,
      "spraying": 6124,
      "##bbing": 6125,
      "conference": 6126,
      "depression": 6127,
      "defe": 6128,
      "pencil": 6129,
      "unlock": 6130,
      "##eter": 6131,
      "##ients": 6132,
      "soph": 6133,
      "overall": 6134,
      "##ples": 6135,
      "rushing": 6136,
      "##orting": 6137,
      "peppers": 6138,
      "cuts": 6139,
      "flowers": 6140,
      "contents": 6141,
      "stands": 6142,
      "grin": 6143,
      "degrees": 6144,
      "repeat": 6145,
      "fian": 6146,
      "nood": 6147,
      "dod": 6148,
      "picks": 6149,
      "jumps": 6150,
      ".'": 6151,
      "blade": 6152,
      "divor": 6153,
      "traum": 6154,
      "ny": 6155,
      "shru": 6156,
      "error": 6157,
      "mattress": 6158,
      "tie": 6159,
      "##ai": 6160,
      "evil": 6161,
      "square": 6162,
      "##aaaa": 6163,
      "appeared": 6164,
      "cord": 6165,
      "unw": 6166,
      "consum": 6167,
      "impossible": 6168,
      "walmart": 6169,
      "stal": 6170,
      "smiling": 6171,
      "litter": 6172,
      "spoon": 6173,
      "cabinet": 6174,
      "stock": 6175,
      "dial": 6176,
      "chin": 6177,
      "vomiting": 6178,
      "originally": 6179,
      "choose": 6180,
      "reject": 6181,
      "rar": 6182,
      "rocks": 6183,
      "installed": 6184,
      "horse": 6185,
      "hundreds": 6186,
      "bladder": 6187,
      "smash": 6188,
      "recognize": 6189,
      "device": 6190,
      "conven": 6191,
      "pounds": 6192,
      "effects": 6193,
      "dread": 6194,
      "illeg": 6195,
      "appreciate": 6196,
      "educ": 6197,
      "##isc": 6198,
      "adam": 6199,
      "blond": 6200,
      "animals": 6201,
      "initial": 6202,
      "smiled": 6203,
      "dates": 6204,
      "flames": 6205,
      "stupidly": 6206,
      "condoms": 6207,
      "orders": 6208,
      "guitar": 6209,
      "deed": 6210,
      "1000": 6211,
      "*](/": 6212,
      "downtown": 6213,
      "whose": 6214,
      "furious": 6215,
      "individ": 6216,
      "grill": 6217,
      "buff": 6218,
      "movement": 6219,
      "##rupted": 6220,
      "##ummy": 6221,
      "eve": 6222,
      "##aken": 6223,
      "##ians": 6224,
      "patient": 6225,
      "suspicious": 6226,
      "fianc": 6227,
      "##sive": 6228,
      "stun": 6229,
      "glorious": 6230,
      "termin": 6231,
      "career": 6232,
      "returning": 6233,
      "breast": 6234,
      "healthy": 6235,
      "expression": 6236,
      "ol": 6237,
      "potentially": 6238,
      "july": 6239,
      "emotional": 6240,
      "brake": 6241,
      "tattoo": 6242,
      "',": 6243,
      "''": 6244,
      "##rifying": 6245,
      "##lor": 6246,
      "ruin": 6247,
      "subs": 6248,
      "sib": 6249,
      "##rors": 6250,
      "usb": 6251,
      "charger": 6252,
      "stain": 6253,
      "parties": 6254,
      "subway": 6255,
      "mainly": 6256,
      "cups": 6257,
      "boiling": 6258,
      "surely": 6259,
      "infection": 6260,
      "randomly": 6261,
      "seven": 6262,
      "##ucks": 6263,
      "fiancé": 6264,
      "chunk": 6265,
      "##ifi": 6266,
      "ly": 6267,
      "##case": 6268,
      "lobby": 6269,
      "physically": 6270,
      "muscle": 6271,
      "landing": 6272,
      "##aneously": 6273,
      "ven": 6274,
      "immediate": 6275,
      "tables": 6276,
      "bio": 6277,
      "moan": 6278,
      "typically": 6279,
      "russ": 6280,
      "stair": 6281,
      "behav": 6282,
      "necessary": 6283,
      "glance": 6284,
      "##hand": 6285,
      "ladder": 6286,
      "dildo": 6287,
      "director": 6288,
      "confirmed": 6289,
      "##ners": 6290,
      "chips": 6291,
      "moves": 6292,
      "addict": 6293,
      "model": 6294,
      "landlord": 6295,
      "##?!": 6296,
      "doc": 6297,
      "joy": 6298,
      "create": 6299,
      "filter": 6300,
      "moms": 6301,
      "collap": 6302,
      "##brush": 6303,
      "grip": 6304,
      "drown": 6305,
      "limit": 6306,
      "au": 6307,
      "pride": 6308,
      "impression": 6309,
      "##bag": 6310,
      "spiders": 6311,
      "sadly": 6312,
      "sibling": 6313,
      "born": 6314,
      "beep": 6315,
      "helps": 6316,
      "sniff": 6317,
      "charges": 6318,
      "resulted": 6319,
      "drawing": 6320,
      "source": 6321,
      "pier": 6322,
      "sake": 6323,
      "conso": 6324,
      "huh": 6325,
      "straw": 6326,
      "medication": 6327,
      "reference": 6328,
      "150": 6329,
      "camping": 6330,
      "kissed": 6331,
      "guilt": 6332,
      "conversations": 6333,
      "consequences": 6334,
      "pages": 6335,
      "rail": 6336,
      "document": 6337,
      "quality": 6338,
      "actions": 6339,
      "adren": 6340,
      "messaged": 6341,
      "preparing": 6342,
      "celebrate": 6343,
      "fau": 6344,
      "hip": 6345,
      "listened": 6346,
      "tempor": 6347,
      "brakes": 6348,
      "flesh": 6349,
      "insane": 6350,
      "douche": 6351,
      "bonus": 6352,
      "lone": 6353,
      "mud": 6354,
      "tradition": 6355,
      "management": 6356,
      "contempl": 6357,
      "hoped": 6358,
      "sometime": 6359,
      "etern": 6360,
      "rum": 6361,
      "uber": 6362,
      "shattered": 6363,
      "faced": 6364,
      "string": 6365,
      "adrenal": 6366,
      "resc": 6367,
      "**.": 6368,
      "marriage": 6369,
      "climbing": 6370,
      "hyd": 6371,
      "idk": 6372,
      "boobs": 6373,
      "fif": 6374,
      "favour": 6375,
      "wings": 6376,
      "bacon": 6377,
      "meds": 6378,
      "washroom": 6379,
      "!”": 6380,
      "lat": 6381,
      "blown": 6382,
      "**:": 6383,
      "application": 6384,
      "nic": 6385,
      "sticks": 6386,
      "thirty": 6387,
      "##iently": 6388,
      "magn": 6389,
      "##aping": 6390,
      "tripped": 6391,
      "floors": 6392,
      "dumped": 6393,
      "##anta": 6394,
      "##sight": 6395,
      "lasted": 6396,
      "busted": 6397,
      "taught": 6398,
      "##gu": 6399,
      "unh": 6400,
      "surface": 6401,
      "speakers": 6402,
      "candle": 6403,
      "located": 6404,
      "reaching": 6405,
      "purple": 6406,
      "bong": 6407,
      "fist": 6408,
      "##oms": 6409,
      "crashed": 6410,
      "##enched": 6411,
      "clogged": 6412,
      "curb": 6413,
      "alot": 6414,
      "teaching": 6415,
      "label": 6416,
      "lifted": 6417,
      "sorts": 6418,
      "encoun": 6419,
      "##ators": 6420,
      "belly": 6421,
      "##icing": 6422,
      "realization": 6423,
      "disgusted": 6424,
      "alas": 6425,
      "acqu": 6426,
      "bubb": 6427,
      "##ewor": 6428,
      "chemistry": 6429,
      "receipt": 6430,
      "furn": 6431,
      "loving": 6432,
      "damaged": 6433,
      "element": 6434,
      "panties": 6435,
      "courage": 6436,
      "holidays": 6437,
      "honey": 6438,
      "applying": 6439,
      "regardless": 6440,
      "flor": 6441,
      "puking": 6442,
      "natural": 6443,
      "ap": 6444,
      "apri": 6445,
      "puked": 6446,
      "##arma": 6447,
      "prim": 6448,
      "guns": 6449,
      "dentist": 6450,
      "james": 6451,
      "##form": 6452,
      "##ural": 6453,
      "##cted": 6454,
      "chase": 6455,
      "ordering": 6456,
      "crawl": 6457,
      "therap": 6458,
      "pip": 6459,
      "##enance": 6460,
      "stressed": 6461,
      "insisted": 6462,
      "ordeal": 6463,
      "politely": 6464,
      "stealing": 6465,
      "japanese": 6466,
      "rarely": 6467,
      "*,": 6468,
      "headache": 6469,
      "accent": 6470,
      "impact": 6471,
      "extreme": 6472,
      "tablet": 6473,
      "75": 6474,
      "hint": 6475,
      "bothered": 6476,
      "initially": 6477,
      "april": 6478,
      "nin": 6479,
      "serv": 6480,
      "sweaty": 6481,
      "crew": 6482,
      "meg": 6483,
      "deciding": 6484,
      "trusting": 6485,
      "electron": 6486,
      "settled": 6487,
      "tool": 6488,
      "peed": 6489,
      "challenge": 6490,
      "spa": 6491,
      "crushed": 6492,
      "insert": 6493,
      "leaned": 6494,
      "fet": 6495,
      "##hal": 6496,
      "##inated": 6497,
      "shoulders": 6498,
      "connection": 6499,
      "songs": 6500,
      "dangerous": 6501,
      "moder": 6502,
      "bugs": 6503,
      "wooden": 6504,
      ".](": 6505,
      "tele": 6506,
      "elderly": 6507,
      "##ares": 6508,
      "pole": 6509,
      "##izzy": 6510,
      "discussion": 6511,
      "temperature": 6512,
      "##cel": 6513,
      "finals": 6514,
      "entering": 6515,
      "colleague": 6516,
      "waist": 6517,
      "infl": 6518,
      "##icated": 6519,
      "acted": 6520,
      "frequently": 6521,
      "##uary": 6522,
      "logged": 6523,
      "foreign": 6524,
      "proced": 6525,
      "hardly": 6526,
      "##ums": 6527,
      "finan": 6528,
      "retrie": 6529,
      "oblivious": 6530,
      "rab": 6531,
      "##ief": 6532,
      "##hold": 6533,
      "mirac": 6534,
      "##pod": 6535,
      "toilets": 6536,
      "liquor": 6537,
      "duty": 6538,
      "##unks": 6539,
      "sciss": 6540,
      "acce": 6541,
      "polic": 6542,
      "payment": 6543,
      "##phew": 6544,
      "urg": 6545,
      "explanation": 6546,
      "dave": 6547,
      "couldnt": 6548,
      "kinds": 6549,
      "typed": 6550,
      "rare": 6551,
      "##bl": 6552,
      "nephew": 6553,
      "becomes": 6554,
      "essay": 6555,
      "gentleman": 6556,
      "pause": 6557,
      "##aze": 6558,
      "signific": 6559,
      "##ugging": 6560,
      "example": 6561,
      "##appro": 6562,
      "rinse": 6563,
      "ugly": 6564,
      "steak": 6565,
      "drill": 6566,
      "woken": 6567,
      "america": 6568,
      "bam": 6569,
      "cot": 6570,
      "dash": 6571,
      "troll": 6572,
      "flushed": 6573,
      "1st": 6574,
      "wis": 6575,
      "prefer": 6576,
      "valent": 6577,
      "##resp": 6578,
      "pred": 6579,
      "laws": 6580,
      "stares": 6581,
      "maintenance": 6582,
      "##^^": 6583,
      "overnight": 6584,
      "tools": 6585,
      "protect": 6586,
      "inappro": 6587,
      "##xture": 6588,
      "paperwork": 6589,
      "christian": 6590,
      "toothp": 6591,
      "thoroughly": 6592,
      "inner": 6593,
      "chances": 6594,
      "bun": 6595,
      "##anked": 6596,
      "army": 6597,
      "gorge": 6598,
      "##can": 6599,
      "##fa": 6600,
      "phr": 6601,
      "graph": 6602,
      "letters": 6603,
      "##gues": 6604,
      "talks": 6605,
      "##pan": 6606,
      "##orant": 6607,
      "stink": 6608,
      "slap": 6609,
      "remote": 6610,
      "ringing": 6611,
      "crossed": 6612,
      "torn": 6613,
      "spinning": 6614,
      "repeatedly": 6615,
      "sack": 6616,
      "scam": 6617,
      "leak": 6618,
      "testing": 6619,
      "combination": 6620,
      "score": 6621,
      "changes": 6622,
      "fourth": 6623,
      "spilling": 6624,
      "germ": 6625,
      "##met": 6626,
      "##brow": 6627,
      "select": 6628,
      "bleed": 6629,
      "ais": 6630,
      "dy": 6631,
      "toast": 6632,
      "##ils": 6633,
      "answering": 6634,
      "tamp": 6635,
      "cheer": 6636,
      "removing": 6637,
      "toothbrush": 6638,
      "potatoes": 6639,
      "massage": 6640,
      "##fo": 6641,
      "##xy": 6642,
      "##nded": 6643,
      "trapped": 6644,
      "sets": 6645,
      "karma": 6646,
      "mask": 6647,
      "throws": 6648,
      "grind": 6649,
      "attempts": 6650,
      "majority": 6651,
      "mexican": 6652,
      "nightmare": 6653,
      "hom": 6654,
      "shed": 6655,
      "unif": 6656,
      "crashing": 6657,
      "strike": 6658,
      "correctly": 6659,
      "grandpa": 6660,
      "cookie": 6661,
      "oct": 6662,
      "ren": 6663,
      "chan": 6664,
      "slapped": 6665,
      "intent": 6666,
      "calcul": 6667,
      "squeeze": 6668,
      "hindsight": 6669,
      "##anted": 6670,
      "capt": 6671,
      "soaking": 6672,
      "creating": 6673,
      "allergic": 6674,
      "pig": 6675,
      "rib": 6676,
      "##bell": 6677,
      "##ids": 6678,
      "poster": 6679,
      "excite": 6680,
      "concent": 6681,
      "grocer": 6682,
      "fantastic": 6683,
      "##gl": 6684,
      "##ja": 6685,
      "goal": 6686,
      "##illa": 6687,
      "circum": 6688,
      "mat": 6689,
      "rope": 6690,
      "complaining": 6691,
      "packing": 6692,
      "climbed": 6693,
      "adrenaline": 6694,
      "fuckin": 6695,
      "extended": 6696,
      "concern": 6697,
      "ide": 6698,
      "##corn": 6699,
      "chili": 6700,
      "unknown": 6701,
      "ben": 6702,
      "stap": 6703,
      "heated": 6704,
      "seeming": 6705,
      "cris": 6706,
      "managers": 6707,
      "injured": 6708,
      "sophom": 6709,
      "groceries": 6710,
      "jane": 6711,
      "##pse": 6712,
      "mand": 6713,
      "##aded": 6714,
      "shoved": 6715,
      "baseball": 6716,
      "portion": 6717,
      "##cet": 6718,
      "lax": 6719,
      "bowels": 6720,
      "banging": 6721,
      "victim": 6722,
      "hired": 6723,
      "cooked": 6724,
      "pleasant": 6725,
      "border": 6726,
      "tore": 6727,
      "fork": 6728,
      "shove": 6729,
      "gathered": 6730,
      "brew": 6731,
      "fri": 6732,
      "weap": 6733,
      "island": 6734,
      "aband": 6735,
      "##eps": 6736,
      "failing": 6737,
      "explains": 6738,
      "ms": 6739,
      "##ng": 6740,
      "eyebrow": 6741,
      "groups": 6742,
      "promised": 6743,
      "##lights": 6744,
      "determined": 6745,
      "introduced": 6746,
      "bye": 6747,
      "reset": 6748,
      "highly": 6749,
      "gorgeous": 6750,
      "excitement": 6751,
      "/)": 6752,
      "cult": 6753,
      "##vit": 6754,
      "##agger": 6755,
      "encou": 6756,
      "automatically": 6757,
      "opinion": 6758,
      "rate": 6759,
      "##loc": 6760,
      "unpl": 6761,
      "activities": 6762,
      "aug": 6763,
      "relevant": 6764,
      "recommend": 6765,
      "tas": 6766,
      "height": 6767,
      "prost": 6768,
      "network": 6769,
      "digging": 6770,
      "europe": 6771,
      "rich": 6772,
      "shat": 6773,
      "##unate": 6774,
      "##elt": 6775,
      "tossed": 6776,
      "eager": 6777,
      "starb": 6778,
      "december": 6779,
      "clinic": 6780,
      "cath": 6781,
      "nails": 6782,
      "range": 6783,
      "##sty": 6784,
      "fixing": 6785,
      "##bu": 6786,
      "ability": 6787,
      "uncont": 6788,
      "brushed": 6789,
      "resume": 6790,
      "avoided": 6791,
      "tips": 6792,
      "deaf": 6793,
      "cro": 6794,
      "diet": 6795,
      "##va": 6796,
      "##onn": 6797,
      "##ilities": 6798,
      "metho": 6799,
      "invite": 6800,
      "sept": 6801,
      "bod": 6802,
      "##iece": 6803,
      "louder": 6804,
      "instructor": 6805,
      "##fit": 6806,
      "circ": 6807,
      "altern": 6808,
      "childhood": 6809,
      "signal": 6810,
      "raw": 6811,
      "threatening": 6812,
      "cancel": 6813,
      "scoop": 6814,
      "mission": 6815,
      "calmly": 6816,
      "punching": 6817,
      "ting": 6818,
      "##pal": 6819,
      "coast": 6820,
      "chrome": 6821,
      "storage": 6822,
      "##sers": 6823,
      "useless": 6824,
      "mcdonalds": 6825,
      "scenar": 6826,
      "uniform": 6827,
      "covers": 6828,
      "discussing": 6829,
      "##hill": 6830,
      "areas": 6831,
      "constant": 6832,
      "software": 6833,
      "afric": 6834,
      "cans": 6835,
      "clut": 6836,
      "streets": 6837,
      "crime": 6838,
      "inappropriate": 6839,
      "##lim": 6840,
      "flame": 6841,
      "wrest": 6842,
      "stumble": 6843,
      "rode": 6844,
      "hysterically": 6845,
      "jizz": 6846,
      "mart": 6847,
      "##oted": 6848,
      "adding": 6849,
      "suicide": 6850,
      "disabled": 6851,
      "##ressed": 6852,
      "moron": 6853,
      "polite": 6854,
      "faint": 6855,
      "gest": 6856,
      "santa": 6857,
      "##ito": 6858,
      "sale": 6859,
      "personally": 6860,
      "rug": 6861,
      "humili": 6862,
      "graduated": 6863,
      "upside": 6864,
      "depos": 6865,
      "resol": 6866,
      "occup": 6867,
      "responds": 6868,
      "racing": 6869,
      "illegal": 6870,
      "dies": 6871,
      "struck": 6872,
      "verb": 6873,
      "activity": 6874,
      "uncontroll": 6875,
      "):": 6876,
      "?'": 6877,
      "##ulation": 6878,
      "roads": 6879,
      "crawling": 6880,
      "individual": 6881,
      "fried": 6882,
      "raining": 6883,
      "exposed": 6884,
      "owned": 6885,
      "burrit": 6886,
      "cuz": 6887,
      "gently": 6888,
      "inse": 6889,
      "butth": 6890,
      "dragged": 6891,
      "amounts": 6892,
      "##vern": 6893,
      "lef": 6894,
      "shuff": 6895,
      "forest": 6896,
      "traveling": 6897,
      "wifi": 6898,
      "##_by": 6899,
      "stone": 6900,
      "baking": 6901,
      "steel": 6902,
      "antic": 6903,
      "graduation": 6904,
      "cereal": 6905,
      "thanked": 6906,
      "30am": 6907,
      "experiment": 6908,
      "dudes": 6909,
      "##amps": 6910,
      "##une": 6911,
      "usern": 6912,
      "env": 6913,
      "flooded": 6914,
      "##inger": 6915,
      "eyed": 6916,
      "popcorn": 6917,
      "internship": 6918,
      "blonde": 6919,
      "##inter": 6920,
      "index": 6921,
      "banana": 6922,
      "romantic": 6923,
      "kidding": 6924,
      "awkwardness": 6925,
      "weekends": 6926,
      "salad": 6927,
      "appropriate": 6928,
      "palm": 6929,
      "motherfucker": 6930,
      "exercise": 6931,
      "##_by_": 6932,
      "las": 6933,
      "saus": 6934,
      "gifts": 6935,
      "giggling": 6936,
      "starbucks": 6937,
      "cage": 6938,
      "omg": 6939,
      "dozen": 6940,
      "handful": 6941,
      "yup": 6942,
      "veget": 6943,
      "forgive": 6944,
      "require": 6945,
      "punishment": 6946,
      "sophomore": 6947,
      "drew": 6948,
      "ship": 6949,
      "fee": 6950,
      "compan": 6951,
      "focused": 6952,
      "scissors": 6953,
      "fift": 6954,
      "##ented": 6955,
      "smear": 6956,
      "##ization": 6957,
      "crowded": 6958,
      "status": 6959,
      "sew": 6960,
      "active": 6961,
      "motorcy": 6962,
      "larger": 6963,
      "3am": 6964,
      "horribly": 6965,
      "explode": 6966,
      "leaning": 6967,
      "champ": 6968,
      "cracking": 6969,
      "simult": 6970,
      "ideas": 6971,
      "sip": 6972,
      "ath": 6973,
      "##ulated": 6974,
      "surrounded": 6975,
      "fract": 6976,
      "anxious": 6977,
      "australia": 6978,
      "oops": 6979,
      "cloud": 6980,
      "##nam": 6981,
      "pretended": 6982,
      "##ussion": 6983,
      "bridge": 6984,
      "gallery": 6985,
      "dip": 6986,
      "dizzy": 6987,
      "slo": 6988,
      "##reg": 6989,
      "settle": 6990,
      "psycho": 6991,
      "99": 6992,
      "fries": 6993,
      "vine": 6994,
      "drama": 6995,
      "lotion": 6996,
      "notices": 6997,
      "destroying": 6998,
      "seed": 6999,
      "unex": 7000,
      "apologies": 7001,
      "threatened": 7002,
      "mich": 7003,
      "##vin": 7004,
      "manner": 7005,
      "##job": 7006,
      "theres": 7007,
      "conclusion": 7008,
      "##tub": 7009,
      "##iforn": 7010,
      "grey": 7011,
      "tifus": 7012,
      "californ": 7013,
      "physics": 7014,
      "january": 7015,
      "##fy": 7016,
      "##arted": 7017,
      "transl": 7018,
      "browse": 7019,
      "services": 7020,
      "assess": 7021,
      "snake": 7022,
      "marks": 7023,
      "##ettes": 7024,
      "sock": 7025,
      "alb": 7026,
      "daddy": 7027,
      "##lessly": 7028,
      "dining": 7029,
      "approaching": 7030,
      "august": 7031,
      "brushing": 7032,
      "treated": 7033,
      "sympt": 7034,
      "surf": 7035,
      "supplies": 7036,
      "##son": 7037,
      "##eria": 7038,
      "##asher": 7039,
      "lighting": 7040,
      "siblings": 7041,
      "leaking": 7042,
      "approx": 7043,
      "tu": 7044,
      "beef": 7045,
      "##ica": 7046,
      "resulting": 7047,
      "ripping": 7048,
      "reverse": 7049,
      "backup": 7050,
      "destination": 7051,
      "delivered": 7052,
      "promise": 7053,
      "counsel": 7054,
      "witness": 7055,
      "unusual": 7056,
      "mary": 7057,
      "plun": 7058,
      "bathrooms": 7059,
      "situations": 7060,
      "colour": 7061,
      "miser": 7062,
      "2am": 7063,
      "muff": 7064,
      "doesnt": 7065,
      "scratching": 7066,
      "privacy": 7067,
      "peanut": 7068,
      "anticip": 7069,
      "fal": 7070,
      "reven": 7071,
      "cha": 7072,
      "lemon": 7073,
      "whoever": 7074,
      "veg": 7075,
      "disbelie": 7076,
      "rubbed": 7077,
      "boots": 7078,
      "adjust": 7079,
      "negative": 7080,
      "plat": 7081,
      "##soci": 7082,
      "urinal": 7083,
      "lefto": 7084,
      "popping": 7085,
      "##onscious": 7086,
      "dated": 7087,
      "##chair": 7088,
      "spew": 7089,
      "arriving": 7090,
      "desktop": 7091,
      "mixture": 7092,
      "username": 7093,
      "former": 7094,
      "hungover": 7095,
      "fifteen": 7096,
      "wing": 7097,
      "##izes": 7098,
      "booze": 7099,
      "statement": 7100,
      "trailer": 7101,
      "eternity": 7102,
      "offering": 7103,
      "simultaneously": 7104,
      "dare": 7105,
      "les": 7106,
      "march": 7107,
      "......": 7108,
      "8th": 7109,
      "guts": 7110,
      "beast": 7111,
      "diagn": 7112,
      "26": 7113,
      "civ": 7114,
      "tires": 7115,
      "##put": 7116,
      "sheer": 7117,
      "quote": 7118,
      "needing": 7119,
      "skate": 7120,
      "sketch": 7121,
      "california": 7122,
      "##usive": 7123,
      "craigs": 7124,
      "struggle": 7125,
      "replacement": 7126,
      "kay": 7127,
      "##rate": 7128,
      "##erry": 7129,
      "whatnot": 7130,
      "scratched": 7131,
      "ipod": 7132,
      "##bies": 7133,
      "upgra": 7134,
      "spra": 7135,
      "compared": 7136,
      "squat": 7137,
      "5th": 7138,
      "tan": 7139,
      "##verted": 7140,
      "meters": 7141,
      "silently": 7142,
      "splash": 7143,
      "colleagues": 7144,
      "pokemon": 7145,
      "safely": 7146,
      "---": 7147,
      "unint": 7148,
      "##agram": 7149,
      "tram": 7150,
      "construction": 7151,
      "eb": 7152,
      "bee": 7153,
      "2015": 7154,
      "impressed": 7155,
      "vague": 7156,
      "deserve": 7157,
      "sneeze": 7158,
      "shell": 7159,
      "cleared": 7160,
      "nest": 7161,
      "rag": 7162,
      "##ndon": 7163,
      "deer": 7164,
      "ages": 7165,
      "mold": 7166,
      "arch": 7167,
      "##uce": 7168,
      "##20": 7169,
      "associ": 7170,
      "##ends": 7171,
      "agony": 7172,
      "user": 7173,
      "unle": 7174,
      "bathtub": 7175,
      "blocking": 7176,
      "favourite": 7177,
      "east": 7178,
      "pace": 7179,
      "zip": 7180,
      "hab": 7181,
      "nost": 7182,
      "festival": 7183,
      "genuinely": 7184,
      "turd": 7185,
      "policy": 7186,
      "craigslist": 7187,
      "um": 7188,
      "##nn": 7189,
      "alar": 7190,
      "##rooms": 7191,
      "waitress": 7192,
      "freeze": 7193,
      "seemingly": 7194,
      "ramp": 7195,
      "anon": 7196,
      "tearing": 7197,
      "hangover": 7198,
      "successfully": 7199,
      "aggressive": 7200,
      "noodles": 7201,
      "cul": 7202,
      "mas": 7203,
      "##itute": 7204,
      "govern": 7205,
      "london": 7206,
      "interse": 7207,
      "feb": 7208,
      "inspect": 7209,
      "warr": 7210,
      "##omed": 7211,
      "##ooo": 7212,
      "prop": 7213,
      "scoot": 7214,
      "flowing": 7215,
      "##ancy": 7216,
      "##tering": 7217,
      "curtain": 7218,
      "concussion": 7219,
      "detect": 7220,
      "appears": 7221,
      "pounding": 7222,
      "provide": 7223,
      "printed": 7224,
      "27": 7225,
      "6th": 7226,
      "rant": 7227,
      "##iding": 7228,
      "disaster": 7229,
      "attending": 7230,
      "cudd": 7231,
      "developed": 7232,
      "inevit": 7233,
      "exten": 7234,
      "##whel": 7235,
      "tested": 7236,
      "shirts": 7237,
      "relationships": 7238,
      "bumper": 7239,
      "disbelief": 7240,
      "##ilies": 7241,
      "handic": 7242,
      "grace": 7243,
      "##izer": 7244,
      "crunch": 7245,
      "pooping": 7246,
      "deserved": 7247,
      "tied": 7248,
      "##pes": 7249,
      "remembering": 7250,
      "described": 7251,
      "guests": 7252,
      "vibrator": 7253,
      "refund": 7254,
      "##off": 7255,
      "##ida": 7256,
      "disclaim": 7257,
      "rapid": 7258,
      "gel": 7259,
      "##iac": 7260,
      "##antage": 7261,
      "dishw": 7262,
      "aisle": 7263,
      "naz": 7264,
      "aged": 7265,
      "newly": 7266,
      "contacted": 7267,
      "relaxing": 7268,
      "harass": 7269,
      "mug": 7270,
      "fab": 7271,
      "nicely": 7272,
      "visited": 7273,
      "printer": 7274,
      "yards": 7275,
      "treatment": 7276,
      "cunt": 7277,
      "weigh": 7278,
      "##rict": 7279,
      "foam": 7280,
      "##shield": 7281,
      "hurried": 7282,
      "shaved": 7283,
      "2014": 7284,
      "limited": 7285,
      "behavior": 7286,
      "butthole": 7287,
      "cursing": 7288,
      "balloon": 7289,
      "calmed": 7290,
      "layer": 7291,
      "snacks": 7292,
      "toothpaste": 7293,
      "mos": 7294,
      "!'": 7295,
      "##ived": 7296,
      "##now": 7297,
      "waves": 7298,
      "crappy": 7299,
      "graduate": 7300,
      "praying": 7301,
      "assigned": 7302,
      "collection": 7303,
      "hmm": 7304,
      "jal": 7305,
      "##vity": 7306,
      "##eto": 7307,
      "##oops": 7308,
      "##road": 7309,
      "whip": 7310,
      "rocket": 7311,
      "##place": 7312,
      "driven": 7313,
      "muscles": 7314,
      "farts": 7315,
      "!!\"": 7316,
      "swallowed": 7317,
      "government": 7318,
      "lens": 7319,
      "stated": 7320,
      "repr": 7321,
      "enth": 7322,
      "assault": 7323,
      "##quil": 7324,
      "furnit": 7325,
      "ugh": 7326,
      "##inal": 7327,
      "chasing": 7328,
      "partially": 7329,
      "##umming": 7330,
      "pressing": 7331,
      "chewing": 7332,
      "##iju": 7333,
      "##vey": 7334,
      "##ulate": 7335,
      "needle": 7336,
      "classic": 7337,
      "trap": 7338,
      "obser": 7339,
      "sleepy": 7340,
      "visible": 7341,
      "genital": 7342,
      "emailed": 7343,
      "downloaded": 7344,
      "##market": 7345,
      "tuck": 7346,
      "scri": 7347,
      "dads": 7348,
      "windshield": 7349,
      "reported": 7350,
      "nine": 7351,
      "farting": 7352,
      "levels": 7353,
      "arguing": 7354,
      "ingred": 7355,
      "lonely": 7356,
      "athlet": 7357,
      "nude": 7358,
      "##ray": 7359,
      "atm": 7360,
      "plates": 7361,
      "overwhel": 7362,
      "ours": 7363,
      "accidently": 7364,
      "instagram": 7365,
      "helpful": 7366,
      "##spect": 7367,
      "kicks": 7368,
      "skinny": 7369,
      "golden": 7370,
      "products": 7371,
      "russian": 7372,
      "role": 7373,
      "curios": 7374,
      "ensued": 7375,
      "symptoms": 7376,
      "furniture": 7377,
      "!?": 7378,
      "coinc": 7379,
      "##bur": 7380,
      "twist": 7381,
      "##bon": 7382,
      "socially": 7383,
      "fores": 7384,
      "clip": 7385,
      "salv": 7386,
      "orgasm": 7387,
      "mush": 7388,
      "##ox": 7389,
      "##iron": 7390,
      "##hhh": 7391,
      "recovery": 7392,
      "merry": 7393,
      "stunned": 7394,
      "##semb": 7395,
      "brit": 7396,
      "cardboard": 7397,
      "native": 7398,
      "devil": 7399,
      "elementary": 7400,
      "disclaimer": 7401,
      "##arks": 7402,
      "nodd": 7403,
      "conserv": 7404,
      "whiskey": 7405,
      "cycle": 7406,
      "thousands": 7407,
      "##outs": 7408,
      "noon": 7409,
      "bites": 7410,
      "bosses": 7411,
      "article": 7412,
      "ankles": 7413,
      "florida": 7414,
      "##eness": 7415,
      "stench": 7416,
      "asap": 7417,
      "tale": 7418,
      "defense": 7419,
      "drying": 7420,
      "trusted": 7421,
      "advance": 7422,
      "documents": 7423,
      "##atures": 7424,
      "decor": 7425,
      "tifu_by_": 7426,
      "##aware": 7427,
      "anni": 7428,
      "pleasure": 7429,
      "lurker": 7430,
      "28": 7431,
      "gap": 7432,
      "baked": 7433,
      "causes": 7434,
      "trousers": 7435,
      "misunder": 7436,
      "relieve": 7437,
      "bullet": 7438,
      "biggie": 7439,
      "narrow": 7440,
      "lord": 7441,
      "##otic": 7442,
      "beans": 7443,
      "offended": 7444,
      "polish": 7445,
      "##tingu": 7446,
      "retail": 7447,
      "exclaim": 7448,
      "blacked": 7449,
      "reflex": 7450,
      "##rup": 7451,
      "served": 7452,
      "silver": 7453,
      "official": 7454,
      "urgent": 7455,
      "octo": 7456,
      "##bles": 7457,
      "##owed": 7458,
      "stere": 7459,
      "chairs": 7460,
      "##loyed": 7461,
      "cheated": 7462,
      "ordinary": 7463,
      "adults": 7464,
      "adventure": 7465,
      "oce": 7466,
      "rust": 7467,
      "yada": 7468,
      "prem": 7469,
      "advantage": 7470,
      "branch": 7471,
      "vic": 7472,
      "transport": 7473,
      "unexp": 7474,
      "gal": 7475,
      "offers": 7476,
      "bond": 7477,
      "follows": 7478,
      "tort": 7479,
      "toes": 7480,
      "shatter": 7481,
      "une": 7482,
      "resist": 7483,
      "wheels": 7484,
      "wheelchair": 7485,
      "##ijuana": 7486,
      "waving": 7487,
      "trips": 7488,
      "education": 7489,
      "motorcycle": 7490,
      "55": 7491,
      "ske": 7492,
      "todd": 7493,
      "##itation": 7494,
      "crit": 7495,
      "entertain": 7496,
      "tits": 7497,
      "fris": 7498,
      "sucking": 7499,
      "mothers": 7500,
      "supply": 7501,
      "spotted": 7502,
      "nurses": 7503,
      "curiosity": 7504,
      "overly": 7505,
      "awa": 7506,
      "flipping": 7507,
      "vomited": 7508,
      "october": 7509,
      "recording": 7510,
      "caff": 7511,
      "bruised": 7512,
      "##lla": 7513,
      "makeup": 7514,
      "##boy": 7515,
      "grounded": 7516,
      "##zzle": 7517,
      "audio": 7518,
      "environ": 7519,
      "\"*": 7520,
      "lamp": 7521,
      "ray": 7522,
      "##30": 7523,
      "##iner": 7524,
      "##oting": 7525,
      "showering": 7526,
      "failure": 7527,
      "bart": 7528,
      "##wor": 7529,
      "##essing": 7530,
      "remained": 7531,
      "moaning": 7532,
      "##cal": 7533,
      "##wood": 7534,
      "spark": 7535,
      "itchy": 7536,
      "clarify": 7537,
      "memories": 7538,
      "ease": 7539,
      "toaster": 7540,
      "##gel": 7541,
      "adm": 7542,
      "##eeee": 7543,
      "choking": 7544,
      "slee": 7545,
      "##agers": 7546,
      "tripping": 7547,
      "stuffed": 7548,
      "cooler": 7549,
      "particip": 7550,
      "incredible": 7551,
      "stabbed": 7552,
      "permanent": 7553,
      "germany": 7554,
      "ocean": 7555,
      "hyp": 7556,
      "mop": 7557,
      "rape": 7558,
      "tut": 7559,
      "tension": 7560,
      "##uated": 7561,
      "##fire": 7562,
      "cocon": 7563,
      "booth": 7564,
      "tracks": 7565,
      "smoothly": 7566,
      "reluct": 7567,
      "controll": 7568,
      "queue": 7569,
      "bay": 7570,
      "tin": 7571,
      "dealer": 7572,
      "turkey": 7573,
      "gallon": 7574,
      "cs": 7575,
      "##py": 7576,
      "##stick": 7577,
      "china": 7578,
      "resid": 7579,
      "painting": 7580,
      "?\",": 7581,
      "pubes": 7582,
      "unknowing": 7583,
      "slice": 7584,
      "##well": 7585,
      "sofa": 7586,
      "alert": 7587,
      "wakes": 7588,
      "classmate": 7589,
      "showered": 7590,
      "pleased": 7591,
      "##!!!!": 7592,
      "poisoning": 7593,
      "unexpected": 7594,
      "enem": 7595,
      "twitter": 7596,
      "cafet": 7597,
      "spoil": 7598,
      "polit": 7599,
      "shall": 7600,
      "##agra": 7601,
      "glory": 7602,
      "##udge": 7603,
      "##uced": 7604,
      "inhal": 7605,
      "##usi": 7606,
      "reasonable": 7607,
      "dishwasher": 7608,
      "frustration": 7609,
      "revenge": 7610,
      "thru": 7611,
      "buck": 7612,
      "sites": 7613,
      "scramb": 7614,
      "shifts": 7615,
      "realising": 7616,
      "##path": 7617,
      "##isions": 7618,
      "stroll": 7619,
      "exe": 7620,
      "fucks": 7621,
      "roast": 7622,
      "bubble": 7623,
      "adop": 7624,
      "unaware": 7625,
      "holds": 7626,
      "detention": 7627,
      "receiving": 7628,
      "engineering": 7629,
      "sarc": 7630,
      "suffering": 7631,
      "ultimately": 7632,
      "cafeteria": 7633,
      "bound": 7634,
      "lies": 7635,
      "blu": 7636,
      "pharm": 7637,
      "arse": 7638,
      "greatest": 7639,
      "gran": 7640,
      "region": 7641,
      "buttons": 7642,
      "briefly": 7643,
      "performance": 7644,
      "ninja": 7645,
      "##xx": 7646,
      "##rol": 7647,
      "collar": 7648,
      "sexually": 7649,
      "unfortunate": 7650,
      "costs": 7651,
      "violently": 7652,
      "cubicle": 7653,
      "##dling": 7654,
      "##cho": 7655,
      "anime": 7656,
      "##ciating": 7657,
      "##asses": 7658,
      "helmet": 7659,
      "families": 7660,
      "intell": 7661,
      "combined": 7662,
      "gam": 7663,
      "soci": 7664,
      "sav": 7665,
      "cos": 7666,
      "owners": 7667,
      "nerve": 7668,
      "techno": 7669,
      "stores": 7670,
      "alex": 7671,
      "rash": 7672,
      "crossing": 7673,
      "june": 7674,
      "birds": 7675,
      "nudes": 7676,
      "guide": 7677,
      "plays": 7678,
      "##ealous": 7679,
      "errors": 7680,
      "environment": 7681,
      "##chie": 7682,
      "happend": 7683,
      "smiles": 7684,
      "flirt": 7685,
      "marijuana": 7686,
      "bing": 7687,
      "der": 7688,
      "nu": 7689,
      "speeding": 7690,
      "indic": 7691,
      "questioning": 7692,
      "##car": 7693,
      "machines": 7694,
      "boarding": 7695,
      "browser": 7696,
      "##going": 7697,
      "##reeze": 7698,
      "syn": 7699,
      "deeper": 7700,
      "##storm": 7701,
      "overd": 7702,
      "##aces": 7703,
      "obs": 7704,
      "excru": 7705,
      "thirsty": 7706,
      "ded": 7707,
      "alley": 7708,
      "rental": 7709,
      "excruciating": 7710,
      "36": 7711,
      "****": 7712,
      "cupboard": 7713,
      "ack": 7714,
      "national": 7715,
      "moist": 7716,
      "longest": 7717,
      "messaging": 7718,
      "indust": 7719,
      "stepping": 7720,
      "logical": 7721,
      "relaxed": 7722,
      "gau": 7723,
      "gang": 7724,
      "jess": 7725,
      "##oe": 7726,
      "hah": 7727,
      "stained": 7728,
      "swift": 7729,
      "checks": 7730,
      "lawyer": 7731,
      "domin": 7732,
      "lesb": 7733,
      "caffe": 7734,
      "##name": 7735,
      "##ounded": 7736,
      "excess": 7737,
      "hyper": 7738,
      "##oons": 7739,
      "##mp": 7740,
      "stead": 7741,
      "texas": 7742,
      "scenario": 7743,
      "resort": 7744,
      "requires": 7745,
      "bushes": 7746,
      "pipes": 7747,
      "worries": 7748,
      "agent": 7749,
      "canad": 7750,
      "factory": 7751,
      "roller": 7752,
      "teenagers": 7753,
      "cigarettes": 7754,
      "hoodie": 7755,
      "procedure": 7756,
      "mere": 7757,
      "panc": 7758,
      "sooner": 7759,
      "embar": 7760,
      "exception": 7761,
      "##rily": 7762,
      "heck": 7763,
      "##ifu": 7764,
      "persp": 7765,
      "intersection": 7766,
      "icy": 7767,
      "##sey": 7768,
      "reass": 7769,
      "comed": 7770,
      "##soft": 7771,
      "dumpster": 7772,
      "cd": 7773,
      "##ishly": 7774,
      "png": 7775,
      "theat": 7776,
      "downhill": 7777,
      "asses": 7778,
      "floating": 7779,
      "distur": 7780,
      "voicemail": 7781,
      "???": 7782,
      "##inst": 7783,
      "pasta": 7784,
      "lessons": 7785,
      "lump": 7786,
      "vill": 7787,
      "leader": 7788,
      "swearing": 7789,
      "toler": 7790,
      "##ading": 7791,
      "mistaken": 7792,
      "recognized": 7793,
      "satisfied": 7794,
      "enthusi": 7795,
      "wid": 7796,
      "wondered": 7797,
      "charging": 7798,
      "centre": 7799,
      "dim": 7800,
      "joked": 7801,
      "explosion": 7802,
      "tampon": 7803,
      "##bling": 7804,
      "fap": 7805,
      "unknowingly": 7806,
      "kar": 7807,
      "rect": 7808,
      "anytime": 7809,
      "overhe": 7810,
      "setup": 7811,
      "epic": 7812,
      "##ipedia": 7813,
      "unintention": 7814,
      "##asp": 7815,
      "##esy": 7816,
      "##oph": 7817,
      "cramp": 7818,
      "engaged": 7819,
      "wikipedia": 7820,
      "violent": 7821,
      "gathering": 7822,
      "nause": 7823,
      "vig": 7824,
      "tack": 7825,
      "nerves": 7826,
      "cameras": 7827,
      "exhaust": 7828,
      "##rom": 7829,
      "##fall": 7830,
      "##ado": 7831,
      "##eping": 7832,
      "##iction": 7833,
      "supermarket": 7834,
      "cancelled": 7835,
      "tissues": 7836,
      "##km": 7837,
      "roy": 7838,
      "##istration": 7839,
      "drift": 7840,
      "dism": 7841,
      "##versary": 7842,
      "##otions": 7843,
      "##arts": 7844,
      "complaint": 7845,
      "wipes": 7846,
      "jerking": 7847,
      "fishing": 7848,
      "##rent": 7849,
      "evac": 7850,
      "relatives": 7851,
      "consist": 7852,
      "presents": 7853,
      "avoiding": 7854,
      "dawned": 7855,
      "channel": 7856,
      "7th": 7857,
      "...)": 7858,
      "babys": 7859,
      "mildly": 7860,
      "mph": 7861,
      "negle": 7862,
      "worn": 7863,
      "empt": 7864,
      "internal": 7865,
      "disappeared": 7866,
      "lifting": 7867,
      "alarms": 7868,
      "##cuff": 7869,
      "nove": 7870,
      "facial": 7871,
      "costume": 7872,
      "glove": 7873,
      "masturbate": 7874,
      "shadow": 7875,
      "hence": 7876,
      "##idal": 7877,
      "plain": 7878,
      "##ifying": 7879,
      "brick": 7880,
      "tomato": 7881,
      "heaven": 7882,
      "financial": 7883,
      "coconut": 7884,
      "cere": 7885,
      "eh": 7886,
      "##isher": 7887,
      "stir": 7888,
      "extingu": 7889,
      "poking": 7890,
      "##ables": 7891,
      "##reek": 7892,
      "##point": 7893,
      "entry": 7894,
      "flashlight": 7895,
      "foul": 7896,
      "burrito": 7897,
      "bones": 7898,
      "fans": 7899,
      "prison": 7900,
      "trade": 7901,
      "figuring": 7902,
      "damned": 7903,
      "clients": 7904,
      "skipped": 7905,
      "instinctively": 7906,
      "console": 7907,
      "conservative": 7908,
      "neat": 7909,
      "handcuff": 7910,
      "antib": 7911,
      "mentions": 7912,
      "prescription": 7913,
      "september": 7914,
      "dab": 7915,
      "munch": 7916,
      "num": 7917,
      "##zard": 7918,
      "reh": 7919,
      "hitler": 7920,
      "!!!!": 7921,
      "stroke": 7922,
      "600": 7923,
      "lan": 7924,
      "##ula": 7925,
      "dise": 7926,
      "##olic": 7927,
      "skipping": 7928,
      "##weight": 7929,
      "scrubbing": 7930,
      "tourn": 7931,
      "2000": 7932,
      "grate": 7933,
      "haircut": 7934,
      "accounts": 7935,
      "worthy": 7936,
      "neighbours": 7937,
      "rescue": 7938,
      "wisdom": 7939,
      "stating": 7940,
      "begging": 7941,
      "twisted": 7942,
      "dicks": 7943,
      "suspect": 7944,
      "warrant": 7945,
      "wig": 7946,
      "outta": 7947,
      "apparent": 7948,
      "successful": 7949,
      "retrieve": 7950,
      "shred": 7951,
      "sorta": 7952,
      "loads": 7953,
      "announce": 7954,
      "fid": 7955,
      "outdo": 7956,
      "##rection": 7957,
      "handing": 7958,
      "remains": 7959,
      "passion": 7960,
      "loun": 7961,
      "zi": 7962,
      "##gen": 7963,
      "##orrect": 7964,
      "##standing": 7965,
      "sausage": 7966,
      "bom": 7967,
      "reads": 7968,
      "overfl": 7969,
      "author": 7970,
      "dive": 7971,
      "##mes": 7972,
      "congr": 7973,
      "smir": 7974,
      "olds": 7975,
      "30pm": 7976,
      "engage": 7977,
      "farted": 7978,
      "poorly": 7979,
      "bbq": 7980,
      "method": 7981,
      "acknow": 7982,
      "vice": 7983,
      "##gles": 7984,
      "unbe": 7985,
      "messy": 7986,
      "tastes": 7987,
      "!!!\"": 7988,
      "declined": 7989,
      "november": 7990,
      "##uc": 7991,
      "##nis": 7992,
      "##itting": 7993,
      "shaped": 7994,
      "##ctions": 7995,
      "agrees": 7996,
      "moon": 7997,
      "##atched": 7998,
      "anniversary": 7999,
      "##ades": 8000,
      "catches": 8001,
      "corpor": 8002,
      "claimed": 8003,
      "ecst": 8004,
      "backing": 8005,
      "suv": 8006,
      "drone": 8007,
      "##ability": 8008,
      "flick": 8009,
      "##holes": 8010,
      "occasional": 8011,
      "attracted": 8012,
      "inspection": 8013,
      "nipple": 8014,
      "circumst": 8015,
      "caffeine": 8016,
      "gods": 8017,
      "4am": 8018,
      "##ov": 8019,
      "flashing": 8020,
      "menu": 8021,
      "pumped": 8022,
      "foreskin": 8023,
      "##kins": 8024,
      "accused": 8025,
      "screenshot": 8026,
      "bikes": 8027,
      "es": 8028,
      "raging": 8029,
      "wars": 8030,
      "##pro": 8031,
      "##otes": 8032,
      "chunks": 8033,
      "##ubby": 8034,
      "depth": 8035,
      "recommended": 8036,
      "dign": 8037,
      "sobbing": 8038,
      "leather": 8039,
      "decisions": 8040,
      "##sol": 8041,
      "assured": 8042,
      "250": 8043,
      "stung": 8044,
      "offensive": 8045,
      "complain": 8046,
      "format": 8047,
      "regarding": 8048,
      "accompl": 8049,
      "wreck": 8050,
      "anonym": 8051,
      "jealous": 8052,
      "##cell": 8053,
      "dismiss": 8054,
      "ensues": 8055,
      "measure": 8056,
      "nah": 8057,
      "##erous": 8058,
      "clever": 8059,
      "snot": 8060,
      "completed": 8061,
      "involves": 8062,
      "false": 8063,
      "stars": 8064,
      "procr": 8065,
      "rod": 8066,
      "claw": 8067,
      "stays": 8068,
      "purs": 8069,
      "##craft": 8070,
      "faucet": 8071,
      "nazi": 8072,
      "?).": 8073,
      "##hr": 8074,
      "##bled": 8075,
      "unload": 8076,
      "types": 8077,
      "value": 8078,
      "##eted": 8079,
      "intoxic": 8080,
      "##berry": 8081,
      "include": 8082,
      "jeff": 8083,
      "##50": 8084,
      "bees": 8085,
      "recru": 8086,
      "googled": 8087,
      "flights": 8088,
      "confronted": 8089,
      "##graphy": 8090,
      "uncontrollably": 8091,
      "mosqu": 8092,
      "canadian": 8093,
      "kat": 8094,
      "##ioned": 8095,
      "sliced": 8096,
      "rides": 8097,
      "projects": 8098,
      "od": 8099,
      "##uted": 8100,
      "incon": 8101,
      "sounding": 8102,
      "pale": 8103,
      "winning": 8104,
      "##known": 8105,
      "hooking": 8106,
      "sprinted": 8107,
      "deposit": 8108,
      "nostri": 8109,
      "procrast": 8110,
      "oli": 8111,
      "##aus": 8112,
      "depart": 8113,
      "perspective": 8114,
      "ken": 8115,
      "pran": 8116,
      "ramen": 8117,
      "ain": 8118,
      "dang": 8119,
      "pul": 8120,
      "knuck": 8121,
      "leash": 8122,
      "scale": 8123,
      "serve": 8124,
      "eachother": 8125,
      "provided": 8126,
      "estab": 8127,
      "hike": 8128,
      "##fits": 8129,
      "ink": 8130,
      "wasting": 8131,
      "##geon": 8132,
      "firewor": 8133,
      "blunt": 8134,
      "emotions": 8135,
      "warned": 8136,
      "harmless": 8137,
      "thighs": 8138,
      "plunger": 8139,
      "fireworks": 8140,
      "shif": 8141,
      "puff": 8142,
      "pickup": 8143,
      "panel": 8144,
      "gagging": 8145,
      "hammer": 8146,
      "jet": 8147,
      "##inating": 8148,
      "##ckey": 8149,
      "babies": 8150,
      "faith": 8151,
      "##ago": 8152,
      "arrest": 8153,
      "vinegar": 8154,
      "ward": 8155,
      "##gun": 8156,
      "##ties": 8157,
      "inad": 8158,
      "hardest": 8159,
      "guessing": 8160,
      "chris": 8161,
      "pooped": 8162,
      "bruise": 8163,
      "chuckle": 8164,
      "surrounding": 8165,
      "unbeknown": 8166,
      "zomb": 8167,
      "##ener": 8168,
      "exciting": 8169,
      "choices": 8170,
      "refill": 8171,
      "suspension": 8172,
      "bald": 8173,
      "feeding": 8174,
      "begun": 8175,
      "##azed": 8176,
      "stressful": 8177,
      "phrase": 8178,
      "counselor": 8179,
      "shipping": 8180,
      "##igning": 8181,
      "slamming": 8182,
      "rick": 8183,
      "grave": 8184,
      "interact": 8185,
      "devast": 8186,
      "religion": 8187,
      "emotionally": 8188,
      "script": 8189,
      "##bra": 8190,
      "resting": 8191,
      "lightly": 8192,
      "terrifying": 8193,
      "stronger": 8194,
      "abandoned": 8195,
      "inadvert": 8196,
      "lugg": 8197,
      "rou": 8198,
      "##nessed": 8199,
      "##burn": 8200,
      "##str": 8201,
      "brace": 8202,
      "powerful": 8203,
      "sympath": 8204,
      "dm": 8205,
      "thri": 8206,
      "compliment": 8207,
      "england": 8208,
      "blowjob": 8209,
      "squeezed": 8210,
      "companies": 8211,
      "ber": 8212,
      "##dled": 8213,
      "sheep": 8214,
      "disney": 8215,
      "terribly": 8216,
      "furiously": 8217,
      "crawled": 8218,
      "lesbian": 8219,
      "-\"": 8220,
      "dram": 8221,
      "slides": 8222,
      "unsure": 8223,
      "intellig": 8224,
      "dignity": 8225,
      "fount": 8226,
      "##zzy": 8227,
      "wasp": 8228,
      "##raged": 8229,
      "advert": 8230,
      "sidebar": 8231,
      "paste": 8232,
      "semen": 8233,
      "denied": 8234,
      "ingredients": 8235,
      "##vering": 8236,
      "biting": 8237,
      "hairs": 8238,
      "ebay": 8239,
      "antibiot": 8240,
      "nav": 8241,
      "west": 8242,
      "expired": 8243,
      "erra": 8244,
      "settings": 8245,
      "submitted": 8246,
      "##mph": 8247,
      "##kill": 8248,
      "liking": 8249,
      "scot": 8250,
      "grease": 8251,
      "prec": 8252,
      "basis": 8253,
      "strap": 8254,
      "convincing": 8255,
      "flooding": 8256,
      "witnessed": 8257,
      "controller": 8258,
      "##omy": 8259,
      "startled": 8260,
      "plants": 8261,
      "serving": 8262,
      "..\"": 8263,
      "curt": 8264,
      "approximately": 8265,
      "abuse": 8266,
      "manual": 8267,
      "contained": 8268,
      "packet": 8269,
      "##aha": 8270,
      "ft": 8271,
      "gab": 8272,
      "sank": 8273,
      "##lock": 8274,
      "cann": 8275,
      "swelling": 8276,
      "mixing": 8277,
      "suffer": 8278,
      "pave": 8279,
      "##icit": 8280,
      "smashing": 8281,
      "arrow": 8282,
      "sideways": 8283,
      "recipe": 8284,
      "launch": 8285,
      "workplace": 8286,
      "motiv": 8287,
      "logic": 8288,
      "swinging": 8289,
      "squirrel": 8290,
      "receptionist": 8291,
      "occupied": 8292,
      "toddler": 8293,
      "rim": 8294,
      "ss": 8295,
      "##uries": 8296,
      "bully": 8297,
      "intest": 8298,
      "closes": 8299,
      "escaped": 8300,
      "cables": 8301,
      "rounds": 8302,
      "jenny": 8303,
      "youth": 8304,
      "##iate": 8305,
      "##pers": 8306,
      "##erk": 8307,
      "##ota": 8308,
      "assholes": 8309,
      "impat": 8310,
      "killer": 8311,
      "medium": 8312,
      "responsibility": 8313,
      "luggage": 8314,
      "##fs": 8315,
      "feature": 8316,
      "##pless": 8317,
      "reserv": 8318,
      "knob": 8319,
      "limp": 8320,
      "valentine": 8321,
      "miserable": 8322,
      "##xual": 8323,
      "timing": 8324,
      "whatso": 8325,
      "insan": 8326,
      "mentioning": 8327,
      "lands": 8328,
      "introduce": 8329,
      "committed": 8330,
      "stinging": 8331,
      "traumat": 8332,
      "whatsoever": 8333,
      "achie": 8334,
      "gain": 8335,
      "kore": 8336,
      "##lr": 8337,
      "##inking": 8338,
      "shown": 8339,
      "##hern": 8340,
      "prote": 8341,
      "loading": 8342,
      "caut": 8343,
      "melting": 8344,
      "yad": 8345,
      "##iors": 8346,
      "refuse": 8347,
      "##essions": 8348,
      "redditors": 8349,
      "porno": 8350,
      "dresser": 8351,
      "mechanic": 8352,
      "freed": 8353,
      "##lection": 8354,
      "##ooked": 8355,
      "##ainted": 8356,
      "root": 8357,
      "contest": 8358,
      "steep": 8359,
      "attacked": 8360,
      "drunkenly": 8361,
      "communication": 8362,
      "mandatory": 8363,
      "burner": 8364,
      "clicking": 8365,
      "secure": 8366,
      "matches": 8367,
      "investigate": 8368,
      "##eem": 8369,
      "heating": 8370,
      "scaring": 8371,
      "boyfriends": 8372,
      "international": 8373,
      "responding": 8374,
      "separated": 8375,
      "fabric": 8376,
      "##etooth": 8377,
      "bluetooth": 8378,
      "unbeknownst": 8379,
      "dav": 8380,
      "homet": 8381,
      "##la": 8382,
      "stut": 8383,
      "##oped": 8384,
      "fac": 8385,
      "goodness": 8386,
      "drawn": 8387,
      "continuing": 8388,
      "muslim": 8389,
      "establish": 8390,
      "sed": 8391,
      "wires": 8392,
      "##orable": 8393,
      "soak": 8394,
      "liter": 8395,
      "hockey": 8396,
      "eyel": 8397,
      "president": 8398,
      "disconn": 8399,
      "screws": 8400,
      "punct": 8401,
      "repres": 8402,
      "beam": 8403,
      "dug": 8404,
      "tp": 8405,
      "##ba": 8406,
      "##fish": 8407,
      "assemb": 8408,
      "##reh": 8409,
      "dean": 8410,
      "description": 8411,
      "absent": 8412,
      "##etti": 8413,
      "hammered": 8414,
      "contemplating": 8415,
      "therapy": 8416,
      "platform": 8417,
      "inadvertently": 8418,
      "hometown": 8419,
      "ketch": 8420,
      "shrie": 8421,
      "solo": 8422,
      "asp": 8423,
      "chased": 8424,
      "spice": 8425,
      "paramed": 8426,
      "dealers": 8427,
      "##velope": 8428,
      "diam": 8429,
      "candles": 8430,
      "pumping": 8431,
      "ensure": 8432,
      "competition": 8433,
      "significant": 8434,
      "pavement": 8435,
      "tile": 8436,
      "##uous": 8437,
      "##fting": 8438,
      "ital": 8439,
      "tequil": 8440,
      "fer": 8441,
      "##math": 8442,
      "##pu": 8443,
      "stains": 8444,
      "beforehand": 8445,
      "crushing": 8446,
      "obliged": 8447,
      "suffered": 8448,
      "virus": 8449,
      "debt": 8450,
      "##posing": 8451,
      "hairy": 8452,
      "sunny": 8453,
      "2013": 8454,
      "exchanged": 8455,
      "temporary": 8456,
      "cotton": 8457,
      "catholic": 8458,
      "##olar": 8459,
      "famous": 8460,
      "radi": 8461,
      "shrugged": 8462,
      "ding": 8463,
      "spell": 8464,
      "aftermath": 8465,
      "##shirt": 8466,
      "questioned": 8467,
      "requested": 8468,
      "irritated": 8469,
      "embarass": 8470,
      "ketchup": 8471,
      "oo": 8472,
      "##rum": 8473,
      "##enced": 8474,
      "haul": 8475,
      "liber": 8476,
      "spect": 8477,
      "showers": 8478,
      "reser": 8479,
      "darkness": 8480,
      "suggests": 8481,
      "increasing": 8482,
      "album": 8483,
      "technology": 8484,
      "##install": 8485,
      "32": 8486,
      "gash": 8487,
      "thunder": 8488,
      "cares": 8489,
      "flail": 8490,
      "allowing": 8491,
      "alcoholic": 8492,
      "civil": 8493,
      "exited": 8494,
      "amused": 8495,
      "clench": 8496,
      "reput": 8497,
      "checkout": 8498,
      "shaft": 8499,
      "##uits": 8500,
      "hobb": 8501,
      "permission": 8502,
      "tennis": 8503,
      "experiences": 8504,
      "!*": 8505,
      "gps": 8506,
      "mig": 8507,
      "##com": 8508,
      "tread": 8509,
      "possibility": 8510,
      "ps4": 8511,
      "!).": 8512,
      "dose": 8513,
      "envelope": 8514,
      "flushing": 8515,
      "skirt": 8516,
      "discom": 8517,
      "suns": 8518,
      "\")": 8519,
      "niece": 8520,
      "oxy": 8521,
      "pond": 8522,
      "phil": 8523,
      "redd": 8524,
      "presum": 8525,
      "presence": 8526,
      "tb": 8527,
      "theme": 8528,
      "paragra": 8529,
      "spitting": 8530,
      "congrat": 8531,
      "##the": 8532,
      "fever": 8533,
      "divorce": 8534,
      "rapidly": 8535,
      "jake": 8536,
      "lined": 8537,
      "##test": 8538,
      "lod": 8539,
      "clearing": 8540,
      "accur": 8541,
      "hardware": 8542,
      "barking": 8543,
      "##appy": 8544,
      "stalls": 8545,
      "dressing": 8546,
      "electronics": 8547,
      "ceremon": 8548,
      "diss": 8549,
      "cheat": 8550,
      "players": 8551,
      "apologise": 8552,
      "escort": 8553,
      "commented": 8554,
      "rejected": 8555,
      "collapsed": 8556,
      "bc": 8557,
      "ling": 8558,
      "attitude": 8559,
      "commer": 8560,
      "brownies": 8561,
      "##iser": 8562,
      "projectile": 8563,
      "##posal": 8564,
      "recorded": 8565,
      "tequila": 8566,
      "york": 8567,
      "##wild": 8568,
      "cared": 8569,
      "fond": 8570,
      "finishes": 8571,
      "retro": 8572,
      "towed": 8573,
      "sealed": 8574,
      "spirit": 8575,
      "primary": 8576,
      "##sters": 8577,
      "##roach": 8578,
      "##ilot": 8579,
      "nod": 8580,
      "visa": 8581,
      "disappointment": 8582,
      "debate": 8583,
      "scrolling": 8584,
      "theatre": 8585,
      "numerous": 8586,
      "vul": 8587,
      "##logist": 8588,
      "arrival": 8589,
      "personality": 8590,
      "##________________": 8591,
      "intentions": 8592,
      "emptied": 8593,
      ".,": 8594,
      "1am": 8595,
      "ted": 8596,
      "stern": 8597,
      "anyhow": 8598,
      "drum": 8599,
      "drenched": 8600,
      "trained": 8601,
      "returns": 8602,
      "shakes": 8603,
      "##balls": 8604,
      "audience": 8605,
      "fetish": 8606,
      "ax": 8607,
      "kink": 8608,
      "notification": 8609,
      "boil": 8610,
      "doorway": 8611,
      "monkey": 8612,
      "angrily": 8613,
      "arrange": 8614,
      "trigger": 8615,
      "protein": 8616,
      "shore": 8617,
      "headlights": 8618,
      "crimin": 8619,
      "fiancee": 8620,
      "improve": 8621,
      "weapon": 8622,
      "paragraph": 8623,
      "##erted": 8624,
      "quiz": 8625,
      "attended": 8626,
      "funn": 8627,
      "severely": 8628,
      "stabbing": 8629,
      "fountain": 8630,
      "##ston": 8631,
      "tipsy": 8632,
      "discomfort": 8633,
      "hunt": 8634,
      "lick": 8635,
      "needles": 8636,
      "deeply": 8637,
      "slips": 8638,
      "noneth": 8639,
      "injuries": 8640,
      "blasting": 8641,
      "aka": 8642,
      "gates": 8643,
      "##cling": 8644,
      "blamed": 8645,
      "##athread": 8646,
      "destroy": 8647,
      "bolted": 8648,
      "judgement": 8649,
      "additional": 8650,
      "patter": 8651,
      "##made": 8652,
      "toxic": 8653,
      "spam": 8654,
      "stubb": 8655,
      "gravity": 8656,
      "midter": 8657,
      "marry": 8658,
      "chatted": 8659,
      "daught": 8660,
      "shelter": 8661,
      "unbear": 8662,
      "terminal": 8663,
      "megathread": 8664,
      "nonetheless": 8665,
      "cit": 8666,
      "dar": 8667,
      "erection": 8668,
      "##rome": 8669,
      "##ories": 8670,
      "bean": 8671,
      "abroad": 8672,
      "unsc": 8673,
      "disch": 8674,
      "skull": 8675,
      "redditor": 8676,
      "officially": 8677,
      "scooter": 8678,
      "##_a": 8679,
      "spat": 8680,
      "amp": 8681,
      "scold": 8682,
      "precious": 8683,
      "squad": 8684,
      "labor": 8685,
      "bursts": 8686,
      "magaz": 8687,
      "##mer": 8688,
      "haw": 8689,
      "swung": 8690,
      "universe": 8691,
      "blankets": 8692,
      "yoga": 8693,
      "leftover": 8694,
      "david": 8695,
      "pim": 8696,
      "chap": 8697,
      "kindly": 8698,
      "deleting": 8699,
      "naive": 8700,
      "sketchy": 8701,
      "bs": 8702,
      "##lbs": 8703,
      "glanced": 8704,
      "foods": 8705,
      "buried": 8706,
      "steering": 8707,
      "brownie": 8708,
      "eth": 8709,
      "iv": 8710,
      "licking": 8711,
      "deod": 8712,
      "scor": 8713,
      "twe": 8714,
      "meetings": 8715,
      "potty": 8716,
      "valve": 8717,
      "equival": 8718,
      "ridiculously": 8719,
      "bartender": 8720,
      "lounge": 8721,
      "daughters": 8722,
      "##dri": 8723,
      "##cd": 8724,
      "##mill": 8725,
      "whist": 8726,
      "cherry": 8727,
      "cracks": 8728,
      "prick": 8729,
      "slipp": 8730,
      "ceo": 8731,
      "employer": 8732,
      "volunteer": 8733,
      "pra": 8734,
      "wise": 8735,
      "horrif": 8736,
      "mexico": 8737,
      "pharmacy": 8738,
      "5am": 8739,
      "?*": 8740,
      "bass": 8741,
      "##hop": 8742,
      "##ora": 8743,
      "buildings": 8744,
      "synd": 8745,
      "updated": 8746,
      "slipping": 8747,
      "announced": 8748,
      "##pass": 8749,
      "shiny": 8750,
      "sole": 8751,
      "meth": 8752,
      "studio": 8753,
      "nerd": 8754,
      "hostel": 8755,
      "sample": 8756,
      "mosquito": 8757,
      "tumb": 8758,
      "ware": 8759,
      "##lets": 8760,
      "##zes": 8761,
      "inject": 8762,
      "commotion": 8763,
      "flavor": 8764,
      "italian": 8765,
      "equivalent": 8766,
      "bicy": 8767,
      "dv": 8768,
      "haunt": 8769,
      "forcing": 8770,
      "debit": 8771,
      "##adem": 8772,
      "disloc": 8773,
      "playground": 8774,
      "snuck": 8775,
      "bandage": 8776,
      "thrust": 8777,
      "immature": 8778,
      "dragon": 8779,
      "unintentionally": 8780,
      "dough": 8781,
      "fright": 8782,
      "sung": 8783,
      "tro": 8784,
      "woo": 8785,
      "waved": 8786,
      "obsc": 8787,
      "confusing": 8788,
      "paypal": 8789,
      "muster": 8790,
      "intim": 8791,
      "district": 8792,
      "african": 8793,
      "tournament": 8794,
      "##cid": 8795,
      "forms": 8796,
      "chic": 8797,
      "##epl": 8798,
      "handy": 8799,
      "subsc": 8800,
      "drained": 8801,
      "120": 8802,
      "entert": 8803,
      "central": 8804,
      "blades": 8805,
      "dye": 8806,
      "korean": 8807,
      "stubborn": 8808,
      "lung": 8809,
      "##vable": 8810,
      "##ales": 8811,
      "desert": 8812,
      "burgers": 8813,
      "patio": 8814,
      "replacing": 8815,
      "umm": 8816,
      "sty": 8817,
      "outlet": 8818,
      "argue": 8819,
      "dammit": 8820,
      "flips": 8821,
      "transferred": 8822,
      "nauseous": 8823,
      "hast": 8824,
      "depri": 8825,
      "excell": 8826,
      "suc": 8827,
      "sinks": 8828,
      "##screen": 8829,
      "paj": 8830,
      "prepar": 8831,
      "healed": 8832,
      "recovering": 8833,
      "scarred": 8834,
      "innoc": 8835,
      "rotten": 8836,
      "characters": 8837,
      "vegas": 8838,
      "disease": 8839,
      "##rets": 8840,
      "##orter": 8841,
      "ree": 8842,
      "chlor": 8843,
      "rose": 8844,
      "roach": 8845,
      "footage": 8846,
      "imagined": 8847,
      "jelly": 8848,
      "baw": 8849,
      "caring": 8850,
      "minds": 8851,
      "easter": 8852,
      "defend": 8853,
      "knocks": 8854,
      "cafe": 8855,
      "solve": 8856,
      "operation": 8857,
      "jewish": 8858,
      "nodded": 8859,
      "bid": 8860,
      "owe": 8861,
      "##core": 8862,
      "##nding": 8863,
      "##ddy": 8864,
      "periods": 8865,
      "divorced": 8866,
      "bubbles": 8867,
      "commercial": 8868,
      "!?\"": 8869,
      "pork": 8870,
      "yr": 8871,
      "##lines": 8872,
      "##inate": 8873,
      "lil": 8874,
      "##logical": 8875,
      "infected": 8876,
      "sweater": 8877,
      "reaches": 8878,
      "creative": 8879,
      "##ammer": 8880,
      "frequent": 8881,
      "dispens": 8882,
      "py": 8883,
      "rit": 8884,
      "amy": 8885,
      "everytime": 8886,
      "slim": 8887,
      "sprink": 8888,
      "believing": 8889,
      "goof": 8890,
      "wished": 8891,
      "slippery": 8892,
      "sout": 8893,
      "withd": 8894,
      "seiz": 8895,
      "##ician": 8896,
      "##mentioned": 8897,
      "academ": 8898,
      "flower": 8899,
      "hears": 8900,
      "protection": 8901,
      "chaos": 8902,
      "hire": 8903,
      "##lend": 8904,
      "##ooks": 8905,
      "##artment": 8906,
      "##anda": 8907,
      "formal": 8908,
      "11pm": 8909,
      "utterly": 8910,
      "##hyd": 8911,
      "circumstances": 8912,
      "yadda": 8913,
      "reputation": 8914,
      "syndrome": 8915,
      "gee": 8916,
      "horm": 8917,
      "lub": 8918,
      "lbs": 8919,
      "##ob": 8920,
      "##sen": 8921,
      "##sis": 8922,
      "seated": 8923,
      "rew": 8924,
      "beds": 8925,
      "apartments": 8926,
      "masturbation": 8927,
      "##ears": 8928,
      "sword": 8929,
      "##post": 8930,
      "slowed": 8931,
      "insulting": 8932,
      "production": 8933,
      "chewed": 8934,
      "substance": 8935,
      "minimum": 8936,
      "grinding": 8937,
      "handicapped": 8938,
      "tang": 8939,
      "##ki": 8940,
      "##edge": 8941,
      "##riger": 8942,
      "neut": 8943,
      "realizes": 8944,
      "curse": 8945,
      "infin": 8946,
      "giggles": 8947,
      "kitty": 8948,
      "corporate": 8949,
      "intoxicated": 8950,
      "cush": 8951,
      "maps": 8952,
      "timer": 8953,
      "minded": 8954,
      "planet": 8955,
      "nether": 8956,
      "defeated": 8957,
      "miracle": 8958,
      "29": 8959,
      "upcoming": 8960,
      "##amas": 8961,
      "youngest": 8962,
      "oddly": 8963,
      "effectively": 8964,
      "reacted": 8965,
      "beneath": 8966,
      "curtains": 8967,
      "fumb": 8968,
      "bled": 8969,
      "kevin": 8970,
      "painted": 8971,
      "!\",": 8972,
      "cellphone": 8973,
      "encounter": 8974,
      "village": 8975,
      "excellent": 8976,
      "cus": 8977,
      "duct": 8978,
      "stool": 8979,
      "##ulating": 8980,
      "chef": 8981,
      "disk": 8982,
      "shovel": 8983,
      "nervously": 8984,
      "revealed": 8985,
      "unbearable": 8986,
      "##gb": 8987,
      "heater": 8988,
      "loan": 8989,
      "10pm": 8990,
      "refriger": 8991,
      "wrapping": 8992,
      "cockroach": 8993,
      "bounce": 8994,
      "pedal": 8995,
      "jug": 8996,
      "resem": 8997,
      "complained": 8998,
      "bros": 8999,
      "spreading": 9000,
      "navig": 9001,
      "ceremony": 9002,
      "deodorant": 9003,
      "##urt": 9004,
      "frag": 9005,
      "choke": 9006,
      "pod": 9007,
      "disresp": 9008,
      "adorable": 9009,
      "affect": 9010,
      "electrical": 9011,
      "consumed": 9012,
      "freedom": 9013,
      "itching": 9014,
      "##alo": 9015,
      "doorbell": 9016,
      "contrib": 9017,
      "watering": 9018,
      "##ruary": 9019,
      "shoots": 9020,
      "absor": 9021,
      "dealt": 9022,
      "permanently": 9023,
      "fought": 9024,
      "february": 9025,
      "rational": 9026,
      "##ux": 9027,
      "delight": 9028,
      "slapping": 9029,
      "yours": 9030,
      "recy": 9031,
      "collected": 9032,
      "##azz": 9033,
      "syrup": 9034,
      "tower": 9035,
      "garlic": 9036,
      "dreaming": 9037,
      "booty": 9038,
      "wounds": 9039,
      "bumped": 9040,
      "zipper": 9041,
      "errands": 9042,
      "800": 9043,
      "myst": 9044,
      "heels": 9045,
      "fifth": 9046,
      "eq": 9047,
      "vp": 9048,
      "##80": 9049,
      "afore": 9050,
      "twin": 9051,
      "sprinting": 9052,
      "bowling": 9053,
      "installing": 9054,
      "diagnosed": 9055,
      "southern": 9056,
      "unl": 9057,
      "monit": 9058,
      "##pleas": 9059,
      "airpl": 9060,
      "thankful": 9061,
      "allows": 9062,
      "temp": 9063,
      "reluctantly": 9064,
      "##bid": 9065,
      "reli": 9066,
      "map": 9067,
      "subsequ": 9068,
      "conduct": 9069,
      "techni": 9070,
      "sarcastic": 9071,
      "represent": 9072,
      "bik": 9073,
      "dil": 9074,
      "erect": 9075,
      "vape": 9076,
      "##itis": 9077,
      "decade": 9078,
      "compreh": 9079,
      "minding": 9080,
      "infront": 9081,
      "squirt": 9082,
      "digress": 9083,
      "mrs": 9084,
      "porcel": 9085,
      "pattern": 9086,
      "cine": 9087,
      "rig": 9088,
      "wank": 9089,
      "##of": 9090,
      "literal": 9091,
      "involving": 9092,
      "spagh": 9093,
      "execut": 9094,
      "yel": 9095,
      "whore": 9096,
      "freaks": 9097,
      "##umes": 9098,
      "weekly": 9099,
      "shaken": 9100,
      "frantic": 9101,
      "porcelain": 9102,
      "haste": 9103,
      "pity": 9104,
      "##lasses": 9105,
      "jeep": 9106,
      "rented": 9107,
      "gesture": 9108,
      "genitals": 9109,
      "loop": 9110,
      "broad": 9111,
      "supposedly": 9112,
      "struggled": 9113,
      "robbed": 9114,
      "maintain": 9115,
      "discussed": 9116,
      "hunting": 9117,
      "gul": 9118,
      "##arian": 9119,
      "##roid": 9120,
      "agency": 9121,
      "indo": 9122,
      "stripper": 9123,
      "shops": 9124,
      "cuff": 9125,
      "verge": 9126,
      "unfam": 9127,
      "buzzed": 9128,
      "accepting": 9129,
      "tasks": 9130,
      "skateboard": 9131,
      "!**": 9132,
      "mish": 9133,
      "vap": 9134,
      "##hib": 9135,
      "bac": 9136,
      "chea": 9137,
      "copied": 9138,
      "caps": 9139,
      "produce": 9140,
      "hiking": 9141,
      "giggle": 9142,
      "principle": 9143,
      "8am": 9144,
      "dj": 9145,
      "ej": 9146,
      "##born": 9147,
      "##aries": 9148,
      "##irl": 9149,
      "knives": 9150,
      "whipped": 9151,
      "discount": 9152,
      "googling": 9153,
      "teams": 9154,
      "##check": 9155,
      "immense": 9156,
      "maxim": 9157,
      "##oxide": 9158,
      "british": 9159,
      "bj": 9160,
      "##mel": 9161,
      "##10": 9162,
      "abrupt": 9163,
      "sme": 9164,
      "unconscious": 9165,
      "warn": 9166,
      "pushes": 9167,
      "youtu": 9168,
      "batteries": 9169,
      "guards": 9170,
      "meals": 9171,
      "links": 9172,
      "benefits": 9173,
      "misunderstanding": 9174,
      "zombie": 9175,
      "gabe": 9176,
      "6am": 9177,
      "tho": 9178,
      "india": 9179,
      "colon": 9180,
      "cases": 9181,
      "responses": 9182,
      "vigor": 9183,
      "##ints": 9184,
      "handling": 9185,
      "expelled": 9186,
      "##oooooooo": 9187,
      "travelling": 9188,
      "dodge": 9189,
      "audit": 9190,
      "laser": 9191,
      "aforementioned": 9192,
      "##oning": 9193,
      "isnt": 9194,
      "##ami": 9195,
      "fuzzy": 9196,
      "oldest": 9197,
      "excl": 9198,
      "valu": 9199,
      "attendant": 9200,
      "warehouse": 9201,
      "##mble": 9202,
      "##but": 9203,
      "lifet": 9204,
      "unz": 9205,
      "phase": 9206,
      "partying": 9207,
      "marked": 9208,
      "distinct": 9209,
      "glob": 9210,
      "chemicals": 9211,
      ";)": 9212,
      "mower": 9213,
      "##iches": 9214,
      "##mith": 9215,
      "##pants": 9216,
      "therm": 9217,
      "##org": 9218,
      "stored": 9219,
      "lease": 9220,
      "handled": 9221,
      "##poses": 9222,
      "barrel": 9223,
      "autistic": 9224,
      "savings": 9225,
      "macbook": 9226,
      "criminal": 9227,
      "##tr": 9228,
      "##af": 9229,
      "##??": 9230,
      "##ini": 9231,
      "analy": 9232,
      "abusive": 9233,
      "plot": 9234,
      "slur": 9235,
      "retre": 9236,
      "prime": 9237,
      "dumbf": 9238,
      "virt": 9239,
      "##iel": 9240,
      "##_my": 9241,
      "##rous": 9242,
      "designed": 9243,
      "topics": 9244,
      "brad": 9245,
      "balloons": 9246,
      "virginity": 9247,
      "belongings": 9248,
      "impatient": 9249,
      "spaghetti": 9250,
      "smelly": 9251,
      "dumbfounded": 9252,
      "fetch": 9253,
      "##lers": 9254,
      "teens": 9255,
      "homemade": 9256,
      "swipe": 9257,
      "##oline": 9258,
      "courses": 9259,
      "braz": 9260,
      "commute": 9261,
      "studies": 9262,
      "counting": 9263,
      "positions": 9264,
      "##........": 9265,
      "smacked": 9266,
      "paused": 9267,
      "acceler": 9268,
      "smeared": 9269,
      "facility": 9270,
      "unfamiliar": 9271,
      "pets": 9272,
      "rays": 9273,
      "signing": 9274,
      "umb": 9275,
      "##==": 9276,
      "damp": 9277,
      "##ifications": 9278,
      "trashcan": 9279,
      "senses": 9280,
      "jerked": 9281,
      "detailed": 9282,
      "tunnel": 9283,
      "trampo": 9284,
      "stereot": 9285,
      "retrospect": 9286,
      "##gest": 9287,
      "##bri": 9288,
      "##oma": 9289,
      "##race": 9290,
      "dehyd": 9291,
      "exagger": 9292,
      "plaster": 9293,
      "household": 9294,
      "containing": 9295,
      "colored": 9296,
      "2016": 9297,
      "bruises": 9298,
      "murdered": 9299,
      "automatic": 9300,
      "fry": 9301,
      "##umin": 9302,
      "slack": 9303,
      "highest": 9304,
      "interrupted": 9305,
      "matched": 9306,
      "inevitable": 9307,
      "tutor": 9308,
      "lifetime": 9309,
      "cave": 9310,
      "##aid": 9311,
      "##esth": 9312,
      "whoops": 9313,
      "stumbling": 9314,
      "##aine": 9315,
      "slut": 9316,
      "apps": 9317,
      "cliff": 9318,
      "armp": 9319,
      "bands": 9320,
      "assignments": 9321,
      "delay": 9322,
      "george": 9323,
      "dismay": 9324,
      "grateful": 9325,
      "equally": 9326,
      "ejac": 9327,
      ",”": 9328,
      "ara": 9329,
      "##_w": 9330,
      "##idents": 9331,
      "outfit": 9332,
      "##reens": 9333,
      "chal": 9334,
      "scout": 9335,
      "leaf": 9336,
      "cramps": 9337,
      "**\"": 9338,
      "marsh": 9339,
      "invites": 9340,
      "treats": 9341,
      "intens": 9342,
      "scraped": 9343,
      "whatsapp": 9344,
      "nipples": 9345,
      "rabbit": 9346,
      "whack": 9347,
      "stash": 9348,
      "reward": 9349,
      "##umsy": 9350,
      "concept": 9351,
      "clumsy": 9352,
      "painfully": 9353,
      "scrot": 9354,
      "trucks": 9355,
      "##rics": 9356,
      "freshly": 9357,
      "placing": 9358,
      "informs": 9359,
      "throne": 9360,
      "cruise": 9361,
      "budget": 9362,
      "suicidal": 9363,
      "survived": 9364,
      "hump": 9365,
      "##oner": 9366,
      "scholar": 9367,
      "waiter": 9368,
      "believes": 9369,
      "boob": 9370,
      "practicing": 9371,
      "recovered": 9372,
      "##iiii": 9373,
      "assistance": 9374,
      "hesitation": 9375,
      "eyebrows": 9376,
      "breeze": 9377,
      "core": 9378,
      "os": 9379,
      "rural": 9380,
      "coord": 9381,
      "trump": 9382,
      "linked": 9383,
      "biology": 9384,
      "formed": 9385,
      "unst": 9386,
      "listed": 9387,
      "deterg": 9388,
      "diab": 9389,
      "tasty": 9390,
      "beauty": 9391,
      "climax": 9392,
      "orient": 9393,
      "culture": 9394,
      "gy": 9395,
      "nas": 9396,
      "peak": 9397,
      "meter": 9398,
      "transaction": 9399,
      "connecting": 9400,
      "##aaa": 9401,
      "clubs": 9402,
      "blurted": 9403,
      "wrestling": 9404,
      "sunglasses": 9405,
      "han": 9406,
      "##rea": 9407,
      "shi": 9408,
      "sher": 9409,
      "maniac": 9410,
      "puzz": 9411,
      "disorder": 9412,
      "##acent": 9413,
      "##mod": 9414,
      "notebook": 9415,
      "cement": 9416,
      "welp": 9417,
      "hack": 9418,
      "shr": 9419,
      "charm": 9420,
      "coins": 9421,
      "mol": 9422,
      "scree": 9423,
      "gravel": 9424,
      "adh": 9425,
      "hottest": 9426,
      "incorrect": 9427,
      "diaper": 9428,
      "raped": 9429,
      "appreciated": 9430,
      "insanely": 9431,
      "bicycle": 9432,
      "chicago": 9433,
      "ket": 9434,
      "trem": 9435,
      "tipped": 9436,
      "##tles": 9437,
      "##onic": 9438,
      "amuse": 9439,
      "twitch": 9440,
      "resident": 9441,
      "recip": 9442,
      "askreddit": 9443,
      "refuses": 9444,
      "2012": 9445,
      "attacks": 9446,
      "occurs": 9447,
      "sleeve": 9448,
      "subscri": 9449,
      "succeed": 9450,
[...]
