{
  "version": "1.0",
  "truncation": null,
  "padding": null,
  "added_tokens": [
    {
      "id": 0,
      "content": "[PAD]",
      "single_word": false,
      "lstrip": false,
      "rstrip": false,
      "normalized": false,
      "special": true
    },
    {
      "id": 1,
      "content": "[CLS]",
      "single_word": false,
      "lstrip": false,
      "rstrip": false,
      "normalized": false,
      "special": true
    },
    {
      "id": 2,
      "content": "[SEP]",
      "single_word": false,
      "lstrip": false,
      "rstrip": false,
      "normalized": false,
      "special": true
    },
    {
      "id": 3,
      "content": "[UNK]",
      "single_word": false,
      "lstrip": false,
      "rstrip": false,
      "normalized": false,
      "special": true
    }
  ],
  "normalizer": null,
  "pre_tokenizer": {
    "type": "Whitespace"
  },
  "post_processor": null,
  "decoder": null,
  "model": {
    "type": "WordPiece",
    "unk_token": "[UNK]",
    "continuing_subword_prefix": "##",
    "max_input_chars_per_word": 100,
    "vocab": {
      "[PAD]": 0,
      "[CLS]": 1,
      "[SEP]": 2,
      "[UNK]": 3,
      "!": 4,
      "\"": 5,
      "#": 6,
      "$": 7,
      "%": 8,
      "&": 9,
      "'": 10,
      "(": 11,
      ")": 12,
      "*": 13,
      "+": 14,
      ",": 15,
      "-": 16,
      ".": 17,
      "/": 18,
      "0": 19,
      "1": 20,
      "2": 21,
      "3": 22,
      "4": 23,
      "5": 24,
      "6": 25,
      "7": 26,
      "8": 27,
      "9": 28,
      ":": 29,
      ";": 30,
      "<": 31,
      "=": 32,
      ">": 33,
      "?": 34,
      "@": 35,
      "A": 36,
      "B": 37,
      "C": 38,
      "D": 39,
      "E": 40,
      "F": 41,
      "G": 42,
      "H": 43,
      "I": 44,
      "J": 45,
      "K": 46,
      "L": 47,
      "M": 48,
      "N": 49,
      "O": 50,
      "P": 51,
      "Q": 52,
      "R": 53,
      "S": 54,
      "T": 55,
      "U": 56,
      "V": 57,
      "W": 58,
      "X": 59,
      "Y": 60,
      "Z": 61,
      "[": 62,
      "\\": 63,
      "]": 64,
      "^": 65,
      "_": 66,
      "`": 67,
      "a": 68,
      "b": 69,
      "c": 70,
      "d": 71,
      "e": 72,
      "f": 73,
      "g": 74,
      "h": 75,
      "i": 76,
      "j": 77,
      "k": 78,
      "l": 79,
      "m": 80,
      "n": 81,
      "o": 82,
      "p": 83,
      "q": 84,
      "r": 85,
      "s": 86,
      "t": 87,
      "u": 88,
      "v": 89,
      "w": 90,
      "x": 91,
      "y": 92,
      "z": 93,
      "{": 94,
      "|": 95,
      "}": 96,
      "~": 97,
      "": 98,
      "": 99,
      "": 100,
      "": 101,
      "": 102,
      "": 103,
      "": 104,
      "¡": 105,
      "¢": 106,
      "£": 107,
      "¤": 108,
      "¥": 109,
      "¦": 110,
      "§": 111,
      "¨": 112,
      "©": 113,
      "ª": 114,
      "«": 115,
      "¬": 116,
      "­": 117,
      "®": 118,
      "¯": 119,
      "°": 120,
      "±": 121,
      "²": 122,
      "³": 123,
      "´": 124,
      "µ": 125,
      "¶": 126,
      "·": 127,
      "¸": 128,
      "¹": 129,
      "º": 130,
      "»": 131,
      "¼": 132,
      "½": 133,
      "¾": 134,
      "¿": 135,
      "À": 136,
      "Á": 137,
      "Â": 138,
      "Ã": 139,
      "Ä": 140,
      "Å": 141,
      "Æ": 142,
      "Ç": 143,
      "È": 144,
      "É": 145,
      "Ê": 146,
      "Ë": 147,
      "Í": 148,
      "Ï": 149,
      "Ñ": 150,
      "Ò": 151,
      "Ó": 152,
      "Ö": 153,
      "×": 154,
      "Ø": 155,
      "Ù": 156,
      "Ú": 157,
      "Ü": 158,
      "Ý": 159,
      "Þ": 160,
      "ß": 161,
      "à": 162,
      "á": 163,
      "â": 164,
      "ã": 165,
      "ä": 166,
      "å": 167,
      "æ": 168,
      "ç": 169,
      "è": 170,
      "é": 171,
      "ê": 172,
      "ë": 173,
      "ì": 174,
      "í": 175,
      "î": 176,
      "ï": 177,
      "ð": 178,
      "ñ": 179,
      "ò": 180,
      "ó": 181,
      "ô": 182,
      "õ": 183,
      "ö": 184,
      "÷": 185,
      "ø": 186,
      "ù": 187,
      "ú": 188,
      "û": 189,
      "ü": 190,
      "ý": 191,
      "ā": 192,
      "ć": 193,
      "Č": 194,
      "č": 195,
      "đ": 196,
      "ğ": 197,
      "ī": 198,
      "İ": 199,
      "ı": 200,
      "ł": 201,
      "ń": 202,
      "Ō": 203,
      "ō": 204,
      "Œ": 205,
      "œ": 206,
      "ś": 207,
      "ş": 208,
      "Š": 209,
      "š": 210,
      "ū": 211,
      "ů": 212,
      "Ŵ": 213,
      "ŵ": 214,
      "ŷ": 215,
      "Ÿ": 216,
      "Ž": 217,
      "ž": 218,
      "ƒ": 219,
      "ǂ": 220,
      "ǃ": 221,
      "ș": 222,
      "ʻ": 223,
      "ˆ": 224,
      "˜": 225,
      "Α": 226,
      "Ε": 227,
      "Η": 228,
      "Θ": 229,
      "Λ": 230,
      "Ν": 231,
      "Σ": 232,
      "Τ": 233,
      "Φ": 234,
      "Ω": 235,
      "ί": 236,
      "ο": 237,
      "π": 238,
      "Б": 239,
      "В": 240,
      "К": 241,
      "О": 242,
      "П": 243,
      "Т": 244,
      "Ч": 245,
      "Я": 246,
      "а": 247,
      "б": 248,
      "в": 249,
      "д": 250,
      "е": 251,
      "ж": 252,
      "з": 253,
      "и": 254,
      "й": 255,
      "л": 256,
      "м": 257,
      "н": 258,
      "о": 259,
      "р": 260,
      "с": 261,
      "т": 262,
      "у": 263,
      "ь": 264,
      "я": 265,
      "ѕ": 266,
      "і": 267,
      "ا": 268,
      "ب": 269,
      "ة": 270,
      "د": 271,
      "ر": 272,
      "س": 273,
      "ش": 274,
      "ع": 275,
      "ك": 276,
      "ل": 277,
      "ن": 278,
      "و": 279,
      "ي": 280,
      "ง": 281,
      "ท": 282,
      "พ": 283,
      "ย": 284,
      "ṉ": 285,
      "ỳ": 286,
      "​": 287,
      "‍": 288,
      "‎": 289,
      "‏": 290,
      "‐": 291,
      "‑": 292,
      "‒": 293,
      "–": 294,
      "—": 295,
      "‘": 296,
      "’": 297,
      "‚": 298,
      "“": 299,
      "”": 300,
      "„": 301,
      "‟": 302,
      "‡": 303,
      "•": 304,
      "…": 305,
      "‪": 306,
      "‬": 307,
      "‰": 308,
      "′": 309,
      "‹": 310,
      "›": 311,
      "⁠": 312,
      "€": 313,
      "™": 314,
      "−": 315,
      "▶": 316,
      "◾": 317,
      "♥": 318,
      "❤": 319,
      "⭐": 320,
      "。": 321,
      "不": 322,
      "中": 323,
      "为": 324,
      "乐": 325,
      "了": 326,
      "于": 327,
      "们": 328,
      "依": 329,
      "克": 330,
      "内": 331,
      "再": 332,
      "决": 333,
      "力": 334,
      "加": 335,
      "发": 336,
      "口": 337,
      "可": 338,
      "台": 339,
      "器": 340,
      "因": 341,
      "园": 342,
      "国": 343,
      "坦": 344,
      "基": 345,
      "士": 346,
      "外": 347,
      "威": 348,
      "子": 349,
      "宝": 350,
      "家": 351,
      "巧": 352,
      "帮": 353,
      "平": 354,
      "开": 355,
      "归": 356,
      "感": 357,
      "戏": 358,
      "我": 359,
      "户": 360,
      "房": 361,
      "找": 362,
      "播": 363,
      "放": 364,
      "无": 365,
      "有": 366,
      "没": 367,
      "油": 368,
      "法": 369,
      "游": 370,
      "源": 371,
      "璞": 372,
      "用": 373,
      "的": 374,
      "真": 375,
      "程": 376,
      "篮": 377,
      "美": 378,
      "职": 379,
      "花": 380,
      "视": 381,
      "觉": 382,
      "解": 383,
      "访": 384,
      "课": 385,
      "赖": 386,
      "达": 387,
      "返": 388,
      "这": 389,
      "适": 390,
      "选": 391,
      "采": 392,
      "里": 393,
      "问": 394,
      "雷": 395,
      "露": 396,
      "频": 397,
      "题": 398,
      "首": 399,
      "马": 400,
      "ﬁ": 401,
      "️": 402,
      "﻿": 403,
      "！": 404,
      "，": 405,
      "🇧": 406,
      "🇬": 407,
      "🍾": 408,
      "🏆": 409,
      "👌": 410,
      "😊": 411,
      "😘": 412,
      "##a": 413,
      "##n": 414,
      "##g": 415,
      "##o": 416,
      "##t": 417,
      "##i": 418,
      "##k": 419,
      "##l": 420,
      "##u": 421,
      "##s": 422,
      "##e": 423,
      "##v": 424,
      "##c": 425,
      "##r": 426,
      "##b": 427,
      "##d": 428,
      "##w": 429,
      "##y": 430,
      "##I": 431,
      "##F": 432,
      "##W": 433,
      "##A": 434,
      "##p": 435,
      "##h": 436,
      "##0": 437,
      "##6": 438,
      "##2": 439,
      "##C": 440,
      "##S": 441,
      "##m": 442,
      "##B": 443,
      "##9": 444,
      "##x": 445,
      "##E": 446,
      "##f": 447,
      "##?": 448,
      "##\"": 449,
      "##z": 450,
      "##K": 451,
      "##O": 452,
      "##â": 453,
      "##D": 454,
      "##8": 455,
      "##j": 456,
      "##4": 457,
      "##3": 458,
      "##U": 459,
      "##7": 460,
      "##R": 461,
      "##T": 462,
      "##5": 463,
      "##L": 464,
      "##M": 465,
      "##Ã": 466,
      "##é": 467,
      "##H": 468,
      "##J": 469,
      "##N": 470,
      "##P": 471,
      "##q": 472,
      "##Z": 473,
      "##1": 474,
      "##X": 475,
      "##\\": 476,
      "##ä": 477,
      "###": 478,
      "##)": 479,
      "##Y": 480,
      "##V": 481,
      "##ö": 482,
      "##í": 483,
      "##G": 484,
      "##á": 485,
      "##_": 486,
      "##£": 487,
      "##ó": 488,
      "##Q": 489,
      "##.": 490,
      "##'": 491,
      "##ø": 492,
      "##ô": 493,
      "##!": 494,
      "##Ä": 495,
      "##ŵ": 496,
      "##,": 497,
      "##î": 498,
      "##ê": 499,
      "##Â": 500,
      "##¦": 501,
      "##[": 502,
      "##ń": 503,
      "##ỳ": 504,
      "##马": 505,
      "##​": 506,
      "##Ê": 507,
      "##:": 508,
      "##ñ": 509,
      "##;": 510,
      "##˜": 511,
      "##ŷ": 512,
      "##ل": 513,
      "##س": 514,
      "##ع": 515,
      "##و": 516,
      "##د": 517,
      "##ي": 518,
      "##ة": 519,
      "##ˆ": 520,
      "##*": 521,
      "##ü": 522,
      "##É": 523,
      "##ª": 524,
      "##+": 525,
      "##ć": 526,
      "##(": 527,
      "##—": 528,
      "##%": 529,
      "##ï": 530,
      "##€": 531,
      "##å": 532,
      "##-": 533,
      "##ç": 534,
      "##è": 535,
      "##Å": 536,
      "##™": 537,
      "##µ": 538,
      "##º": 539,
      "##Ÿ": 540,
      "##|": 541,
      "##à": 542,
      "##]": 543,
      "##ò": 544,
      "##…": 545,
      "##ú": 546,
      "##🏆": 547,
      "##园": 548,
      "##а": 549,
      "##`": 550,
      "##ù": 551,
      "##æ": 552,
      "##@": 553,
      "##ð": 554,
      "##$": 555,
      "##ů": 556,
      "##ș": 557,
      "##ί": 558,
      "##达": 559,
      "##ë": 560,
      "##为": 561,
      "##我": 562,
      "##们": 563,
      "##中": 564,
      "##国": 565,
      "##没": 566,
      "##有": 567,
      "##”": 568,
      "##’": 569,
      "##‍": 570,
      "##ū": 571,
      "##发": 572,
      "##了": 573,
      "##视": 574,
      "##频": 575,
      "##播": 576,
      "##放": 577,
      "##器": 578,
      "##ā": 579,
      "##>": 580,
      "##﻿": 581,
      "##/": 582,
      "##‎": 583,
      "##¸": 584,
      "##=": 585,
      "##&": 586,
      "##ō": 587,
      "##č": 588,
      "##û": 589,
      "##Á": 590,
      "##ṉ": 591,
      "##璞": 592,
      "##归": 593,
      "##真": 594,
      "##­": 595,
      "##<": 596,
      "##": 597,
      "##ý": 598,
      "##ﬁ": 599,
      "##¡": 600,
      "##ã": 601,
      "##¬": 602,
      "##¿": 603,
      "##й": 604,
      "##т": 605,
      "##е": 606,
      "##р": 607,
      "##н": 608,
      "##о": 609,
      "##в": 610,
      "##再": 611,
      "##依": 612,
      "##赖": 613,
      "##外": 614,
      "##课": 615,
      "##程": 616,
      "##首": 617,
      "##选": 618,
      "##的": 619,
      "##Ë": 620,
      "##š": 621,
      "##‹": 622,
      "##ı": 623,
      "##ł": 624,
      "##ا": 625,
      "##ر": 626,
      "##ن": 627,
      "##ʻ": 628,
      "##ß": 629,
      "##‐": 630,
      "##‪": 631,
      "##‏": 632,
      "##›": 633,
      "##ì": 634,
      "##ь": 635,
      "##с": 636,
      "##я": 637,
      "##子": 638,
      "##ƒ": 639,
      "##•": 640,
      "##“": 641,
      "##ǂ": 642,
      "##": 643,
      "##¥": 644,
      "##и": 645,
      "##Ž": 646,
      "##": 647,
      "##": 648,
      "##È": 649,
      "##ب": 650,
      "##ك": 651,
      "##职": 652,
      "##篮": 653,
      "##¯": 654,
      "##Ω": 655,
      "##‰": 656,
      "##{": 657,
      "##⁠": 658,
      "##Η": 659,
      "##Φ": 660,
      "##Θ": 661,
      "##Ε": 662,
      "##Ν": 663,
      "##Τ": 664,
      "##Σ": 665,
      "##đ": 666,
      "##у": 667,
      "##В": 668,
      "##з": 669,
      "##м": 670,
      "##ж": 671,
      "##О": 672,
      "##д": 673,
      "##б": 674,
      "##л": 675,
      "##²": 676,
      "##决": 677,
      "##内": 678,
      "##用": 679,
      "##户": 680,
      "##无": 681,
      "##法": 682,
      "##访": 683,
      "##问": 684,
      "##平": 685,
      "##台": 686,
      "##题": 687,
      "##🇧": 688,
      "##🇬": 689,
      "##ś": 690,
      "##½": 691,
      "##加": 692,
      "##油": 693,
      "##口": 694,
      "##可": 695,
      "##乐": 696,
      "##}": 697,
      "##і": 698,
      "##ѕ": 699,
      "##‬": 700,
      "##¨": 701,
      "##ī": 702,
      "##œ": 703,
      "##õ": 704,
      "##К": 705,
      "##¢": 706,
      "##基": 707,
      "##于": 708,
      "##开": 709,
      "##源": 710,
      "##Œ": 711,
      "##‘": 712,
      "##ท": 713,
      "##露": 714,
      "##士": 715,
      "##¶": 716,
      "##„": 717,
      "##ο": 718,
      "##ğ": 719,
      "##~": 720,
      "##宝": 721,
      "##适": 722,
      "##克": 723,
      "##力": 724,
      "##里": 725,
      "##找": 726,
      "##家": 727,
      "##感": 728,
      "##觉": 729,
      "##戏": 730,
      "##ş": 731,
      "##ย": 732,
      "##พ": 733,
      "##ง": 734,
      "##«": 735,
      "##he": 736,
      "the": 737,
      "##er": 738,
      "##in": 739,
      "##on": 740,
      "##ed": 741,
      "##en": 742,
      "##or": 743,
      "##es": 744,
      "##an": 745,
      "##at": 746,
      "##ar": 747,
      "##ing": 748,
      "to": 749,
      "in": 750,
      "##nd": 751,
      "##al": 752,
      "##ou": 753,
      "##it": 754,
      "##is": 755,
      "##as": 756,
      "of": 757,
      "##re": 758,
      "and": 759,
      "##ic": 760,
      "##om": 761,
      "th": 762,
      "##il": 763,
      "##id": 764,
      "##ion": 765,
      "##ent": 766,
      "be": 767,
      "##el": 768,
      "##ot": 769,
      "##le": 770,
      "##ut": 771,
      "##ad": 772,
      "##st": 773,
      "##ay": 774,
      "on": 775,
      "##ve": 776,
      "##ur": 777,
      "##am": 778,
      "##ac": 779,
      "for": 780,
      "re": 781,
      "##ow": 782,
      "##ol": 783,
      "##ig": 784,
      "The": 785,
      "##et": 786,
      "is": 787,
      "##ir": 788,
      "##ly": 789,
      "was": 790,
      "##ver": 791,
      "##ec": 792,
      "sa": 793,
      "that": 794,
      "##ter": 795,
      "st": 796,
      "wh": 797,
      "##ro": 798,
      "##ld": 799,
      "it": 800,
      "##im": 801,
      "said": 802,
      "##ith": 803,
      "he": 804,
      "at": 805,
      "##ill": 806,
      "##ation": 807,
      "with": 808,
      "##ce": 809,
      "##se": 810,
      "al": 811,
      "##ers": 812,
      "as": 813,
      "ha": 814,
      "##est": 815,
      "an": 816,
      "fr": 817,
      "##and": 818,
      "##ort": 819,
      "##ear": 820,
      "##ul": 821,
      "con": 822,
      "##em": 823,
      "##her": 824,
      "##op": 825,
      "by": 826,
      "##ch": 827,
      "##ain": 828,
      "##ri": 829,
      "##ag": 830,
      "have": 831,
      "##pp": 832,
      "from": 833,
      "##ak": 834,
      "##ess": 835,
      "are": 836,
      "##igh": 837,
      "##th": 838,
      "##our": 839,
      "su": 840,
      "com": 841,
      "##ould": 842,
      "has": 843,
      "we": 844,
      "de": 845,
      "##os": 846,
      "ch": 847,
      "##ment": 848,
      "##ct": 849,
      "not": 850,
      "##us": 851,
      "##ore": 852,
      "pl": 853,
      "##ew": 854,
      "sh": 855,
      "his": 856,
      "##art": 857,
      "pro": 858,
      "go": 859,
      "##ity": 860,
      "had": 861,
      ".\"": 862,
      "##ere": 863,
      "##un": 864,
      "le": 865,
      "##all": 866,
      "ex": 867,
      "##ist": 868,
      "##ast": 869,
      "##ack": 870,
      "##ab": 871,
      "##od": 872,
      "##ight": 873,
      "##ant": 874,
      "##ard": 875,
      "##ff": 876,
      "will": 877,
      "se": 878,
      "##um": 879,
      "20": 880,
      "##ive": 881,
      "been": 882,
      "year": 883,
      "##oun": 884,
      "##oc": 885,
      "##ate": 886,
      "##ies": 887,
      "but": 888,
      "##ust": 889,
      "##ect": 890,
      "pr": 891,
      "who": 892,
      "##gh": 893,
      "were": 894,
      "##iv": 895,
      "##ice": 896,
      "##ich": 897,
      "ab": 898,
      "they": 899,
      "##ell": 900,
      "this": 901,
      "sp": 902,
      "tr": 903,
      "##ome": 904,
      "##ok": 905,
      "Mr": 906,
      "##end": 907,
      "##out": 908,
      "##ud": 909,
      "It": 910,
      "##ge": 911,
      "whe": 912,
      "##rou": 913,
      "wor": 914,
      "##pt": 915,
      "##ost": 916,
      "out": 917,
      "their": 918,
      ",\"": 919,
      "##ber": 920,
      "cl": 921,
      "or": 922,
      "##ial": 923,
      "##ue": 924,
      "He": 925,
      "ad": 926,
      "##if": 927,
      "would": 928,
      "##fter": 929,
      "ag": 930,
      "##ub": 931,
      "##ia": 932,
      "##ide": 933,
      "which": 934,
      "##ond": 935,
      "off": 936,
      "##land": 937,
      "un": 938,
      "ne": 939,
      "##ra": 940,
      "up": 941,
      "##ong": 942,
      "##ie": 943,
      "after": 944,
      "##ions": 945,
      "pe": 946,
      "##so": 947,
      "##own": 948,
      "##port": 949,
      "##one": 950,
      "##ans": 951,
      "##ime": 952,
      "##ther": 953,
      "res": 954,
      "##ople": 955,
      "##ous": 956,
      "all": 957,
      "201": 958,
      "more": 959,
      "en": 960,
      "play": 961,
      "also": 962,
      "##ick": 963,
      "man": 964,
      "##ree": 965,
      "In": 966,
      "##ish": 967,
      "inc": 968,
      "##ry": 969,
      "##per": 970,
      "##ence": 971,
      "##ame": 972,
      "St": 973,
      "##pl": 974,
      "Th": 975,
      "can": 976,
      "Ch": 977,
      "do": 978,
      "##ure": 979,
      "##ord": 980,
      "people": 981,
      "over": 982,
      "ac": 983,
      "##ays": 984,
      "\".": 985,
      "cont": 986,
      "##ary": 987,
      "##ace": 988,
      "fir": 989,
      "about": 990,
      "##av": 991,
      "##ire": 992,
      "int": 993,
      "##ake": 994,
      "one": 995,
      "part": 996,
      "##ine": 997,
      "##ally": 998,
      "im": 999,
      "##wo": 1000,
      "me": 1001,
      "comp": 1002,
      "##ke": 1003,
      "there": 1004,
      "##ign": 1005,
      "##au": 1006,
      "##ount": 1007,
      "##ated": 1008,
      "##ap": 1009,
      "##age": 1010,
      "##act": 1011,
      "pol": 1012,
      "new": 1013,
      "##00": 1014,
      "fin": 1015,
      "We": 1016,
      "its": 1017,
      "##ose": 1018,
      "##ely": 1019,
      "##qu": 1020,
      "she": 1021,
      "##ep": 1022,
      "work": 1023,
      "her": 1024,
      "##ail": 1025,
      "when": 1026,
      "##ance": 1027,
      "Br": 1028,
      "so": 1029,
      "dis": 1030,
      "##mer": 1031,
      "sc": 1032,
      "##ip": 1033,
      "##ved": 1034,
      "time": 1035,
      "app": 1036,
      "you": 1037,
      "than": 1038,
      "But": 1039,
      "win": 1040,
      "us": 1041,
      "##ru": 1042,
      "ar": 1043,
      "##ark": 1044,
      "##vern": 1045,
      "rec": 1046,
      "first": 1047,
      "##ult": 1048,
      "##anc": 1049,
      "two": 1050,
      "##ile": 1051,
      "##oin": 1052,
      "##ib": 1053,
      "##amp": 1054,
      "bec": 1055,
      "##ade": 1056,
      "##ations": 1057,
      "att": 1058,
      "##ough": 1059,
      "##ian": 1060,
      "##ound": 1061,
      "##ict": 1062,
      "##oll": 1063,
      "sec": 1064,
      "##ens": 1065,
      "qu": 1066,
      "add": 1067,
      "cr": 1068,
      "##ook": 1069,
      "them": 1070,
      "##ild": 1071,
      "car": 1072,
      "##ob": 1073,
      "##iss": 1074,
      "##able": 1075,
      "last": 1076,
      "##ents": 1077,
      "##day": 1078,
      "could": 1079,
      "ser": 1080,
      "ev": 1081,
      "Sc": 1082,
      "di": 1083,
      "govern": 1084,
      "##ite": 1085,
      "##og": 1086,
      "##ft": 1087,
      "other": 1088,
      "##ss": 1089,
      "te": 1090,
      "some": 1091,
      "inv": 1092,
      "##ang": 1093,
      "##nder": 1094,
      "##man": 1095,
      "into": 1096,
      "##reat": 1097,
      "##orm": 1098,
      "##ass": 1099,
      "again": 1100,
      "##hed": 1101,
      "told": 1102,
      "min": 1103,
      "years": 1104,
      "##ach": 1105,
      "li": 1106,
      "##oy": 1107,
      "##ek": 1108,
      "##BC": 1109,
      "back": 1110,
      "##ery": 1111,
      "Le": 1112,
      "##ition": 1113,
      "him": 1114,
      "just": 1115,
      "government": 1116,
      "get": 1117,
      "##urn": 1118,
      "##oot": 1119,
      "##itt": 1120,
      "supp": 1121,
      "##ink": 1122,
      "kn": 1123,
      "##enc": 1124,
      "##fore": 1125,
      "any": 1126,
      "our": 1127,
      "19": 1128,
      "BBC": 1129,
      "##we": 1130,
      "##ors": 1131,
      "##li": 1132,
      "##uc": 1133,
      "##ts": 1134,
      "Un": 1135,
      "right": 1136,
      "##ons": 1137,
      "what": 1138,
      "no": 1139,
      "pre": 1140,
      "now": 1141,
      "dec": 1142,
      "##und": 1143,
      "inter": 1144,
      "acc": 1145,
      "Scot": 1146,
      "being": 1147,
      "##ious": 1148,
      "##ident": 1149,
      "##ock": 1150,
      "UK": 1151,
      "hel": 1152,
      "rel": 1153,
      "##ical": 1154,
      "##ne": 1155,
      "##ings": 1156,
      "def": 1157,
      "under": 1158,
      "comm": 1159,
      "before": 1160,
      "##als": 1161,
      "##ase": 1162,
      "am": 1163,
      "##ause": 1164,
      "lead": 1165,
      "bet": 1166,
      "##sh": 1167,
      "##ubl": 1168,
      "##ction": 1169,
      "##ner": 1170,
      "##lud": 1171,
      "##ng": 1172,
      "per": 1173,
      "##pect": 1174,
      "Fr": 1175,
      "if": 1176,
      "Al": 1177,
      "##ory": 1178,
      "##pr": 1179,
      "bl": 1180,
      "##ational": 1181,
      "##aw": 1182,
      "report": 1183,
      "very": 1184,
      "count": 1185,
      "##ove": 1186,
      "##ool": 1187,
      "##ope": 1188,
      "##rough": 1189,
      "made": 1190,
      "mon": 1191,
      "##alf": 1192,
      "bo": 1193,
      "##ton": 1194,
      "rem": 1195,
      "need": 1196,
      "##ited": 1197,
      "##ath": 1198,
      "want": 1199,
      "says": 1200,
      "##ning": 1201,
      "##old": 1202,
      "##other": 1203,
      "week": 1204,
      "three": 1205,
      "say": 1206,
      "##ince": 1207,
      "includ": 1208,
      "##vers": 1209,
      "##oss": 1210,
      "##ounc": 1211,
      "against": 1212,
      "only": 1213,
      "##form": 1214,
      "##very": 1215,
      "team": 1216,
      "##ise": 1217,
      "co": 1218,
      "##ater": 1219,
      "##round": 1220,
      "##aking": 1221,
      "##air": 1222,
      "##ward": 1223,
      "end": 1224,
      "##ister": 1225,
      "##ving": 1226,
      "did": 1227,
      "##ham": 1228,
      "##vel": 1229,
      "br": 1230,
      "my": 1231,
      "des": 1232,
      "call": 1233,
      "old": 1234,
      "##arg": 1235,
      "ind": 1236,
      "because": 1237,
      "And": 1238,
      "##ood": 1239,
      "000": 1240,
      "Eng": 1241,
      "foot": 1242,
      "##wn": 1243,
      "added": 1244,
      "cons": 1245,
      "##ised": 1246,
      "support": 1247,
      "left": 1248,
      "like": 1249,
      "##amil": 1250,
      "She": 1251,
      "##ollow": 1252,
      "Pr": 1253,
      "month": 1254,
      "##ities": 1255,
      "how": 1256,
      "US": 1257,
      "##ting": 1258,
      "gr": 1259,
      "##ublic": 1260,
      "##ates": 1261,
      "##ason": 1262,
      "They": 1263,
      "##are": 1264,
      "##ind": 1265,
      "##ues": 1266,
      "look": 1267,
      "##ix": 1268,
      "act": 1269,
      "##ven": 1270,
      "half": 1271,
      "##roup": 1272,
      "where": 1273,
      "ear": 1274,
      "At": 1275,
      "##side": 1276,
      "reg": 1277,
      "200": 1278,
      "ve": 1279,
      "##ices": 1280,
      "##outh": 1281,
      "##iel": 1282,
      "##ank": 1283,
      "four": 1284,
      "##ren": 1285,
      "##uring": 1286,
      "##son": 1287,
      "num": 1288,
      "##ement": 1289,
      "##ty": 1290,
      "invest": 1291,
      "fl": 1292,
      "##ales": 1293,
      "##vice": 1294,
      "should": 1295,
      "second": 1296,
      "attack": 1297,
      "##ames": 1298,
      "down": 1299,
      "imp": 1300,
      "well": 1301,
      "##ull": 1302,
      "fe": 1303,
      "##uss": 1304,
      "think": 1305,
      "found": 1306,
      "then": 1307,
      "make": 1308,
      "ke": 1309,
      "##hn": 1310,
      "offic": 1311,
      "##gr": 1312,
      "help": 1313,
      "show": 1314,
      "ele": 1315,
      "head": 1316,
      "bel": 1317,
      "ter": 1318,
      "while": 1319,
      "##rib": 1320,
      "##uch": 1321,
      "through": 1322,
      "many": 1323,
      "since": 1324,
      "##ross": 1325,
      "take": 1326,
      "set": 1327,
      "most": 1328,
      "##ful": 1329,
      "conf": 1330,
      "##atch": 1331,
      "Wh": 1332,
      "Ar": 1333,
      "##ug": 1334,
      "ref": 1335,
      "cent": 1336,
      "##ution": 1337,
      "free": 1338,
      "##cc": 1339,
      "This": 1340,
      "diff": 1341,
      "##ased": 1342,
      "##hip": 1343,
      "start": 1344,
      "##oth": 1345,
      "##ween": 1346,
      "##urr": 1347,
      "##ife": 1348,
      "##ember": 1349,
      "those": 1350,
      "follow": 1351,
      "police": 1352,
      "world": 1353,
      "10": 1354,
      "bu": 1355,
      "An": 1356,
      "child": 1357,
      "long": 1358,
      "Eur": 1359,
      "Brit": 1360,
      "There": 1361,
      "Re": 1362,
      "way": 1363,
      "England": 1364,
      "New": 1365,
      "##ourt": 1366,
      "##io": 1367,
      "between": 1368,
      "##ley": 1369,
      "poin": 1370,
      "pres": 1371,
      "##xt": 1372,
      "group": 1373,
      "every": 1374,
      "run": 1375,
      "home": 1376,
      "ret": 1377,
      ").": 1378,
      "##elf": 1379,
      "miss": 1380,
      "Mc": 1381,
      "em": 1382,
      "med": 1383,
      "##gan": 1384,
      "Tr": 1385,
      "str": 1386,
      "going": 1387,
      "famil": 1388,
      "conc": 1389,
      "##sp": 1390,
      "day": 1391,
      "sign": 1392,
      "##ague": 1393,
      "see": 1394,
      "##ating": 1395,
      "shot": 1396,
      "##ures": 1397,
      "good": 1398,
      "##up": 1399,
      "Jo": 1400,
      "Mar": 1401,
      "##ital": 1402,
      "##ever": 1403,
      "##ms": 1404,
      "##orth": 1405,
      "##ision": 1406,
      "##ern": 1407,
      "##ield": 1408,
      "##empt": 1409,
      "still": 1410,
      "##alk": 1411,
      "##iew": 1412,
      "##hing": 1413,
      "##ied": 1414,
      "##lear": 1415,
      "ro": 1416,
      "##pen": 1417,
      "##let": 1418,
      "sur": 1419,
      "##ster": 1420,
      "ass": 1421,
      "club": 1422,
      "number": 1423,
      "high": 1424,
      "##omm": 1425,
      "##ov": 1426,
      "##way": 1427,
      "##les": 1428,
      "##ters": 1429,
      "##alth": 1430,
      "##chool": 1431,
      "##ange": 1432,
      "##ered": 1433,
      "##oul": 1434,
      "contin": 1435,
      "##ave": 1436,
      "know": 1437,
      "##gg": 1438,
      "##hen": 1439,
      "kick": 1440,
      "put": 1441,
      "##ale": 1442,
      "game": 1443,
      "Sh": 1444,
      "season": 1445,
      "##con": 1446,
      "##ject": 1447,
      "United": 1448,
      "##led": 1449,
      "##ble": 1450,
      "##ments": 1451,
      "##ather": 1452,
      "bus": 1453,
      "##by": 1454,
      "happ": 1455,
      "Pol": 1456,
      "may": 1457,
      "Scotland": 1458,
      "Wales": 1459,
      "##ier": 1460,
      "public": 1461,
      "such": 1462,
      "##any": 1463,
      "place": 1464,
      "tak": 1465,
      "##ury": 1466,
      "##ual": 1467,
      "##hes": 1468,
      "contr": 1469,
      "##ible": 1470,
      "side": 1471,
      "big": 1472,
      "Europe": 1473,
      "own": 1474,
      "much": 1475,
      "##ady": 1476,
      "manag": 1477,
      "country": 1478,
      "##ics": 1479,
      "Ro": 1480,
      "How": 1481,
      "belie": 1482,
      "wom": 1483,
      "ca": 1484,
      "cor": 1485,
      "ext": 1486,
      "tri": 1487,
      "next": 1488,
      "##stit": 1489,
      "##ouncil": 1490,
      "##ower": 1491,
      "##ives": 1492,
      "loc": 1493,
      "camp": 1494,
      "##med": 1495,
      "war": 1496,
      "##ently": 1497,
      "don": 1498,
      "vot": 1499,
      "opp": 1500,
      "box": 1501,
      "##erson": 1502,
      "wr": 1503,
      "##ets": 1504,
      "prov": 1505,
      "##ork": 1506,
      "##bers": 1507,
      "##ph": 1508,
      "sy": 1509,
      "##aff": 1510,
      "As": 1511,
      "##ann": 1512,
      "##ency": 1513,
      "City": 1514,
      "##uth": 1515,
      "including": 1516,
      "##ted": 1517,
      "##rem": 1518,
      "##ists": 1519,
      "##ax": 1520,
      "##ene": 1521,
      "school": 1522,
      "##imes": 1523,
      "##aj": 1524,
      "during": 1525,
      "Con": 1526,
      "stat": 1527,
      "##iness": 1528,
      "##ee": 1529,
      "five": 1530,
      "former": 1531,
      "won": 1532,
      "around": 1533,
      "spok": 1534,
      "##ral": 1535,
      "##ular": 1536,
      "got": 1537,
      "come": 1538,
      "Ms": 1539,
      "##ged": 1540,
      "Sp": 1541,
      "del": 1542,
      "##ves": 1543,
      "##used": 1544,
      "Dav": 1545,
      "though": 1546,
      "leg": 1547,
      "##duc": 1548,
      "##ific": 1549,
      "open": 1550,
      "##aim": 1551,
      "For": 1552,
      "prev": 1553,
      "par": 1554,
      "sm": 1555,
      "det": 1556,
      "Lond": 1557,
      "even": 1558,
      "##irect": 1559,
      "polit": 1560,
      "##ling": 1561,
      "##aces": 1562,
      "top": 1563,
      "iss": 1564,
      "##du": 1565,
      "ph": 1566,
      "gu": 1567,
      "remain": 1568,
      "great": 1569,
      "called": 1570,
      "prot": 1571,
      "##conom": 1572,
      "##ced": 1573,
      "eff": 1574,
      "ann": 1575,
      "London": 1576,
      "these": 1577,
      "##ility": 1578,
      "Se": 1579,
      "both": 1580,
      "##ret": 1581,
      "six": 1582,
      "##ener": 1583,
      "clear": 1584,
      "final": 1585,
      "##ative": 1586,
      "##ouse": 1587,
      "family": 1588,
      "##ah": 1589,
      "repl": 1590,
      "deal": 1591,
      "##ric": 1592,
      "sub": 1593,
      "expect": 1594,
      "inj": 1595,
      "mark": 1596,
      "Is": 1597,
      "##ird": 1598,
      "care": 1599,
      "resp": 1600,
      "##ash": 1601,
      "##ecut": 1602,
      "investig": 1603,
      "Cl": 1604,
      "far": 1605,
      "##aign": 1606,
      "really": 1607,
      "##ys": 1608,
      "children": 1609,
      "##its": 1610,
      "claim": 1611,
      "vict": 1612,
      "mil": 1613,
      "##ying": 1614,
      "##osp": 1615,
      "Scott": 1616,
      "##ump": 1617,
      "near": 1618,
      "disc": 1619,
      "##ott": 1620,
      "result": 1621,
      "##ody": 1622,
      "South": 1623,
      "##tain": 1624,
      "15": 1625,
      "##oney": 1626,
      "centre": 1627,
      "##osed": 1628,
      "EU": 1629,
      "best": 1630,
      "wins": 1631,
      "used": 1632,
      "curr": 1633,
      "appear": 1634,
      "##ands": 1635,
      "mem": 1636,
      "econom": 1637,
      "If": 1638,
      "##oung": 1639,
      "##ute": 1640,
      "John": 1641,
      "took": 1642,
      "life": 1643,
      "direct": 1644,
      "later": 1645,
      "##der": 1646,
      "##ina": 1647,
      "Ass": 1648,
      "business": 1649,
      "taken": 1650,
      "campaign": 1651,
      "intern": 1652,
      "law": 1653,
      "giv": 1654,
      "##ested": 1655,
      "dri": 1656,
      "##olog": 1657,
      "##iver": 1658,
      "stud": 1659,
      "##atur": 1660,
      "##att": 1661,
      "char": 1662,
      "##urs": 1663,
      "trans": 1664,
      "##ball": 1665,
      "pass": 1666,
      "pay": 1667,
      "ask": 1668,
      "Police": 1669,
      "League": 1670,
      "incre": 1671,
      "##ivers": 1672,
      "),": 1673,
      "players": 1674,
      "##az": 1675,
      "bre": 1676,
      "beh": 1677,
      "kill": 1678,
      "However": 1679,
      "Cor": 1680,
      "##ines": 1681,
      "vis": 1682,
      "progr": 1683,
      "##ief": 1684,
      "Russ": 1685,
      "##tern": 1686,
      "##ont": 1687,
      "##me": 1688,
      "exper": 1689,
      "##iz": 1690,
      "too": 1691,
      "##abour": 1692,
      "\",": 1693,
      "12": 1694,
      "oper": 1695,
      "Bl": 1696,
      "May": 1697,
      "##ants": 1698,
      "Att": 1699,
      "another": 1700,
      "##eb": 1701,
      "air": 1702,
      "party": 1703,
      "move": 1704,
      "same": 1705,
      "##omet": 1706,
      "local": 1707,
      "##ament": 1708,
      "goal": 1709,
      "Ind": 1710,
      "That": 1711,
      "##velop": 1712,
      "On": 1713,
      "id": 1714,
      "came": 1715,
      "Comm": 1716,
      "differ": 1717,
      "##red": 1718,
      "##shire": 1719,
      "##ances": 1720,
      "##app": 1721,
      "##ished": 1722,
      "your": 1723,
      "find": 1724,
      "##ev": 1725,
      "spec": 1726,
      "months": 1727,
      "##uthor": 1728,
      "West": 1729,
      "##vices": 1730,
      "Chr": 1731,
      "pri": 1732,
      "##hern": 1733,
      "##unity": 1734,
      "plan": 1735,
      "minister": 1736,
      "##ces": 1737,
      "30": 1738,
      "ris": 1739,
      "footed": 1740,
      "##get": 1741,
      "dr": 1742,
      "lot": 1743,
      "Wor": 1744,
      "following": 1745,
      "##stem": 1746,
      "fund": 1747,
      "##ests": 1748,
      "##ajor": 1749,
      "British": 1750,
      "build": 1751,
      "Bar": 1752,
      "invol": 1753,
      "##min": 1754,
      "record": 1755,
      "court": 1756,
      "young": 1757,
      "##ened": 1758,
      "##ism": 1759,
      "Ire": 1760,
      "poss": 1761,
      "import": 1762,
      "outside": 1763,
      "health": 1764,
      "##aid": 1765,
      "sent": 1766,
      "Ireland": 1767,
      "Foul": 1768,
      "spokes": 1769,
      "news": 1770,
      "Af": 1771,
      "Attempt": 1772,
      "Labour": 1773,
      "use": 1774,
      "does": 1775,
      "spe": 1776,
      "job": 1777,
      "sl": 1778,
      "dem": 1779,
      "##eng": 1780,
      "men": 1781,
      "##til": 1782,
      "##ison": 1783,
      "company": 1784,
      "##ness": 1785,
      "away": 1786,
      "##cept": 1787,
      "##res": 1788,
      "return": 1789,
      "allow": 1790,
      "post": 1791,
      "##ours": 1792,
      "##hel": 1793,
      "system": 1794,
      "pos": 1795,
      "red": 1796,
      "official": 1797,
      "18": 1798,
      "area": 1799,
      "##ries": 1800,
      "##ford": 1801,
      "##ready": 1802,
      "case": 1803,
      "##oci": 1804,
      "##ampions": 1805,
      "##rew": 1806,
      "fail": 1807,
      "major": 1808,
      "dep": 1809,
      "Sy": 1810,
      "death": 1811,
      "gener": 1812,
      "##idence": 1813,
      "##gy": 1814,
      "##line": 1815,
      "develop": 1816,
      "money": 1817,
      "Ger": 1818,
      "##view": 1819,
      "seen": 1820,
      "aff": 1821,
      "across": 1822,
      "inf": 1823,
      "##ession": 1824,
      "meet": 1825,
      "##lier": 1826,
      "already": 1827,
      "Pro": 1828,
      "##nes": 1829,
      "##bs": 1830,
      "proble": 1831,
      "level": 1832,
      "prom": 1833,
      "11": 1834,
      "Car": 1835,
      "decision": 1836,
      "Min": 1837,
      "##erv": 1838,
      "##field": 1839,
      "here": 1840,
      "hard": 1841,
      "##augh": 1842,
      "somet": 1843,
      "few": 1844,
      "rest": 1845,
      "days": 1846,
      "cost": 1847,
      "train": 1848,
      "person": 1849,
      "col": 1850,
      "##hester": 1851,
      "##urther": 1852,
      "rep": 1853,
      "real": 1854,
      "join": 1855,
      "ball": 1856,
      "World": 1857,
      "##enn": 1858,
      "concern": 1859,
      "women": 1860,
      "##head": 1861,
      "deb": 1862,
      "saf": 1863,
      "ins": 1864,
      "One": 1865,
      "Scottish": 1866,
      "##ually": 1867,
      "chang": 1868,
      "##ins": 1869,
      "rele": 1870,
      "##ones": 1871,
      "main": 1872,
      "prof": 1873,
      "hand": 1874,
      "##ued": 1875,
      "stand": 1876,
      "working": 1877,
      "close": 1878,
      "cap": 1879,
      "feel": 1880,
      "went": 1881,
      "##ety": 1882,
      "arr": 1883,
      "2015": 1884,
      "Par": 1885,
      "author": 1886,
      "##over": 1887,
      "##ured": 1888,
      "##utes": 1889,
      "elect": 1890,
      "turn": 1891,
      "state": 1892,
      "##be": 1893,
      "##eal": 1894,
      "never": 1895,
      "until": 1896,
      "Aust": 1897,
      "##crib": 1898,
      "having": 1899,
      "##ages": 1900,
      "expl": 1901,
      "##ience": 1902,
      "succ": 1903,
      "third": 1904,
      "given": 1905,
      "##ending": 1906,
      "David": 1907,
      "city": 1908,
      "rece": 1909,
      "sugg": 1910,
      "##ocked": 1911,
      "mat": 1912,
      "##ider": 1913,
      "previous": 1914,
      "further": 1915,
      "##stitution": 1916,
      "Sw": 1917,
      "better": 1918,
      "##quir": 1919,
      "2014": 1920,
      "##ats": 1921,
      "##ared": 1922,
      "European": 1923,
      "##enal": 1924,
      "appro": 1925,
      "Cup": 1926,
      "##ospital": 1927,
      "You": 1928,
      "Med": 1929,
      "##ission": 1930,
      "milit": 1931,
      "##iday": 1932,
      "mill": 1933,
      "stri": 1934,
      "compet": 1935,
      "leader": 1936,
      "members": 1937,
      "services": 1938,
      "che": 1939,
      "##isted": 1940,
      "##iting": 1941,
      "16": 1942,
      "##ways": 1943,
      "##ensive": 1944,
      "sim": 1945,
      "saying": 1946,
      "scor": 1947,
      "talk": 1948,
      "president": 1949,
      "##earch": 1950,
      "Gl": 1951,
      "##cess": 1952,
      "statement": 1953,
      "##ially": 1954,
      "staff": 1955,
      "##ended": 1956,
      "cut": 1957,
      "quest": 1958,
      "Cr": 1959,
      "success": 1960,
      "council": 1961,
      "##urity": 1962,
      "bro": 1963,
      "past": 1964,
      "##ived": 1965,
      "##wards": 1966,
      "##uture": 1967,
      "##ll": 1968,
      "perform": 1969,
      "died": 1970,
      "Nort": 1971,
      "power": 1972,
      "Pres": 1973,
      "inform": 1974,
      "grow": 1975,
      "Ad": 1976,
      "played": 1977,
      "points": 1978,
      "crit": 1979,
      "##iam": 1980,
      "Dr": 1981,
      "match": 1982,
      "alle": 1983,
      "early": 1984,
      "pat": 1985,
      "##ane": 1986,
      "##ided": 1987,
      "##ploy": 1988,
      "Go": 1989,
      "##orn": 1990,
      "Ed": 1991,
      "games": 1992,
      "future": 1993,
      "change": 1994,
      "est": 1995,
      "##ians": 1996,
      "##itted": 1997,
      "keep": 1998,
      "Ir": 1999,
      "av": 2000,
      "important": 2001,
      "##ient": 2002,
      "press": 2003,
      "##yn": 2004,
      "Gr": 2005,
      "sit": 2006,
      "##elt": 2007,
      "able": 2008,
      "##ocial": 2009,
      "##aced": 2010,
      "tax": 2011,
      "MP": 2012,
      "football": 2013,
      "fact": 2014,
      "impro": 2015,
      "full": 2016,
      "without": 2017,
      "lost": 2018,
      "event": 2019,
      "making": 2020,
      "qual": 2021,
      "##back": 2022,
      "chief": 2023,
      "strong": 2024,
      "short": 2025,
      "14": 2026,
      "whether": 2027,
      "thought": 2028,
      "##une": 2029,
      "Satur": 2030,
      "election": 2031,
      "chall": 2032,
      "##ress": 2033,
      "lik": 2034,
      "agre": 2035,
      "gl": 2036,
      "sever": 2037,
      "President": 2038,
      "25": 2039,
      "##ched": 2040,
      "mid": 2041,
      "13": 2042,
      "describ": 2043,
      "##ising": 2044,
      "Amer": 2045,
      "rul": 2046,
      "##ained": 2047,
      "##uge": 2048,
      "Saturday": 2049,
      "form": 2050,
      "##bn": 2051,
      "Americ": 2052,
      "adv": 2053,
      "times": 2054,
      "##ards": 2055,
      "due": 2056,
      "polic": 2057,
      "##iversity": 2058,
      "media": 2059,
      "stop": 2060,
      "##ium": 2061,
      "##thing": 2062,
      "Will": 2063,
      "point": 2064,
      "forward": 2065,
      "cond": 2066,
      "fil": 2067,
      "stru": 2068,
      "##anu": 2069,
      "Sund": 2070,
      "manager": 2071,
      "lo": 2072,
      "supported": 2073,
      "De": 2074,
      "minutes": 2075,
      "reported": 2076,
      "Austral": 2077,
      "##ected": 2078,
      "##icult": 2079,
      "##mp": 2080,
      "something": 2081,
      "fig": 2082,
      "So": 2083,
      "might": 2084,
      "Gre": 2085,
      "##ck": 2086,
      "##ecutive": 2087,
      "risk": 2088,
      "led": 2089,
      "199": 2090,
      "different": 2091,
      "##ned": 2092,
      "Syri": 2093,
      "Har": 2094,
      "North": 2095,
      "give": 2096,
      "program": 2097,
      "taking": 2098,
      "Trump": 2099,
      "17": 2100,
      "Sunday": 2101,
      "Sec": 2102,
      "His": 2103,
      "service": 2104,
      "organ": 2105,
      "ra": 2106,
      "always": 2107,
      "international": 2108,
      "device": 2109,
      "held": 2110,
      "fight": 2111,
      "partic": 2112,
      "##ention": 2113,
      "##eter": 2114,
      "##lex": 2115,
      "Wel": 2116,
      "2016": 2117,
      "##use": 2118,
      "political": 2119,
      "Manc": 2120,
      "##els": 2121,
      "##ences": 2122,
      "missed": 2123,
      "pop": 2124,
      "let": 2125,
      "##ately": 2126,
      "All": 2127,
      "##pped": 2128,
      "saved": 2129,
      "##atic": 2130,
      "difficult": 2131,
      "##iend": 2132,
      "expected": 2133,
      "Afric": 2134,
      "##ik": 2135,
      "behind": 2136,
      "##ior": 2137,
      "Me": 2138,
      "##iff": 2139,
      "based": 2140,
      "##ration": 2141,
      "##ony": 2142,
      "known": 2143,
      "friend": 2144,
      "Ju": 2145,
      "When": 2146,
      "##ried": 2147,
      "Manchester": 2148,
      "##ming": 2149,
      "ob": 2150,
      "##ittle": 2151,
      "##adio": 2152,
      "must": 2153,
      "##duct": 2154,
      "Friday": 2155,
      "done": 2156,
      "Court": 2157,
      "Sub": 2158,
      "asked": 2159,
      "##ata": 2160,
      "Wed": 2161,
      "German": 2162,
      "each": 2163,
      "Mond": 2164,
      "50": 2165,
      "met": 2166,
      "Minister": 2167,
      "Off": 2168,
      "##aun": 2169,
      "things": 2170,
      "##ording": 2171,
      "targ": 2172,
      "refer": 2173,
      "##iol": 2174,
      "sum": 2175,
      "face": 2176,
      "Wednes": 2177,
      "exp": 2178,
      "China": 2179,
      "night": 2180,
      "less": 2181,
      "national": 2182,
      "tec": 2183,
      "dist": 2184,
      "Ab": 2185,
      "Wednesday": 2186,
      "##ney": 2187,
      "den": 2188,
      "prop": 2189,
      "Cam": 2190,
      "##ims": 2191,
      "Be": 2192,
      "cer": 2193,
      "##wit": 2194,
      "continue": 2195,
      "##ably": 2196,
      "security": 2197,
      "##aly": 2198,
      "suff": 2199,
      "bit": 2200,
      "Monday": 2201,
      "##iving": 2202,
      "become": 2203,
      "sen": 2204,
      "Welsh": 2205,
      "Champions": 2206,
      "##ael": 2207,
      "##ection": 2208,
      "hum": 2209,
      "ago": 2210,
      "cre": 2211,
      "mo": 2212,
      "ahead": 2213,
      "social": 2214,
      "vote": 2215,
      "Su": 2216,
      "leaders": 2217,
      "##ald": 2218,
      "charg": 2219,
      "process": 2220,
      "earlier": 2221,
      "##raw": 2222,
      "inst": 2223,
      "within": 2224,
      "market": 2225,
      "colle": 2226,
      "along": 2227,
      "threat": 2228,
      "Northern": 2229,
      "recent": 2230,
      "spokesman": 2231,
      "Town": 2232,
      "##elling": 2233,
      "serious": 2234,
      "##itions": 2235,
      "##ases": 2236,
      "cour": 2237,
      "Media": 2238,
      "bank": 2239,
      "##though": 2240,
      "million": 2241,
      "fire": 2242,
      "##uck": 2243,
      "2013": 2244,
      "cross": 2245,
      "100": 2246,
      "##retary": 2247,
      "killed": 2248,
      "##aul": 2249,
      "Tues": 2250,
      "player": 2251,
      "sing": 2252,
      "Tuesday": 2253,
      "##ides": 2254,
      "##oor": 2255,
      "complet": 2256,
      "information": 2257,
      "fall": 2258,
      "enough": 2259,
      "Ser": 2260,
      "countries": 2261,
      "looking": 2262,
      "##ounced": 2263,
      "Am": 2264,
      "involved": 2265,
      "hope": 2266,
      "War": 2267,
      "June": 2268,
      "director": 2269,
      "Col": 2270,
      "##epend": 2271,
      "visit": 2272,
      "project": 2273,
      "March": 2274,
      "2012": 2275,
      "jud": 2276,
      "##self": 2277,
      "hist": 2278,
      "##dd": 2279,
      "underst": 2280,
      "evidence": 2281,
      "break": 2282,
      "hit": 2283,
      "little": 2284,
      "##sea": 2285,
      "small": 2286,
      "effect": 2287,
      "##af": 2288,
      "host": 2289,
      "Co": 2290,
      "heard": 2291,
      "##row": 2292,
      "##inal": 2293,
      "Janu": 2294,
      "##pite": 2295,
      "investigation": 2296,
      "##lam": 2297,
      "el": 2298,
      "saw": 2299,
      "##ench": 2300,
      "sk": 2301,
      "Prem": 2302,
      "hold": 2303,
      "hig": 2304,
      "##ple": 2305,
      "bad": 2306,
      "##liament": 2307,
      "wanted": 2308,
      "##ering": 2309,
      "seven": 2310,
      "##te": 2311,
      "Cons": 2312,
      "line": 2313,
      "National": 2314,
      "control": 2315,
      "January": 2316,
      "21": 2317,
      "action": 2318,
      "hours": 2319,
      "replaces": 2320,
      "believe": 2321,
      "exc": 2322,
      "round": 2323,
      "##ror": 2324,
      "##par": 2325,
      "##ten": 2326,
      "##ellow": 2327,
      "##orts": 2328,
      "house": 2329,
      "Thurs": 2330,
      "Thursday": 2331,
      "##ners": 2332,
      "Substitution": 2333,
      "cust": 2334,
      "weeks": 2335,
      "trav": 2336,
      "executive": 2337,
      "hospital": 2338,
      "started": 2339,
      "mom": 2340,
      "plans": 2341,
      "didn": 2342,
      "Mor": 2343,
      "Britain": 2344,
      "##most": 2345,
      "playback": 2346,
      "possible": 2347,
      "pot": 2348,
      "##akes": 2349,
      "##rid": 2350,
      "eight": 2351,
      "Ste": 2352,
      "James": 2353,
      "Apr": 2354,
      "April": 2355,
      "##here": 2356,
      "##pool": 2357,
      "mod": 2358,
      "sex": 2359,
      "live": 2360,
      "view": 2361,
      "##reet": 2362,
      "bigg": 2363,
      "##ption": 2364,
      "among": 2365,
      "Council": 2366,
      "signific": 2367,
      "blocked": 2368,
      "described": 2369,
      "Christ": 2370,
      "why": 2371,
      "##lish": 2372,
      "ens": 2373,
      "techn": 2374,
      "adm": 2375,
      "yet": 2376,
      "##ches": 2377,
      "body": 2378,
      "indust": 2379,
      "##amed": 2380,
      "likely": 2381,
      "least": 2382,
      "equ": 2383,
      "##fer": 2384,
      "##ential": 2385,
      "opport": 2386,
      "repr": 2387,
      "playing": 2388,
      "coming": 2389,
      "try": 2390,
      "After": 2391,
      "##aster": 2392,
      "several": 2393,
      "York": 2394,
      "programme": 2395,
      "##lin": 2396,
      "pros": 2397,
      "##ote": 2398,
      "##rug": 2399,
      "needed": 2400,
      "role": 2401,
      "capt": 2402,
      "tit": 2403,
      "corner": 2404,
      "22": 2405,
      "Dec": 2406,
      "##irl": 2407,
      "##ively": 2408,
      "ll": 2409,
      "Mrs": 2410,
      "Dem": 2411,
      "issue": 2412,
      "ent": 2413,
      "viol": 2414,
      "##ified": 2415,
      "Ge": 2416,
      "eas": 2417,
      "24": 2418,
      "##ama": 2419,
      "##less": 2420,
      "France": 2421,
      "bring": 2422,
      "dou": 2423,
      "treat": 2424,
      "##ocr": 2425,
      "##ology": 2426,
      "##ading": 2427,
      "##ily": 2428,
      "##hers": 2429,
      "special": 2430,
      "##ittee": 2431,
      "account": 2432,
      "seem": 2433,
      "##ai": 2434,
      "arg": 2435,
      "low": 2436,
      "eng": 2437,
      "dro": 2438,
      "term": 2439,
      "Part": 2440,
      "##omes": 2441,
      "significant": 2442,
      "Sm": 2443,
      "employ": 2444,
      "doing": 2445,
      "Count": 2446,
      "lat": 2447,
      "beat": 2448,
      "attempt": 2449,
      "##co": 2450,
      "hop": 2451,
      "bar": 2452,
      "##itor": 2453,
      "mar": 2454,
      "ever": 2455,
      "leave": 2456,
      "Ph": 2457,
      "##acy": 2458,
      "particular": 2459,
      "July": 2460,
      "repres": 2461,
      "##oyal": 2462,
      "target": 2463,
      "announced": 2464,
      "areas": 2465,
      "military": 2466,
      "community": 2467,
      "William": 2468,
      "##ducation": 2469,
      "financ": 2470,
      "clos": 2471,
      "road": 2472,
      "##ator": 2473,
      "##itive": 2474,
      "neg": 2475,
      "officers": 2476,
      "coach": 2477,
      "##..": 2478,
      "review": 2479,
      "firm": 2480,
      "Park": 2481,
      "What": 2482,
      "Mark": 2483,
      "getting": 2484,
      "trying": 2485,
      "40": 2486,
      "confir": 2487,
      "Mich": 2488,
      "using": 2489,
      "beg": 2490,
      "almost": 2491,
      "chair": 2492,
      "Conserv": 2493,
      "##inc": 2494,
      "Sept": 2495,
      "Gu": 2496,
      "net": 2497,
      "proper": 2498,
      "##ival": 2499,
      "question": 2500,
      "University": 2501,
      "Ne": 2502,
      "bene": 2503,
      "emer": 2504,
      "September": 2505,
      "23": 2506,
      "sol": 2507,
      "##eth": 2508,
      "incident": 2509,
      "##ically": 2510,
      "happened": 2511,
      "val": 2512,
      "Some": 2513,
      "00": 2514,
      "means": 2515,
      "cou": 2516,
      "tot": 2517,
      "Russia": 2518,
      "defensive": 2519,
      "conv": 2520,
      "ground": 2521,
      "foc": 2522,
      "independ": 2523,
      "impact": 2524,
      "priv": 2525,
      "##iod": 2526,
      "Paul": 2527,
      "toget": 2528,
      "laun": 2529,
      "reports": 2530,
      "Radio": 2531,
      "Her": 2532,
      "stay": 2533,
      "water": 2534,
      "ant": 2535,
      "data": 2536,
      "Bre": 2537,
      "ur": 2538,
      "land": 2539,
      "art": 2540,
      "##work": 2541,
      "Last": 2542,
      "site": 2543,
      "##ech": 2544,
      "schools": 2545,
      "##omin": 2546,
      "##aper": 2547,
      "mur": 2548,
      "Mo": 2549,
      "together": 2550,
      "contract": 2551,
      "Sport": 2552,
      "##press": 2553,
      "woman": 2554,
      "compl": 2555,
      "series": 2556,
      "##HS": 2557,
      "December": 2558,
      "sure": 2559,
      "key": 2560,
      "bill": 2561,
      "current": 2562,
      "region": 2563,
      "shown": 2564,
      "respons": 2565,
      "##my": 2566,
      "penal": 2567,
      "##gency": 2568,
      "squ": 2569,
      "##sel": 2570,
      "card": 2571,
      "ident": 2572,
      "late": 2573,
      "economy": 2574,
      "meeting": 2575,
      "##witter": 2576,
      "dead": 2577,
      "##com": 2578,
      "organis": 2579,
      "activ": 2580,
      "##mber": 2581,
      "benef": 2582,
      "##aving": 2583,
      "##ds": 2584,
      "mean": 2585,
      "susp": 2586,
      "disapp": 2587,
      "front": 2588,
      "Twitter": 2589,
      "##aged": 2590,
      "link": 2591,
      "...": 2592,
      "Ex": 2593,
      "authorities": 2594,
      "##ovember": 2595,
      "Corner": 2596,
      "November": 2597,
      "East": 2598,
      "period": 2599,
      "##idents": 2600,
      "##arge": 2601,
      "##ories": 2602,
      "Don": 2603,
      "others": 2604,
      "hear": 2605,
      "improve": 2606,
      "wing": 2607,
      "Assisted": 2608,
      "dam": 2609,
      "moment": 2610,
      "comes": 2611,
      "##bur": 2612,
      "problem": 2613,
      "Michael": 2614,
      "drug": 2615,
      "fans": 2616,
      "fac": 2617,
      "##ients": 2618,
      "Oct": 2619,
      "course": 2620,
      "order": 2621,
      "position": 2622,
      "##ober": 2623,
      "prison": 2624,
      "list": 2625,
      "strik": 2626,
      "##ett": 2627,
      "larg": 2628,
      "once": 2629,
      "Cent": 2630,
      "sold": 2631,
      "injury": 2632,
      "access": 2633,
      "##lymp": 2634,
      "consider": 2635,
      "Olymp": 2636,
      "##artment": 2637,
      "##ourn": 2638,
      "Pl": 2639,
      "occ": 2640,
      "##chie": 2641,
      "arri": 2642,
      "legal": 2643,
      "building": 2644,
      "Mid": 2645,
      "Aug": 2646,
      "##ung": 2647,
      "cover": 2648,
      "October": 2649,
      "##ulation": 2650,
      "Jones": 2651,
      "received": 2652,
      "##ening": 2653,
      "force": 2654,
      "##ender": 2655,
      "Rep": 2656,
      "##ceded": 2657,
      "2011": 2658,
      "chance": 2659,
      "sw": 2660,
      "##aud": 2661,
      "##uation": 2662,
      "currently": 2663,
      "##aps": 2664,
      "officials": 2665,
      "enter": 2666,
      "Card": 2667,
      "latest": 2668,
      "policy": 2669,
      "Australia": 2670,
      "aw": 2671,
      "##icket": 2672,
      "County": 2673,
      "critic": 2674,
      "financial": 2675,
      "test": 2676,
      "mess": 2677,
      "##ault": 2678,
      "town": 2679,
      "bott": 2680,
      "victory": 2681,
      "scored": 2682,
      "thing": 2683,
      "August": 2684,
      "Conceded": 2685,
      "class": 2686,
      "defe": 2687,
      "stage": 2688,
      "oppos": 2689,
      "198": 2690,
      "##sw": 2691,
      "became": 2692,
      "summer": 2693,
      "With": 2694,
      "figures": 2695,
      "##ached": 2696,
      "human": 2697,
      "failed": 2698,
      "released": 2699,
      "huge": 2700,
      "Pe": 2701,
      "##atives": 2702,
      "Or": 2703,
      "##selves": 2704,
      "boy": 2705,
      "Premier": 2706,
      "general": 2707,
      "##yp": 2708,
      "##mb": 2709,
      "##ented": 2710,
      "abs": 2711,
      "##cer": 2712,
      "certain": 2713,
      "##omb": 2714,
      "race": 2715,
      "enc": 2716,
      "star": 2717,
      "Not": 2718,
      "News": 2719,
      "interest": 2720,
      "ide": 2721,
      "publ": 2722,
      "issues": 2723,
      "##orters": 2724,
      "Islam": 2725,
      "include": 2726,
      "##urch": 2727,
      "NHS": 2728,
      "began": 2729,
      "##istan": 2730,
      "##ivid": 2731,
      "economic": 2732,
      "showed": 2733,
      "forces": 2734,
      "cann": 2735,
      "goals": 2736,
      "Chel": 2737,
      "challen": 2738,
      "##ators": 2739,
      "Feb": 2740,
      "ple": 2741,
      "girl": 2742,
      "meas": 2743,
      "yn": 2744,
      "accused": 2745,
      "##ruary": 2746,
      "February": 2747,
      "webs": 2748,
      "Tur": 2749,
      "French": 2750,
      "today": 2751,
      "##asing": 2752,
      "Sam": 2753,
      "##ature": 2754,
      "changes": 2755,
      "##sc": 2756,
      "Char": 2757,
      "##rought": 2758,
      "according": 2759,
      "quick": 2760,
      "##0s": 2761,
      "member": 2762,
      "infl": 2763,
      "Championship": 2764,
      "##iers": 2765,
      "##ape": 2766,
      "pressure": 2767,
      "##ym": 2768,
      "needs": 2769,
      "wa": 2770,
      "often": 2771,
      "##ring": 2772,
      "##ron": 2773,
      "##que": 2774,
      "deliver": 2775,
      "accept": 2776,
      "Alex": 2777,
      "##ze": 2778,
      "gave": 2779,
      "Liver": 2780,
      "mor": 2781,
      "performance": 2782,
      "increase": 2783,
      "step": 2784,
      "mus": 2785,
      "India": 2786,
      "Africa": 2787,
      "custom": 2788,
      "mother": 2789,
      "vide": 2790,
      "story": 2791,
      "biggest": 2792,
      "coll": 2793,
      "detail": 2794,
      "problems": 2795,
      "ensure": 2796,
      "reb": 2797,
      "Two": 2798,
      "trial": 2799,
      "arrested": 2800,
      "##arm": 2801,
      "board": 2802,
      "Geor": 2803,
      "##lands": 2804,
      "ap": 2805,
      "Black": 2806,
      "large": 2807,
      "##anned": 2808,
      "requ": 2809,
      "heart": 2810,
      "rather": 2811,
      "Mart": 2812,
      "##ract": 2813,
      "attacks": 2814,
      "Syria": 2815,
      "achie": 2816,
      "##anies": 2817,
      "Sir": 2818,
      "Liverpool": 2819,
      "##ibility": 2820,
      "provide": 2821,
      "##bert": 2822,
      "##ler": 2823,
      "lear": 2824,
      "groups": 2825,
      "lim": 2826,
      "Prof": 2827,
      "quite": 2828,
      "ed": 2829,
      "Rob": 2830,
      "fore": 2831,
      "although": 2832,
      "##ivil": 2833,
      "##cast": 2834,
      "avail": 2835,
      "Can": 2836,
      "My": 2837,
      "##fully": 2838,
      "##anger": 2839,
      "Res": 2840,
      "##ither": 2841,
      "init": 2842,
      "discuss": 2843,
      "charge": 2844,
      "paid": 2845,
      "funding": 2846,
      "winning": 2847,
      "brought": 2848,
      "Chris": 2849,
      "book": 2850,
      "commun": 2851,
      "Pal": 2852,
      "##vir": 2853,
      "career": 2854,
      "appeal": 2855,
      "##iber": 2856,
      "Road": 2857,
      "title": 2858,
      "league": 2859,
      "##uty": 2860,
      "Cardiff": 2861,
      "cand": 2862,
      "##ey": 2863,
      "understand": 2864,
      "history": 2865,
      "design": 2866,
      "terror": 2867,
      "contact": 2868,
      "IS": 2869,
      "##ilar": 2870,
      "No": 2871,
      "Just": 2872,
      "Smith": 2873,
      "broad": 2874,
      "training": 2875,
      "age": 2876,
      "glob": 2877,
      "2010": 2878,
      "relations": 2879,
      "worked": 2880,
      "education": 2881,
      "Russian": 2882,
      "industry": 2883,
      "carry": 2884,
      "Dan": 2885,
      "Thom": 2886,
      "Ben": 2887,
      "research": 2888,
      "spent": 2889,
      "companies": 2890,
      "rights": 2891,
      "##ades": 2892,
      "##ought": 2893,
      "running": 2894,
      "concerns": 2895,
      "extra": 2896,
      "##viron": 2897,
      "previously": 2898,
      "Camer": 2899,
      "##ights": 2900,
      "despite": 2901,
      "quar": 2902,
      "nine": 2903,
      "Ear": 2904,
      "##pton": 2905,
      "##eds": 2906,
      "tre": 2907,
      "extrem": 2908,
      "27": 2909,
      "safety": 2910,
      "House": 2911,
      "terms": 2912,
      "online": 2913,
      "food": 2914,
      "##ike": 2915,
      "##irc": 2916,
      "26": 2917,
      "loss": 2918,
      "##spect": 2919,
      "reach": 2920,
      "Tom": 2921,
      "Peter": 2922,
      "situation": 2923,
      "name": 2924,
      "alleg": 2925,
      "inquir": 2926,
      "##book": 2927,
      "##ece": 2928,
      "wrong": 2929,
      "squad": 2930,
      "##han": 2931,
      "believed": 2932,
      "pick": 2933,
      "El": 2934,
      "ord": 2935,
      "##elled": 2936,
      "experience": 2937,
      "results": 2938,
      "suggest": 2939,
      "families": 2940,
      "##ST": 2941,
      "American": 2942,
      "##ains": 2943,
      "range": 2944,
      "28": 2945,
      "candid": 2946,
      "To": 2947,
      "looked": 2948,
      "Nor": 2949,
      "lives": 2950,
      "ste": 2951,
      "Irish": 2952,
      "##avour": 2953,
      "growth": 2954,
      "##iding": 2955,
      "available": 2956,
      "individ": 2957,
      "##lect": 2958,
      "##rict": 2959,
      "towards": 2960,
      "jobs": 2961,
      "##ox": 2962,
      "TV": 2963,
      "prob": 2964,
      "challenge": 2965,
      "remains": 2966,
      "carried": 2967,
      "film": 2968,
      "Te": 2969,
      "Republic": 2970,
      "##ush": 2971,
      "##ociation": 2972,
      "##vironment": 2973,
      "cho": 2974,
      "bas": 2975,
      "total": 2976,
      "bottom": 2977,
      "sect": 2978,
      "murder": 2979,
      "##oud": 2980,
      "##oti": 2981,
      "seek": 2982,
      "McC": 2983,
      "sport": 2984,
      "##ability": 2985,
      "felt": 2986,
      "Germany": 2987,
      "##order": 2988,
      "capital": 2989,
      "mot": 2990,
      "share": 2991,
      "anyone": 2992,
      "##ogn": 2993,
      "boss": 2994,
      "##itting": 2995,
      "strugg": 2996,
      "watch": 2997,
      "cannot": 2998,
      "cy": 2999,
      "whole": 3000,
      "website": 3001,
      "Lord": 3002,
      "opportunity": 3003,
      "mass": 3004,
      "walk": 3005,
      "##edd": 3006,
      "penalty": 3007,
      "##key": 3008,
      "agreed": 3009,
      "sche": 3010,
      "MPs": 3011,
      "##xit": 3012,
      "tour": 3013,
      "protect": 3014,
      "##imate": 3015,
      "##lor": 3016,
      "parents": 3017,
      "##yr": 3018,
      "cases": 3019,
      "north": 3020,
      "##raft": 3021,
      "##endum": 3022,
      "shar": 3023,
      "attacking": 3024,
      "father": 3025,
      "potential": 3026,
      "Hol": 3027,
      "rise": 3028,
      "amb": 3029,
      "##ger": 3030,
      "##ges": 3031,
      "##uries": 3032,
      "himself": 3033,
      "##de": 3034,
      "super": 3035,
      "civil": 3036,
      "defence": 3037,
      "Brexit": 3038,
      "Face": 3039,
      "deter": 3040,
      "Ob": 3041,
      "claims": 3042,
      "similar": 3043,
      "patients": 3044,
      "##ousands": 3045,
      "Ham": 3046,
      "Rich": 3047,
      "Mus": 3048,
      "wants": 3049,
      "fear": 3050,
      "Mal": 3051,
      "amount": 3052,
      "##aught": 3053,
      "address": 3054,
      "senior": 3055,
      "trust": 3056,
      "500": 3057,
      "victims": 3058,
      "##itness": 3059,
      "reve": 3060,
      "##oman": 3061,
      "foreign": 3062,
      "everyone": 3063,
      "BST": 3064,
      "ener": 3065,
      "draw": 3066,
      "soon": 3067,
      "##MT": 3068,
      "offer": 3069,
      "##itional": 3070,
      "Facebook": 3071,
      "Williams": 3072,
      "teams": 3073,
      "intro": 3074,
      "finish": 3075,
      "fre": 3076,
      "##ream": 3077,
      "confirmed": 3078,
      "vol": 3079,
      "agency": 3080,
      "Party": 3081,
      "referendum": 3082,
      "poor": 3083,
      "##aled": 3084,
      "Mad": 3085,
      "orig": 3086,
      "Jon": 3087,
      "claimed": 3088,
      "comment": 3089,
      "living": 3090,
      "##erry": 3091,
      "single": 3092,
      "##hic": 3093,
      "ends": 3094,
      "##go": 3095,
      "Lu": 3096,
      "More": 3097,
      "couple": 3098,
      "Union": 3099,
      "safe": 3100,
      "respect": 3101,
      "Street": 3102,
      "##ops": 3103,
      "kind": 3104,
      "alleged": 3105,
      "Dep": 3106,
      "English": 3107,
      "helped": 3108,
      "##eder": 3109,
      "##duced": 3110,
      "const": 3111,
      "Acc": 3112,
      "exam": 3113,
      "favour": 3114,
      "product": 3115,
      "##hest": 3116,
      "##ugh": 3117,
      "Royal": 3118,
      "##yan": 3119,
      "yellow": 3120,
      "##for": 3121,
      "Mer": 3122,
      "##por": 3123,
      "##lo": 3124,
      "##ental": 3125,
      "track": 3126,
      "opposition": 3127,
      "##oke": 3128,
      "recogn": 3129,
      "##ises": 3130,
      "##igr": 3131,
      "##ander": 3132,
      "someone": 3133,
      "##ination": 3134,
      "rate": 3135,
      "focus": 3136,
      "##eper": 3137,
      "wel": 3138,
      "dev": 3139,
      "minute": 3140,
      "Chelsea": 3141,
      "Cameron": 3142,
      "##ef": 3143,
      "pred": 3144,
      "##ugby": 3145,
      "majority": 3146,
      "anything": 3147,
      "development": 3148,
      "vehic": 3149,
      "##ify": 3150,
      "##den": 3151,
      "##ruct": 3152,
      "officer": 3153,
      "leading": 3154,
      "nothing": 3155,
      "##rain": 3156,
      "disappoin": 3157,
      "pract": 3158,
      "video": 3159,
      "trade": 3160,
      "##ired": 3161,
      "danger": 3162,
      "##ilt": 3163,
      "Commission": 3164,
      "##ari": 3165,
      "While": 3166,
      "doub": 3167,
      "recently": 3168,
      "Matt": 3169,
      "office": 3170,
      "whose": 3171,
      "fell": 3172,
      "tell": 3173,
      "circ": 3174,
      "##icated": 3175,
      "197": 3176,
      "##adem": 3177,
      "##inn": 3178,
      "##enced": 3179,
      "global": 3180,
      "son": 3181,
      "themselves": 3182,
      "negoti": 3183,
      "Que": 3184,
      "##aur": 3185,
      "imm": 3186,
      "caused": 3187,
      "prime": 3188,
      "longer": 3189,
      "included": 3190,
      "students": 3191,
      "energy": 3192,
      "hon": 3193,
      "##ead": 3194,
      "committee": 3195,
      "investment": 3196,
      "higher": 3197,
      "gone": 3198,
      "##ston": 3199,
      "##onse": 3200,
      "bud": 3201,
      "workers": 3202,
      "demand": 3203,
      "##wood": 3204,
      "##dle": 3205,
      "##ements": 3206,
      "Glas": 3207,
      "##ampion": 3208,
      "anti": 3209,
      "aver": 3210,
      "light": 3211,
      "Com": 3212,
      "##hile": 3213,
      "ban": 3214,
      "lack": 3215,
      "closed": 3216,
      "weekend": 3217,
      "probably": 3218,
      "Jack": 3219,
      "##eleb": 3220,
      "opening": 3221,
      "estab": 3222,
      "35": 3223,
      "##raz": 3224,
      "##come": 3225,
      "defeat": 3226,
      "##ills": 3227,
      "morning": 3228,
      "##isc": 3229,
      "Man": 3230,
      "##gow": 3231,
      "##ecess": 3232,
      "29": 3233,
      "quarter": 3234,
      "matter": 3235,
      "##overed": 3236,
      "parliament": 3237,
      "Wil": 3238,
      "pict": 3239,
      "High": 3240,
      "aut": 3241,
      "response": 3242,
      "denied": 3243,
      "progress": 3244,
      "Sim": 3245,
      "friends": 3246,
      "propos": 3247,
      "Democr": 3248,
      "allowed": 3249,
      "study": 3250,
      "Pat": 3251,
      "George": 3252,
      "charges": 3253,
      "makes": 3254,
      "##bour": 3255,
      "joined": 3256,
      "fourth": 3257,
      "affected": 3258,
      "Glasgow": 3259,
      "heav": 3260,
      "##int": 3261,
      "##lement": 3262,
      "##ournal": 3263,
      "These": 3264,
      "##raph": 3265,
      "represent": 3266,
      "raised": 3267,
      "phot": 3268,
      "batt": 3269,
      "everything": 3270,
      "inside": 3271,
      "twe": 3272,
      "##ert": 3273,
      "injured": 3274,
      "rout": 3275,
      "spot": 3276,
      "Port": 3277,
      "lif": 3278,
      "##itch": 3279,
      "private": 3280,
      "##imb": 3281,
      "admitted": 3282,
      "moved": 3283,
      "##ined": 3284,
      "UN": 3285,
      "##yl": 3286,
      "talks": 3287,
      "interview": 3288,
      "actually": 3289,
      "treatment": 3290,
      "personal": 3291,
      "Association": 3292,
      "poll": 3293,
      "turned": 3294,
      "suspect": 3295,
      "published": 3296,
      "##fort": 3297,
      "reason": 3298,
      "##while": 3299,
      "else": 3300,
      "continued": 3301,
      "##rop": 3302,
      "teac": 3303,
      "tw": 3304,
      "debate": 3305,
      "events": 3306,
      "##inese": 3307,
      "begin": 3308,
      "cred": 3309,
      "field": 3310,
      "black": 3311,
      "chairman": 3312,
      "celeb": 3313,
      "##medi": 3314,
      "inquiry": 3315,
      "deep": 3316,
      "Our": 3317,
      "thousands": 3318,
      "##iant": 3319,
      "champion": 3320,
      "suffered": 3321,
      "##ils": 3322,
      "##aughter": 3323,
      "##ully": 3324,
      "non": 3325,
      "##joy": 3326,
      "aim": 3327,
      "wide": 3328,
      "##igg": 3329,
      "##ension": 3330,
      "cris": 3331,
      "##hold": 3332,
      "Kore": 3333,
      "typ": 3334,
      "consult": 3335,
      "Fir": 3336,
      "conditions": 3337,
      "profession": 3338,
      "tried": 3339,
      "respond": 3340,
      "leaving": 3341,
      "signed": 3342,
      "Mon": 3343,
      "appeared": 3344,
      "Phil": 3345,
      "##ural": 3346,
      "decided": 3347,
      "##uel": 3348,
      "disp": 3349,
      "happy": 3350,
      "rules": 3351,
      "price": 3352,
      "##ocu": 3353,
      "music": 3354,
      "##ication": 3355,
      "fun": 3356,
      "##undred": 3357,
      "##ya": 3358,
      "injuries": 3359,
      "Far": 3360,
      "##unt": 3361,
      "particularly": 3362,
      "dest": 3363,
      "Chinese": 3364,
      "##now": 3365,
      "parties": 3366,
      "Secretary": 3367,
      "costs": 3368,
      "competition": 3369,
      "tourn": 3370,
      "##osing": 3371,
      "##icester": 3372,
      "##yd": 3373,
      "Mil": 3374,
      "matches": 3375,
      "produ": 3376,
      "warned": 3377,
      "wrote": 3378,
      "abuse": 3379,
      "McG": 3380,
      "##uing": 3381,
      "##aker": 3382,
      "award": 3383,
      "enjoy": 3384,
      "present": 3385,
      "scheme": 3386,
      "Spe": 3387,
      "tem": 3388,
      "##bor": 3389,
      "secretary": 3390,
      "midfield": 3391,
      "Leicester": 3392,
      "oil": 3393,
      "Bank": 3394,
      "violence": 3395,
      "appoin": 3396,
      "div": 3397,
      "Conservative": 3398,
      "##oon": 3399,
      "crisis": 3400,
      "Ang": 3401,
      "contrib": 3402,
      "##apan": 3403,
      "shows": 3404,
      "opt": 3405,
      "Office": 3406,
      "##yle": 3407,
      "hour": 3408,
      "pain": 3409,
      "Ira": 3410,
      "redu": 3411,
      "doesn": 3412,
      "happen": 3413,
      "requir": 3414,
      "##ks": 3415,
      "idea": 3416,
      "Japan": 3417,
      "south": 3418,
      "Iraq": 3419,
      "captain": 3420,
      "##20": 3421,
      "##uff": 3422,
      "suggested": 3423,
      "King": 3424,
      "crim": 3425,
      "Martin": 3426,
      "##cel": 3427,
      "GMT": 3428,
      "average": 3429,
      "2017": 3430,
      "takes": 3431,
      "born": 3432,
      "Bir": 3433,
      "gold": 3434,
      "bod": 3435,
      "En": 3436,
      "##ae": 3437,
      "##angers": 3438,
      "followed": 3439,
      "##ij": 3440,
      "room": 3441,
      "numbers": 3442,
      "homes": 3443,
      "##adium": 3444,
      "challeng": 3445,
      "Health": 3446,
      "immedi": 3447,
      "prior": 3448,
      "quality": 3449,
      "operation": 3450,
      "60": 3451,
      "conn": 3452,
      "##ars": 3453,
      "cause": 3454,
      "##ample": 3455,
      "Ev": 3456,
      "45": 3457,
      "Jer": 3458,
      "##vious": 3459,
      "ill": 3460,
      "assist": 3461,
      "emb": 3462,
      "Bel": 3463,
      "##agn": 3464,
      "##ources": 3465,
      "##oid": 3466,
      "encour": 3467,
      "header": 3468,
      "By": 3469,
      "caught": 3470,
      "surv": 3471,
      "##burgh": 3472,
      "##rael": 3473,
      "table": 3474,
      "Andrew": 3475,
      "surpr": 3476,
      "Intern": 3477,
      "relationship": 3478,
      "##icted": 3479,
      "allegations": 3480,
      "docu": 3481,
      "Step": 3482,
      "environment": 3483,
      "increasing": 3484,
      "spending": 3485,
      "levels": 3486,
      "People": 3487,
      "##read": 3488,
      "union": 3489,
      "Israel": 3490,
      "Follow": 3491,
      "##athan": 3492,
      "Lib": 3493,
      "fair": 3494,
      "##ipp": 3495,
      "nation": 3496,
      "tel": 3497,
      "gun": 3498,
      "customers": 3499,
      "hous": 3500,
      "technology": 3501,
      "approach": 3502,
      "read": 3503,
      "cult": 3504,
      "border": 3505,
      "##ociety": 3506,
      "either": 3507,
      "tro": 3508,
      "separ": 3509,
      "agreement": 3510,
      "##ees": 3511,
      "##ule": 3512,
      "trad": 3513,
      "31": 3514,
      "search": 3515,
      "anim": 3516,
      "supporters": 3517,
      "jail": 3518,
      "buy": 3519,
      "Celt": 3520,
      "##ole": 3521,
      "check": 3522,
      "##ounter": 3523,
      "peace": 3524,
      "love": 3525,
      "##ris": 3526,
      "##iter": 3527,
      "Des": 3528,
      "tack": 3529,
      "##asons": 3530,
      "##brid": 3531,
      "Green": 3532,
      "Wood": 3533,
      "doct": 3534,
      "##ply": 3535,
      "##sey": 3536,
      "Adam": 3537,
      "Ars": 3538,
      "##pond": 3539,
      "Edin": 3540,
      "finished": 3541,
      "park": 3542,
      "phone": 3543,
      "##mar": 3544,
      "Iran": 3545,
      "named": 3546,
      "medical": 3547,
      "##gn": 3548,
      "attract": 3549,
      "space": 3550,
      "ey": 3551,
      "##vey": 3552,
      "creat": 3553,
      "appl": 3554,
      "##ounce": 3555,
      "##ilty": 3556,
      "##owers": 3557,
      "2009": 3558,
      "##ows": 3559,
      "Ke": 3560,
      "assault": 3561,
      "Mac": 3562,
      "Em": 3563,
      "wife": 3564,
      "Many": 3565,
      "create": 3566,
      "crime": 3567,
      "##using": 3568,
      "Paris": 3569,
      "##umb": 3570,
      "Nig": 3571,
      "##well": 3572,
      "Olympic": 3573,
      "independent": 3574,
      "nearly": 3575,
      "Now": 3576,
      "meant": 3577,
      "absol": 3578,
      "##aging": 3579,
      "wind": 3580,
      "##body": 3581,
      "##astic": 3582,
      "knew": 3583,
      "##ada": 3584,
      "##ends": 3585,
      "Sk": 3586,
      "Prime": 3587,
      "Wat": 3588,
      "forced": 3589,
      "foul": 3590,
      "guilty": 3591,
      "norm": 3592,
      "Gar": 3593,
      "State": 3594,
      "parts": 3595,
      "2008": 3596,
      "journal": 3597,
      "##avi": 3598,
      "##ging": 3599,
      "runs": 3600,
      "ended": 3601,
      "pull": 3602,
      "##str": 3603,
      "##idge": 3604,
      "Brown": 3605,
      "questions": 3606,
      "%.": 3607,
      "aged": 3608,
      "Of": 3609,
      "Govern": 3610,
      "##isions": 3611,
      "Celtic": 3612,
      "reform": 3613,
      "comb": 3614,
      "celebr": 3615,
      "popular": 3616,
      "champions": 3617,
      "##val": 3618,
      "##ilities": 3619,
      "##ana": 3620,
      "station": 3621,
      "positive": 3622,
      "misses": 3623,
      "quickly": 3624,
      "subject": 3625,
      "launched": 3626,
      "Del": 3627,
      "bomb": 3628,
      "Pak": 3629,
      "aud": 3630,
      "##cial": 3631,
      "hot": 3632,
      "Edinburgh": 3633,
      "##owd": 3634,
      "sel": 3635,
      "network": 3636,
      "Red": 3637,
      "White": 3638,
      "sector": 3639,
      "charity": 3640,
      "travel": 3641,
      "scene": 3642,
      "Musl": 3643,
      "changed": 3644,
      "built": 3645,
      "##isl": 3646,
      "worth": 3647,
      "tournament": 3648,
      "politic": 3649,
      "##leg": 3650,
      "upd": 3651,
      "strate": 3652,
      "sexual": 3653,
      "##olution": 3654,
      "tweet": 3655,
      "pup": 3656,
      "passeng": 3657,
      "charged": 3658,
      "migr": 3659,
      "sat": 3660,
      "calls": 3661,
      "judge": 3662,
      "Fer": 3663,
      "visitors": 3664,
      "consum": 3665,
      "inn": 3666,
      "##mark": 3667,
      "Rovers": 3668,
      "exist": 3669,
      "places": 3670,
      "hundred": 3671,
      "answ": 3672,
      "wasn": 3673,
      "businesses": 3674,
      "rev": 3675,
      "##ighted": 3676,
      "Pakistan": 3677,
      "Air": 3678,
      "Aber": 3679,
      "increased": 3680,
      "International": 3681,
      "lower": 3682,
      "##igration": 3683,
      "budget": 3684,
      "brother": 3685,
      "adding": 3686,
      "##ications": 3687,
      "##ex": 3688,
      "##reen": 3689,
      "stopp": 3690,
      "Mean": 3691,
      "score": 3692,
      "example": 3693,
      "missing": 3694,
      "sales": 3695,
      "Richard": 3696,
      "##iet": 3697,
      "##oming": 3698,
      "effort": 3699,
      "Parliament": 3700,
      "fighting": 3701,
      "Ath": 3702,
      "##sequ": 3703,
      "growing": 3704,
      "##ny": 3705,
      "##where": 3706,
      "##letic": 3707,
      "##spec": 3708,
      "consid": 3709,
      "Meanwhile": 3710,
      "hearing": 3711,
      "Thomas": 3712,
      "##istol": 3713,
      "comments": 3714,
      "Bro": 3715,
      "phys": 3716,
      "commission": 3717,
      "First": 3718,
      "estim": 3719,
      "Group": 3720,
      "conduct": 3721,
      "sil": 3722,
      "##estern": 3723,
      "Ryan": 3724,
      "winner": 3725,
      "coal": 3726,
      "prices": 3727,
      "Bur": 3728,
      "##ceed": 3729,
      "##ties": 3730,
      "##osh": 3731,
      "Mill": 3732,
      "##gu": 3733,
      "Crown": 3734,
      "message": 3735,
      "regul": 3736,
      "Arsenal": 3737,
      "##otion": 3738,
      "##emi": 3739,
      "Lee": 3740,
      "bid": 3741,
      "admin": 3742,
      "Hamil": 3743,
      "ath": 3744,
      "clubs": 3745,
      "Hamilton": 3746,
      "Tay": 3747,
      "bur": 3748,
      "driving": 3749,
      "highest": 3750,
      "?\"": 3751,
      "##ites": 3752,
      "commit": 3753,
      "newsp": 3754,
      "believes": 3755,
      "offered": 3756,
      "##alys": 3757,
      "Net": 3758,
      "##stitute": 3759,
      "confer": 3760,
      "influ": 3761,
      "letter": 3762,
      "##ease": 3763,
      "details": 3764,
      "Braz": 3765,
      "reached": 3766,
      "cle": 3767,
      "displ": 3768,
      "hol": 3769,
      "strike": 3770,
      "assess": 3771,
      "Department": 3772,
      "##lus": 3773,
      "returned": 3774,
      "App": 3775,
      "emergency": 3776,
      "bow": 3777,
      "kept": 3778,
      "largest": 3779,
      "Great": 3780,
      "##respond": 3781,
      "Obama": 3782,
      "loan": 3783,
      "cal": 3784,
      "sett": 3785,
      "##urt": 3786,
      "Belf": 3787,
      "figure": 3788,
      "##ona": 3789,
      "reject": 3790,
      "revealed": 3791,
      "##specially": 3792,
      "fix": 3793,
      "central": 3794,
      "engine": 3795,
      "##ola": 3796,
      "##angu": 3797,
      "placed": 3798,
      "##rey": 3799,
      "Dun": 3800,
      "above": 3801,
      "mob": 3802,
      "Half": 3803,
      "lawy": 3804,
      "driver": 3805,
      "witness": 3806,
      "reduc": 3807,
      "##ruption": 3808,
      "Uk": 3809,
      "weap": 3810,
      "##ese": 3811,
      "Qu": 3812,
      "gen": 3813,
      "196": 3814,
      "Other": 3815,
      "fly": 3816,
      "Swan": 3817,
      "victim": 3818,
      "##band": 3819,
      "complain": 3820,
      "itself": 3821,
      "tough": 3822,
      "##ma": 3823,
      "stren": 3824,
      "Belfast": 3825,
      "Brazil": 3826,
      "##fact": 3827,
      "##inson": 3828,
      "prevent": 3829,
      "however": 3830,
      "##bury": 3831,
      "regular": 3832,
      "shoot": 3833,
      "##mingham": 3834,
      "Davies": 3835,
      "Law": 3836,
      "fast": 3837,
      "Under": 3838,
      "Syrian": 3839,
      "##acing": 3840,
      "rates": 3841,
      "mater": 3842,
      "speak": 3843,
      "created": 3844,
      "pi": 3845,
      "##ara": 3846,
      "concerned": 3847,
      "Turkey": 3848,
      "achieve": 3849,
      "wear": 3850,
      "Ross": 3851,
      "##km": 3852,
      "##urray": 3853,
      "elections": 3854,
      "Birmingham": 3855,
      "32": 3856,
      "##rap": 3857,
      "athlet": 3858,
      "pun": 3859,
      "Rangers": 3860,
      "mis": 3861,
      "committed": 3862,
      "especially": 3863,
      "##ips": 3864,
      "##esh": 3865,
      "##lict": 3866,
      "confidence": 3867,
      "self": 3868,
      "##inary": 3869,
      "##semb": 3870,
      "Bristol": 3871,
      "opened": 3872,
      "refuge": 3873,
      "measures": 3874,
      "Do": 3875,
      "Queen": 3876,
      "dism": 3877,
      "announce": 3878,
      "Test": 3879,
      "cuts": 3880,
      "population": 3881,
      "eur": 3882,
      "##ih": 3883,
      "Charl": 3884,
      "simply": 3885,
      "giving": 3886,
      "Hospital": 3887,
      "value": 3888,
      "charac": 3889,
      "Per": 3890,
      "cancer": 3891,
      "compared": 3892,
      "##iction": 3893,
      "##enham": 3894,
      "##illa": 3895,
      "rank": 3896,
      "streng": 3897,
      "Murray": 3898,
      "criminal": 3899,
      "ready": 3900,
      "prosecut": 3901,
      "successful": 3902,
      "considered": 3903,
      "##NP": 3904,
      "Johnson": 3905,
      "Brad": 3906,
      "managed": 3907,
      "page": 3908,
      "Lew": 3909,
      "planning": 3910,
      "collect": 3911,
      "sides": 3912,
      "##eck": 3913,
      "ministers": 3914,
      "gas": 3915,
      "##IP": 3916,
      "striker": 3917,
      "shop": 3918,
      "Both": 3919,
      "##amb": 3920,
      "works": 3921,
      "drugs": 3922,
      "il": 3923,
      "Der": 3924,
      "transfer": 3925,
      "conference": 3926,
      "##utely": 3927,
      "fif": 3928,
      "recomm": 3929,
      "Speaking": 3930,
      "conflict": 3931,
      "##itiz": 3932,
      "##airs": 3933,
      "react": 3934,
      "miles": 3935,
      "Swansea": 3936,
      "behavi": 3937,
      "email": 3938,
      "repe": 3939,
      "FA": 3940,
      "pan": 3941,
      "neigh": 3942,
      "Jord": 3943,
      "##ift": 3944,
      "##ots": 3945,
      "Nick": 3946,
      "blood": 3947,
      "Ber": 3948,
      "##abb": 3949,
      "experi": 3950,
      "##anding": 3951,
      "legisl": 3952,
      "damage": 3953,
      "hands": 3954,
      "leadership": 3955,
      "##itten": 3956,
      "##aded": 3957,
      "Earlier": 3958,
      "ow": 3959,
      "Was": 3960,
      "hor": 3961,
      "goes": 3962,
      "##ho": 3963,
      "midfielder": 3964,
      "pret": 3965,
      "America": 3966,
      "Yorkshire": 3967,
      "save": 3968,
      "##ource": 3969,
      "partners": 3970,
      "##gent": 3971,
      "##ps": 3972,
      "Ukrain": 3973,
      "##add": 3974,
      "##atory": 3975,
      "dog": 3976,
      "esc": 3977,
      "##urb": 3978,
      "Every": 3979,
      "organisation": 3980,
      "##ograph": 3981,
      "Service": 3982,
      "##earc": 3983,
      "Taylor": 3984,
      "unc": 3985,
      "##uclear": 3986,
      "Joe": 3987,
      "block": 3988,
      "traff": 3989,
      "Bo": 3990,
      "Val": 3991,
      "speech": 3992,
      "Liber": 3993,
      "rob": 3994,
      "##rian": 3995,
      "Trust": 3996,
      "##atures": 3997,
      "states": 3998,
      "African": 3999,
      "remember": 4000,
      "fully": 4001,
      "decl": 4002,
      "provided": 4003,
      "Italy": 4004,
      "##vent": 4005,
      "flight": 4006,
      "bab": 4007,
      "Australian": 4008,
      "demon": 4009,
      "Stephen": 4010,
      "white": 4011,
      "arrived": 4012,
      "illeg": 4013,
      "##bridge": 4014,
      "langu": 4015,
      "semi": 4016,
      "cru": 4017,
      "Islamic": 4018,
      "Goal": 4019,
      "sense": 4020,
      "behaviour": 4021,
      "express": 4022,
      "debut": 4023,
      "rugby": 4024,
      "daughter": 4025,
      "stra": 4026,
      "necess": 4027,
      "##night": 4028,
      "##roy": 4029,
      "##ored": 4030,
      "##ibly": 4031,
      "maintain": 4032,
      "Alb": 4033,
      "dangerous": 4034,
      "justice": 4035,
      "##uses": 4036,
      "##agh": 4037,
      "Foot": 4038,
      "Ox": 4039,
      "prep": 4040,
      "SNP": 4041,
      "fifth": 4042,
      "individual": 4043,
      "##ask": 4044,
      "resc": 4045,
      "op": 4046,
      "domin": 4047,
      "residents": 4048,
      "twice": 4049,
      "planned": 4050,
      "Jam": 4051,
      "property": 4052,
      "trib": 4053,
      "vill": 4054,
      "administ": 4055,
      "##cl": 4056,
      "users": 4057,
      "pack": 4058,
      "##istry": 4059,
      "##udd": 4060,
      "Bay": 4061,
      "east": 4062,
      "##ews": 4063,
      "efforts": 4064,
      "##ode": 4065,
      "seems": 4066,
      "##ells": 4067,
      "treated": 4068,
      "Second": 4069,
      "##haps": 4070,
      "defend": 4071,
      "Government": 4072,
      "lose": 4073,
      "avoid": 4074,
      "moving": 4075,
      "##men": 4076,
      "drink": 4077,
      "##erve": 4078,
      "70": 4079,
      "Day": 4080,
      "Inst": 4081,
      "correspond": 4082,
      "professional": 4083,
      "crash": 4084,
      "fem": 4085,
      "certainly": 4086,
      "vir": 4087,
      "##isation": 4088,
      "##sembly": 4089,
      "##vert": 4090,
      "##ken": 4091,
      "release": 4092,
      "##ellig": 4093,
      "highl": 4094,
      "battle": 4095,
      "##uted": 4096,
      "date": 4097,
      "Games": 4098,
      "##byn": 4099,
      "secure": 4100,
      "condition": 4101,
      "Spain": 4102,
      "chances": 4103,
      "##ude": 4104,
      "mist": 4105,
      "remo": 4106,
      "Arab": 4107,
      "mental": 4108,
      "nuclear": 4109,
      "Ash": 4110,
      "##aves": 4111,
      "bat": 4112,
      "##woman": 4113,
      "Robert": 4114,
      "passed": 4115,
      "mind": 4116,
      "Ken": 4117,
      "slow": 4118,
      "Cal": 4119,
      "absolutely": 4120,
      "common": 4121,
      "##aily": 4122,
      "raise": 4123,
      "According": 4124,
      "losing": 4125,
      "entire": 4126,
      "##ghan": 4127,
      "scient": 4128,
      "Offic": 4129,
      "complete": 4130,
      "ang": 4131,
      "mult": 4132,
      "##wich": 4133,
      "##istic": 4134,
      "##eg": 4135,
      "33": 4136,
      "##phy": 4137,
      "##of": 4138,
      "##irth": 4139,
      "Old": 4140,
      "Hall": 4141,
      "##ico": 4142,
      "comput": 4143,
      "annual": 4144,
      "criticised": 4145,
      "er": 4146,
      "##imum": 4147,
      "Sal": 4148,
      "##ruction": 4149,
      "##omen": 4150,
      "cars": 4151,
      "80": 4152,
      "citiz": 4153,
      "Former": 4154,
      "linked": 4155,
      "##rim": 4156,
      "resign": 4157,
      "extremely": 4158,
      "##utions": 4159,
      "pers": 4160,
      "regard": 4161,
      "aware": 4162,
      "fant": 4163,
      "pair": 4164,
      "confident": 4165,
      "##urd": 4166,
      "calling": 4167,
      "alongside": 4168,
      "##ydd": 4169,
      "Athletic": 4170,
      "boost": 4171,
      "flood": 4172,
      "counter": 4173,
      "responsible": 4174,
      "##ashed": 4175,
      "Aberde": 4176,
      "Mos": 4177,
      "Korea": 4178,
      "Sch": 4179,
      "appearances": 4180,
      "##utin": 4181,
      "##yond": 4182,
      "Hill": 4183,
      "##rovers": 4184,
      "##ickets": 4185,
      "##mes": 4186,
      "management": 4187,
      "##ffield": 4188,
      "##mit": 4189,
      "instead": 4190,
      "##apt": 4191,
      "Daniel": 4192,
      "backed": 4193,
      "required": 4194,
      "##abin": 4195,
      "politics": 4196,
      "paper": 4197,
      "west": 4198,
      "dom": 4199,
      "Sheffield": 4200,
      "Jordan": 4201,
      "Ever": 4202,
      "row": 4203,
      "34": 4204,
      "straight": 4205,
      "##rick": 4206,
      "har": 4207,
      "pupils": 4208,
      "thr": 4209,
      "Det": 4210,
      "Justice": 4211,
      "material": 4212,
      "includes": 4213,
      "##sex": 4214,
      "scr": 4215,
      "Def": 4216,
      "Dund": 4217,
      "powers": 4218,
      "continues": 4219,
      "cash": 4220,
      "##encies": 4221,
      "##rif": 4222,
      "Open": 4223,
      "kid": 4224,
      "Although": 4225,
      "reduce": 4226,
      "hundreds": 4227,
      "Zeal": 4228,
      "receive": 4229,
      "36": 4230,
      "School": 4231,
      "crowd": 4232,
      "benefit": 4233,
      "300": 4234,
      "sust": 4235,
      "clean": 4236,
      "Rio": 4237,
      "starting": 4238,
      "Match": 4239,
      "equal": 4240,
      "##aith": 4241,
      "Bor": 4242,
      "newspaper": 4243,
      "##castle": 4244,
      "2007": 4245,
      "##oms": 4246,
      "controvers": 4247,
      "##mond": 4248,
      "##force": 4249,
      "Che": 4250,
      "##oted": 4251,
      "dropped": 4252,
      "defender": 4253,
      "university": 4254,
      "relig": 4255,
      "##hol": 4256,
      "gather": 4257,
      "##mouth": 4258,
      "income": 4259,
      "Football": 4260,
      "issued": 4261,
      "authority": 4262,
      "benefits": 4263,
      "Gra": 4264,
      "Act": 4265,
      "sens": 4266,
      "ver": 4267,
      "Corbyn": 4268,
      "Grand": 4269,
      "Vict": 4270,
      "rock": 4271,
      "bal": 4272,
      "Afghan": 4273,
      "pretty": 4274,
      "During": 4275,
      "affect": 4276,
      "##aries": 4277,
      "Real": 4278,
      "obvious": 4279,
      "Another": 4280,
      "fine": 4281,
      "sports": 4282,
      "completely": 4283,
      "birth": 4284,
      "drive": 4285,
      "clearly": 4286,
      "Ul": 4287,
      "communities": 4288,
      "##unities": 4289,
      "Steve": 4290,
      "ruling": 4291,
      "candidate": 4292,
      "insp": 4293,
      "movement": 4294,
      "launch": 4295,
      "ways": 4296,
      "pitch": 4297,
      "heavy": 4298,
      "Despite": 4299,
      "voters": 4300,
      "written": 4301,
      "vo": 4302,
      "##outhern": 4303,
      "coalition": 4304,
      "easy": 4305,
      "owners": 4306,
      "Burn": 4307,
      "##ecution": 4308,
      "finals": 4309,
      "transport": 4310,
      "hopes": 4311,
      "##CC": 4312,
      "##rupt": 4313,
      "occas": 4314,
      "##keeper": 4315,
      "##raig": 4316,
      "##alled": 4317,
      "Newcastle": 4318,
      "beyond": 4319,
      "throughout": 4320,
      "##ani": 4321,
      "Andy": 4322,
      "##evin": 4323,
      "Sur": 4324,
      "army": 4325,
      "hosts": 4326,
      "Mag": 4327,
      "laws": 4328,
      "speed": 4329,
      "##useum": 4330,
      "tal": 4331,
      "Fin": 4332,
      "##ize": 4333,
      "##odd": 4334,
      "##aren": 4335,
      "ability": 4336,
      "##anny": 4337,
      "faced": 4338,
      "Indian": 4339,
      "Since": 4340,
      "##ifying": 4341,
      "girls": 4342,
      "proud": 4343,
      "Committee": 4344,
      "partner": 4345,
      "##beat": 4346,
      "evening": 4347,
      "##stances": 4348,
      "facing": 4349,
      "defin": 4350,
      "double": 4351,
      "elected": 4352,
      "reflect": 4353,
      "exact": 4354,
      "wid": 4355,
      "coast": 4356,
      "airport": 4357,
      "##reg": 4358,
      "rule": 4359,
      "Carl": 4360,
      "Lo": 4361,
      "Evans": 4362,
      "##overy": 4363,
      "histor": 4364,
      "overall": 4365,
      "withd": 4366,
      "suspic": 4367,
      "song": 4368,
      "grant": 4369,
      "ren": 4370,
      "sell": 4371,
      "pus": 4372,
      "##ples": 4373,
      "determin": 4374,
      "Zealand": 4375,
      "academ": 4376,
      "Clin": 4377,
      "firms": 4378,
      "Met": 4379,
      "ruled": 4380,
      "wat": 4381,
      "pet": 4382,
      "internet": 4383,
      "Lewis": 4384,
      "touch": 4385,
      "##ille": 4386,
      "voted": 4387,
      "dismiss": 4388,
      "##ellor": 4389,
      "port": 4390,
      "##estic": 4391,
      "##alyst": 4392,
      "responsibility": 4393,
      "Their": 4394,
      "Niger": 4395,
      "ran": 4396,
      "via": 4397,
      "wond": 4398,
      "Dar": 4399,
      "##ns": 4400,
      "teen": 4401,
      "Derby": 4402,
      "##ayed": 4403,
      "rail": 4404,
      "massive": 4405,
      "words": 4406,
      "difference": 4407,
      "##ounds": 4408,
      "Donald": 4409,
      "unf": 4410,
      "##ishing": 4411,
      "##wick": 4412,
      "decisions": 4413,
      "Leeds": 4414,
      "Bill": 4415,
      "##ino": 4416,
      "##ighters": 4417,
      "mobile": 4418,
      "helping": 4419,
      "accident": 4420,
      "obs": 4421,
      "##elligence": 4422,
      "uns": 4423,
      "operations": 4424,
      "Sar": 4425,
      "advice": 4426,
      "'.": 4427,
      "##ancy": 4428,
      "Hum": 4429,
      "researc": 4430,
      "spoke": 4431,
      "##nel": 4432,
      "##ctions": 4433,
      "tries": 4434,
      "hus": 4435,
      "Notting": 4436,
      "farm": 4437,
      "sentence": 4438,
      "dig": 4439,
      "##aining": 4440,
      "Franc": 4441,
      "##het": 4442,
      "stories": 4443,
      "##ouncill": 4444,
      "circum": 4445,
      "greater": 4446,
      "Aberdeen": 4447,
      "cricket": 4448,
      "##amer": 4449,
      "killing": 4450,
      "becoming": 4451,
      "Oxford": 4452,
      "##ique": 4453,
      "90": 4454,
      "grand": 4455,
      "Os": 4456,
      "Madrid": 4457,
      "language": 4458,
      "##hew": 4459,
      "##igan": 4460,
      "Jonathan": 4461,
      "minor": 4462,
      "choice": 4463,
      "politicians": 4464,
      "##atal": 4465,
      "##illed": 4466,
      "standards": 4467,
      "door": 4468,
      "activity": 4469,
      "society": 4470,
      "produc": 4471,
      "rap": 4472,
      "##stone": 4473,
      "Nottingham": 4474,
      "##going": 4475,
      "broke": 4476,
      "##aches": 4477,
      "##mas": 4478,
      "standing": 4479,
      "Gener": 4480,
      "Tim": 4481,
      "sn": 4482,
      "seconds": 4483,
      "identified": 4484,
      "production": 4485,
      "##eed": 4486,
      "##ification": 4487,
      "speaking": 4488,
      "talking": 4489,
      "##emy": 4490,
      "vers": 4491,
      "character": 4492,
      "##edom": 4493,
      "doubt": 4494,
      "Kevin": 4495,
      "establish": 4496,
      "Ac": 4497,
      "Steven": 4498,
      "van": 4499,
      "##riate": 4500,
      "putting": 4501,
      "##olf": 4502,
      "female": 4503,
      "migrants": 4504,
      "Craig": 4505,
      "sort": 4506,
      "stress": 4507,
      "##uk": 4508,
      "impress": 4509,
      "##ground": 4510,
      "##adow": 4511,
      "reasons": 4512,
      "Sl": 4513,
      "Bol": 4514,
      "##cher": 4515,
      "Camp": 4516,
      "deaths": 4517,
      "##estival": 4518,
      "prim": 4519,
      "##antage": 4520,
      "register": 4521,
      "seats": 4522,
      "suspended": 4523,
      "demonstr": 4524,
      "looks": 4525,
      "stopped": 4526,
      "sal": 4527,
      "unable": 4528,
      "##ulner": 4529,
      "##rit": 4530,
      "carrying": 4531,
      "##uit": 4532,
      "waiting": 4533,
      "fellow": 4534,
      "Conn": 4535,
      "##orter": 4536,
      "tweeted": 4537,
      "##iled": 4538,
      "UKIP": 4539,
      "##berg": 4540,
      "jour": 4541,
      "normal": 4542,
      "reven": 4543,
      "estimated": 4544,
      "crew": 4545,
      "Church": 4546,
      "Cong": 4547,
      "##onald": 4548,
      "##bo": 4549,
      "400": 4550,
      "Centre": 4551,
      "independence": 4552,
      "##oph": 4553,
      "survey": 4554,
      "Even": 4555,
      "proposed": 4556,
      "san": 4557,
      "scoring": 4558,
      "apolog": 4559,
      "Simon": 4560,
      "##olk": 4561,
      "analys": 4562,
      "sites": 4563,
      "Conservatives": 4564,
      "Som": 4565,
      "honour": 4566,
      "##kins": 4567,
      "fantastic": 4568,
      "husband": 4569,
      "seeing": 4570,
      "protest": 4571,
      "scale": 4572,
      "spokeswoman": 4573,
      "inspect": 4574,
      "refused": 4575,
      "ded": 4576,
      "Dundee": 4577,
      "teachers": 4578,
      "mov": 4579,
      "rad": 4580,
      "vulner": 4581,
      "learn": 4582,
      "object": 4583,
      "fit": 4584,
      "eventually": 4585,
      "remaining": 4586,
      "worst": 4587,
      "base": 4588,
      "##ram": 4589,
      "housing": 4590,
      "##to": 4591,
      "Str": 4592,
      "Rh": 4593,
      "restrict": 4594,
      "##ager": 4595,
      "boys": 4596,
      "spend": 4597,
      "soft": 4598,
      "incred": 4599,
      "couldn": 4600,
      "products": 4601,
      "Chief": 4602,
      "modern": 4603,
      "vehicle": 4604,
      "tests": 4605,
      "recru": 4606,
      "##arian": 4607,
      "##lied": 4608,
      "weapons": 4609,
      "legislation": 4610,
      "bail": 4611,
      "Trans": 4612,
      "original": 4613,
      "drivers": 4614,
      "##ware": 4615,
      "department": 4616,
      "##itz": 4617,
      "Down": 4618,
      "require": 4619,
      "Gary": 4620,
      "hom": 4621,
      "telev": 4622,
      "designed": 4623,
      "struck": 4624,
      "banks": 4625,
      "proposals": 4626,
      "passengers": 4627,
      "unli": 4628,
      "stre": 4629,
      "recorded": 4630,
      "Fl": 4631,
      "Pri": 4632,
      "##ancellor": 4633,
      "discovered": 4634,
      "aid": 4635,
      "##sy": 4636,
      "Tre": 4637,
      "disease": 4638,
      "Fif": 4639,
      "introduced": 4640,
      "rejected": 4641,
      "correspondent": 4642,
      "##ini": 4643,
      "##aut": 4644,
      "FC": 4645,
      "removed": 4646,
      "feeling": 4647,
      "Feder": 4648,
      "##hampton": 4649,
      "Clinton": 4650,
      "States": 4651,
      "bird": 4652,
      "illegal": 4653,
      "Ian": 4654,
      "actions": 4655,
      "Belg": 4656,
      "clin": 4657,
      "##right": 4658,
      "##craft": 4659,
      "oppon": 4660,
      "tackle": 4661,
      "##oz": 4662,
      "##abinet": 4663,
      "lic": 4664,
      "##olled": 4665,
      "##cester": 4666,
      "Je": 4667,
      "Sen": 4668,
      "##ymru": 4669,
      "shock": 4670,
      "Hull": 4671,
      "democr": 4672,
      "pur": 4673,
      "troops": 4674,
      "Home": 4675,
      "complex": 4676,
      "protests": 4677,
      "separate": 4678,
      "perhaps": 4679,
      "experts": 4680,
      "document": 4681,
      "##hire": 4682,
      "La": 4683,
      "mount": 4684,
      "alone": 4685,
      "true": 4686,
      "Danny": 4687,
      "##rie": 4688,
      "Everton": 4689,
      "pled": 4690,
      "repeated": 4691,
      "sea": 4692,
      "welcom": 4693,
      "related": 4694,
      "Hart": 4695,
      "##rief": 4696,
      "##illing": 4697,
      "urged": 4698,
      "Muslim": 4699,
      "Saud": 4700,
      "votes": 4701,
      "Jamie": 4702,
      "practice": 4703,
      "announcement": 4704,
      "##entially": 4705,
      "decades": 4706,
      "eth": 4707,
      "mag": 4708,
      "##enty": 4709,
      "mix": 4710,
      "shared": 4711,
      "Nic": 4712,
      "Nations": 4713,
      "armed": 4714,
      "##oo": 4715,
      "immediately": 4716,
      "manu": 4717,
      "specific": 4718,
      "##pping": 4719,
      "##minster": 4720,
      "soldiers": 4721,
      "##iles": 4722,
      "##erved": 4723,
      "Tott": 4724,
      "##ampton": 4725,
      "weather": 4726,
      "highly": 4727,
      "depart": 4728,
      "councils": 4729,
      "picture": 4730,
      "opportunities": 4731,
      "##atural": 4732,
      "und": 4733,
      "below": 4734,
      "remained": 4735,
      "harm": 4736,
      "wild": 4737,
      "fle": 4738,
      "citizens": 4739,
      "##ception": 4740,
      "Christmas": 4741,
      "Most": 4742,
      "owner": 4743,
      "manufact": 4744,
      "##omatic": 4745,
      "##gypt": 4746,
      "##agues": 4747,
      "Ll": 4748,
      "38": 4749,
      "Western": 4750,
      "explained": 4751,
      "General": 4752,
      "presidential": 4753,
      "Over": 4754,
      "monitor": 4755,
      "bodies": 4756,
      "supply": 4757,
      "Ram": 4758,
      "seeking": 4759,
      "island": 4760,
      "Josh": 4761,
      "banned": 4762,
      "Its": 4763,
      "jury": 4764,
      "ul": 4765,
      "Shar": 4766,
      "domestic": 4767,
      "circumstances": 4768,
      "37": 4769,
      "%,": 4770,
      "attacked": 4771,
      "credit": 4772,
      "75": 4773,
      "Egypt": 4774,
      "thank": 4775,
      "Tal": 4776,
      "##fect": 4777,
      "myself": 4778,
      "Jim": 4779,
      "aircraft": 4780,
      "Jud": 4781,
      "negotiations": 4782,
      "protection": 4783,
      "##vest": 4784,
      "candidates": 4785,
      "drop": 4786,
      "##TV": 4787,
      "frust": 4788,
      "completed": 4789,
      "disappointed": 4790,
      "Tod": 4791,
      "seat": 4792,
      "attention": 4793,
      "mer": 4794,
      "trou": 4795,
      "Clar": 4796,
      "Tottenham": 4797,
      "Ukraine": 4798,
      "Colle": 4799,
      "Mic": 4800,
      "48": 4801,
      "rose": 4802,
      "##icit": 4803,
      "advantage": 4804,
      "existing": 4805,
      "bed": 4806,
      "isn": 4807,
      "Ros": 4808,
      "Palace": 4809,
      "climate": 4810,
      "##amous": 4811,
      "produced": 4812,
      "status": 4813,
      "sle": 4814,
      "##ense": 4815,
      "sale": 4816,
      "##itc": 4817,
      "Barcel": 4818,
      "origin": 4819,
      "##arily": 4820,
      "wall": 4821,
      "Barcelona": 4822,
      "##uals": 4823,
      "vehicles": 4824,
      "offences": 4825,
      "struct": 4826,
      "convicted": 4827,
      "bought": 4828,
      "##bc": 4829,
      "agree": 4830,
      "additional": 4831,
      "Super": 4832,
      "doctors": 4833,
      "hoped": 4834,
      "overse": 4835,
      "conclud": 4836,
      "remark": 4837,
      "lived": 4838,
      "piece": 4839,
      "arrest": 4840,
      "challenges": 4841,
      "sad": 4842,
      "##irk": 4843,
      "weak": 4844,
      "expert": 4845,
      "wait": 4846,
      "pil": 4847,
      "##na": 4848,
      "thinking": 4849,
      "basis": 4850,
      "55": 4851,
      "##berts": 4852,
      "middle": 4853,
      "Mex": 4854,
      "##oned": 4855,
      "intelligence": 4856,
      "neighbour": 4857,
      "posted": 4858,
      "images": 4859,
      "Forest": 4860,
      "2006": 4861,
      "##utch": 4862,
      "commer": 4863,
      "attend": 4864,
      "corruption": 4865,
      "wider": 4866,
      "##ci": 4867,
      "##rect": 4868,
      "markets": 4869,
      "joint": 4870,
      "goalkeeper": 4871,
      "strategy": 4872,
      "retail": 4873,
      "##lets": 4874,
      "flag": 4875,
      "involve": 4876,
      "Comp": 4877,
      "street": 4878,
      "##rial": 4879,
      "Rod": 4880,
      "Six": 4881,
      "radio": 4882,
      "##ovic": 4883,
      "initially": 4884,
      "plant": 4885,
      "continuing": 4886,
      "2005": 4887,
      "Today": 4888,
      "route": 4889,
      "necessary": 4890,
      "content": 4891,
      "decide": 4892,
      "Women": 4893,
      "##iser": 4894,
      "gets": 4895,
      "##hib": 4896,
      "culture": 4897,
      "Good": 4898,
      "broadcast": 4899,
      "##ensions": 4900,
      "seriously": 4901,
      "##rawn": 4902,
      "Christian": 4903,
      "Neil": 4904,
      "mach": 4905,
      "Westminster": 4906,
      "##dale": 4907,
      "Ant": 4908,
      "Three": 4909,
      "ult": 4910,
      "##room": 4911,
      "Ital": 4912,
      "argu": 4913,
      "argued": 4914,
      "Victor": 4915,
      "##itals": 4916,
      "##ogle": 4917,
      "##asc": 4918,
      "##SP": 4919,
      "##emb": 4920,
      "failure": 4921,
      "##annel": 4922,
      "sometimes": 4923,
      "Kenn": 4924,
      "##arr": 4925,
      "fired": 4926,
      "gives": 4927,
      "asking": 4928,
      "##ennis": 4929,
      "served": 4930,
      "##wall": 4931,
      "arrang": 4932,
      "Morgan": 4933,
      "mort": 4934,
      "wouldn": 4935,
      "Roberts": 4936,
      "student": 4937,
      "views": 4938,
      "millions": 4939,
      "critical": 4940,
      "##illy": 4941,
      "##edi": 4942,
      "brain": 4943,
      "surround": 4944,
      "Greece": 4945,
      "shares": 4946,
      "Washing": 4947,
      "faces": 4948,
      "##apped": 4949,
      "skills": 4950,
      "Commons": 4951,
      "Cook": 4952,
      "Washington": 4953,
      "Tony": 4954,
      "motor": 4955,
      "Tra": 4956,
      "Alan": 4957,
      "owned": 4958,
      "insur": 4959,
      "Es": 4960,
      "answer": 4961,
      "Hen": 4962,
      "##ca": 4963,
      "baby": 4964,
      "militants": 4965,
      "warning": 4966,
      "findings": 4967,
      "strikes": 4968,
      "cast": 4969,
      "send": 4970,
      "headed": 4971,
      "reduced": 4972,
      "traffic": 4973,
      "##ha": 4974,
      "vital": 4975,
      "Hear": 4976,
      "releg": 4977,
      "##ledge": 4978,
      "Those": 4979,
      "Why": 4980,
      "Olympics": 4981,
      "##orry": 4982,
      "tim": 4983,
      "nearby": 4984,
      "Sun": 4985,
      "bbc": 4986,
      "##ica": 4987,
      "##geon": 4988,
      "amaz": 4989,
      "po": 4990,
      "camer": 4991,
      "providing": 4992,
      "Den": 4993,
      "source": 4994,
      "type": 4995,
      "Canada": 4996,
      "vulnerable": 4997,
      "##orrow": 4998,
      "flat": 4999,
      "administration": 5000,
      "systems": 5001,
      "criticism": 5002,
      "plane": 5003,
      "perm": 5004,
      "Cymru": 5005,
      "arch": 5006,
      "finally": 5007,
      "prepar": 5008,
      "subst": 5009,
      "band": 5010,
      "adult": 5011,
      "65": 5012,
      "##ivals": 5013,
      "deputy": 5014,
      "causing": 5015,
      "journey": 5016,
      "explos": 5017,
      "inqu": 5018,
      "Er": 5019,
      "princ": 5020,
      "immigration": 5021,
      "physical": 5022,
      "researchers": 5023,
      "showing": 5024,
      "convers": 5025,
      "ordered": 5026,
      "holding": 5027,
      "##uct": 5028,
      "##gl": 5029,
      "trip": 5030,
      "surg": 5031,
      "##abor": 5032,
      "Times": 5033,
      "perfect": 5034,
      "commitment": 5035,
      "##iple": 5036,
      "Saudi": 5037,
      "unit": 5038,
      "Marc": 5039,
      "plat": 5040,
      "dark": 5041,
      "##imately": 5042,
      "Mu": 5043,
      "haven": 5044,
      "prem": 5045,
      "##anda": 5046,
      "policies": 5047,
      "television": 5048,
      "Google": 5049,
      "Team": 5050,
      "Luc": 5051,
      "Gold": 5052,
      "medal": 5053,
      "Ulster": 5054,
      "AF": 5055,
      "##ocal": 5056,
      "profit": 5057,
      "Angel": 5058,
      "editor": 5059,
      "##yc": 5060,
      "##borough": 5061,
      "From": 5062,
      "Albion": 5063,
      "unp": 5064,
      "sched": 5065,
      "Ag": 5066,
      "targeted": 5067,
      "Stadium": 5068,
      "travelling": 5069,
      "Dev": 5070,
      "wonder": 5071,
      "Hug": 5072,
      "size": 5073,
      "##aching": 5074,
      "Harry": 5075,
      "##oles": 5076,
      "altern": 5077,
      "##acked": 5078,
      "earn": 5079,
      "College": 5080,
      "Sol": 5081,
      "rival": 5082,
      "lawyer": 5083,
      "nort": 5084,
      "44": 5085,
      "##standing": 5086,
      "##arious": 5087,
      "Tor": 5088,
      "display": 5089,
      "Cast": 5090,
      "195": 5091,
      "updated": 5092,
      "limited": 5093,
      "##ki": 5094,
      "afford": 5095,
      "##akers": 5096,
      "spread": 5097,
      "loved": 5098,
      "##down": 5099,
      "powerful": 5100,
      "##lined": 5101,
      "Sil": 5102,
      "rac": 5103,
      "patient": 5104,
      "##anded": 5105,
      "Mike": 5106,
      "changing": 5107,
      "Swed": 5108,
      "beaten": 5109,
      "##rol": 5110,
      "##arant": 5111,
      "organisations": 5112,
      "welcomed": 5113,
      "Hel": 5114,
      "43": 5115,
      "rising": 5116,
      "accounts": 5117,
      "Pet": 5118,
      "jump": 5119,
      "##hood": 5120,
      "##ula": 5121,
      "prepared": 5122,
      "funds": 5123,
      "opin": 5124,
      "comfort": 5125,
      "rebels": 5126,
      "cur": 5127,
      "nomin": 5128,
      "##set": 5129,
      "##istle": 5130,
      "contest": 5131,
      "ep": 5132,
      "refugees": 5133,
      "whom": 5134,
      "individuals": 5135,
      "signing": 5136,
      "regional": 5137,
      "sister": 5138,
      "establ": 5139,
      "Ma": 5140,
      "Southampton": 5141,
      "##ili": 5142,
      "##caster": 5143,
      "##iders": 5144,
      "Sing": 5145,
      "appears": 5146,
      "##burn": 5147,
      "broken": 5148,
      "implement": 5149,
      "##ua": 5150,
      "terrorism": 5151,
      "Matthew": 5152,
      "##olved": 5153,
      "famous": 5154,
      "profile": 5155,
      "shortly": 5156,
      "##cohol": 5157,
      "handed": 5158,
      "delighted": 5159,
      "##anch": 5160,
      "cities": 5161,
      "investigating": 5162,
      "conserv": 5163,
      "ones": 5164,
      "suffering": 5165,
      "resources": 5166,
      "Liam": 5167,
      "stadium": 5168,
      "appointed": 5169,
      "debt": 5170,
      "exactly": 5171,
      "option": 5172,
      "developed": 5173,
      "##ospitals": 5174,
      "surf": 5175,
      "associ": 5176,
      "rain": 5177,
      "decade": 5178,
      "Republican": 5179,
      "youth": 5180,
      "welcome": 5181,
      "Wall": 5182,
      "smart": 5183,
      "##ping": 5184,
      "village": 5185,
      "Boy": 5186,
      "promised": 5187,
      "Wilson": 5188,
      "suggests": 5189,
      "serve": 5190,
      "knows": 5191,
      "##ological": 5192,
      "exch": 5193,
      "appoint": 5194,
      "appar": 5195,
      "cerem": 5196,
      "Agency": 5197,
      "Sunder": 5198,
      "accepted": 5199,
      "stock": 5200,
      "approp": 5201,
      "(£": 5202,
      "Fifa": 5203,
      "picked": 5204,
      "projects": 5205,
      "42": 5206,
      "McL": 5207,
      "eye": 5208,
      "Sunderland": 5209,
      "operating": 5210,
      "Find": 5211,
      "wearing": 5212,
      "Moham": 5213,
      "##wy": 5214,
      "Sand": 5215,
      "brief": 5216,
      "##itely": 5217,
      "apply": 5218,
      "pace": 5219,
      "northern": 5220,
      "##ports": 5221,
      "Then": 5222,
      "##eree": 5223,
      "meaning": 5224,
      "Child": 5225,
      "##acity": 5226,
      "beginning": 5227,
      "##ato": 5228,
      "##ructure": 5229,
      "incidents": 5230,
      "consist": 5231,
      "##person": 5232,
      "established": 5233,
      "Club": 5234,
      "ongoing": 5235,
      "##eless": 5236,
      "appearance": 5237,
      "guid": 5238,
      "##ads": 5239,
      "guarant": 5240,
      "initial": 5241,
      "Tour": 5242,
      "GP": 5243,
      "##UP": 5244,
      "cat": 5245,
      "##apers": 5246,
      "Frank": 5247,
      "prompt": 5248,
      "canc": 5249,
      "luck": 5250,
      "analyst": 5251,
      "##know": 5252,
      "pictures": 5253,
      "Apple": 5254,
      "##0m": 5255,
      "Jose": 5256,
      "fraud": 5257,
      "priority": 5258,
      "prospect": 5259,
      "41": 5260,
      "gap": 5261,
      "##acking": 5262,
      "names": 5263,
      "strength": 5264,
      "##kely": 5265,
      "Jeremy": 5266,
      "electric": 5267,
      "Villa": 5268,
      "##certain": 5269,
      "cop": 5270,
      "entertain": 5271,
      "platform": 5272,
      "brill": 5273,
      "animals": 5274,
      "Clarke": 5275,
      "keen": 5276,
      "Sky": 5277,
      "##iership": 5278,
      "falling": 5279,
      "influence": 5280,
      "constit": 5281,
      "##va": 5282,
      "##riage": 5283,
      "##anced": 5284,
      "pulled": 5285,
      "##ero": 5286,
      "vac": 5287,
      "athletes": 5288,
      "##ipl": 5289,
      "unlikely": 5290,
      "pleased": 5291,
      "assembly": 5292,
      "Any": 5293,
      "Kar": 5294,
      "sound": 5295,
      "bigger": 5296,
      "Abd": 5297,
      "crimes": 5298,
      "cyc": 5299,
      "effective": 5300,
      "directly": 5301,
      "streets": 5302,
      "replaced": 5303,
      "request": 5304,
      "##atively": 5305,
      "style": 5306,
      "Italian": 5307,
      "##ena": 5308,
      "finding": 5309,
      "Cro": 5310,
      "seemed": 5311,
      "particip": 5312,
      "features": 5313,
      "##issions": 5314,
      "##oral": 5315,
      "amazing": 5316,
      "##ized": 5317,
      "limit": 5318,
      "experienced": 5319,
      "##enders": 5320,
      "model": 5321,
      "Bus": 5322,
      "Fore": 5323,
      "Mur": 5324,
      "Liberal": 5325,
      "supporting": 5326,
      "purs": 5327,
      "##rast": 5328,
      "governments": 5329,
      "Press": 5330,
      "burn": 5331,
      "der": 5332,
      "39": 5333,
      "Art": 5334,
      "acknow": 5335,
      "buildings": 5336,
      "Wol": 5337,
      "adds": 5338,
      "dedicated": 5339,
      "push": 5340,
      "shut": 5341,
      "attended": 5342,
      "Ali": 5343,
      "McD": 5344,
      "Premiership": 5345,
      "dress": 5346,
      "audience": 5347,
      "cabinet": 5348,
      "swit": 5349,
      "duty": 5350,
      "##icient": 5351,
      "##unte": 5352,
      "alcohol": 5353,
      "Ah": 5354,
      "swe": 5355,
      "worse": 5356,
      "traditional": 5357,
      "computer": 5358,
      "Sher": 5359,
      "##ulance": 5360,
      "interests": 5361,
      "options": 5362,
      "5m": 5363,
      "ton": 5364,
      "##pson": 5365,
      "colleagues": 5366,
      "custody": 5367,
      "recommend": 5368,
      "religious": 5369,
      "Lanc": 5370,
      "hoping": 5371,
      "doll": 5372,
      "selling": 5373,
      "alb": 5374,
      "surgery": 5375,
      "image": 5376,
      "measure": 5377,
      "##umn": 5378,
      "jailed": 5379,
      "gra": 5380,
      "introdu": 5381,
      "amid": 5382,
      "bringing": 5383,
      ");": 5384,
      "2018": 5385,
      "nature": 5386,
      "slight": 5387,
      "failing": 5388,
      "aftern": 5389,
      "Stu": 5390,
      "Sus": 5391,
      "destroy": 5392,
      "##icle": 5393,
      "sixth": 5394,
      "councill": 5395,
      "##ems": 5396,
      "sentenced": 5397,
      "##ores": 5398,
      "consequ": 5399,
      "##ube": 5400,
      "spokesperson": 5401,
      "keeping": 5402,
      "diagn": 5403,
      "Hay": 5404,
      "##elly": 5405,
      "commercial": 5406,
      "##andal": 5407,
      "Stoke": 5408,
      "2004": 5409,
      "shooting": 5410,
      "spir": 5411,
      "catch": 5412,
      "##erc": 5413,
      "##icide": 5414,
      "ship": 5415,
      "##elfare": 5416,
      "##ipped": 5417,
      "##iance": 5418,
      "green": 5419,
      "##ogan": 5420,
      "county": 5421,
      "rescue": 5422,
      "Im": 5423,
      "emerged": 5424,
      "Foreign": 5425,
      "##rastructure": 5426,
      "univers": 5427,
      "ir": 5428,
      "chem": 5429,
      "##omp": 5430,
      "##ighton": 5431,
      "Wimb": 5432,
      "increasingly": 5433,
      "hotel": 5434,
      "delivered": 5435,
      "paying": 5436,
      "##itation": 5437,
      "ess": 5438,
      "##alling": 5439,
      "afternoon": 5440,
      "Reg": 5441,
      "Sain": 5442,
      "##egr": 5443,
      "panel": 5444,
      "##hi": 5445,
      "maybe": 5446,
      "tempor": 5447,
      "reality": 5448,
      "##ume": 5449,
      "Work": 5450,
      "##ecast": 5451,
      "expressed": 5452,
      "##oking": 5453,
      "##ledon": 5454,
      "##inho": 5455,
      "Brom": 5456,
      "##bon": 5457,
      "Wimbledon": 5458,
      "##essor": 5459,
      "album": 5460,
      "potentially": 5461,
      "partnership": 5462,
      "Argent": 5463,
      "rivals": 5464,
      "dipl": 5465,
      "Turk": 5466,
      "awarded": 5467,
      "##lig": 5468,
      "##aine": 5469,
      "##edy": 5470,
      "word": 5471,
      "signs": 5472,
      "##oper": 5473,
      "Anth": 5474,
      "devast": 5475,
      "##ength": 5476,
      "store": 5477,
      "constitution": 5478,
      "deg": 5479,
      "secret": 5480,
      "various": 5481,
      "##ables": 5482,
      "struggling": 5483,
      "involving": 5484,
      "Lou": 5485,
      "brilliant": 5486,
      "natural": 5487,
      "##bit": 5488,
      "Newport": 5489,
      "Invest": 5490,
      "Young": 5491,
      "Bang": 5492,
      "##cent": 5493,
      "About": 5494,
      "payments": 5495,
      "winners": 5496,
      "##sych": 5497,
      "Miss": 5498,
      "uncertain": 5499,
      "47": 5500,
      "2003": 5501,
      "capacity": 5502,
      "Mun": 5503,
      "fort": 5504,
      "reportedly": 5505,
      "primary": 5506,
      "##ayer": 5507,
      "ven": 5508,
      "##wyn": 5509,
      "##house": 5510,
      "46": 5511,
      "Bu": 5512,
      "older": 5513,
      "Read": 5514,
      "Afghanistan": 5515,
      "##itude": 5516,
      "science": 5517,
      "conced": 5518,
      "telling": 5519,
      "targets": 5520,
      "##ban": 5521,
      "##zz": 5522,
      "Cambridge": 5523,
      "responded": 5524,
      "consultation": 5525,
      "path": 5526,
      "proved": 5527,
      "pra": 5528,
      "Kent": 5529,
      "teacher": 5530,
      "jun": 5531,
      "##ria": 5532,
      "learning": 5533,
      "##ijing": 5534,
      "##istics": 5535,
      "Beijing": 5536,
      "focused": 5537,
      "##ateg": 5538,
      "questioned": 5539,
      "controversial": 5540,
      "##ais": 5541,
      "194": 5542,
      "Wander": 5543,
      "impl": 5544,
      "advert": 5545,
      "Luke": 5546,
      "Rec": 5547,
      "##ici": 5548,
      "Stuart": 5549,
      "Anthony": 5550,
      "##ubb": 5551,
      "disappear": 5552,
      "understood": 5553,
      "Ow": 5554,
      "allowing": 5555,
      "dream": 5556,
      "Inter": 5557,
      "closely": 5558,
      "Wanderers": 5559,
      "##ayers": 5560,
      "improved": 5561,
      "##ador": 5562,
      "pension": 5563,
      "Jul": 5564,
      "surprise": 5565,
      "determined": 5566,
      "Following": 5567,
      "holiday": 5568,
      "arm": 5569,
      "tight": 5570,
      "freedom": 5571,
      "length": 5572,
      "##care": 5573,
      "##atever": 5574,
      "##orders": 5575,
      "dire": 5576,
      "Who": 5577,
      "risks": 5578,
      "watching": 5579,
      "Institute": 5580,
      "fallen": 5581,
      "insisted": 5582,
      "##News": 5583,
      "##ality": 5584,
      "mate": 5585,
      "approved": 5586,
      "##SE": 5587,
      "Reading": 5588,
      "follows": 5589,
      "##vention": 5590,
      "setting": 5591,
      "##oping": 5592,
      "equip": 5593,
      "Kh": 5594,
      "generation": 5595,
      "Security": 5596,
      "messages": 5597,
      "##adi": 5598,
      "perman": 5599,
      "constitu": 5600,
      "##eston": 5601,
      "denies": 5602,
      "happens": 5603,
      "Norwich": 5604,
      "##ked": 5605,
      "immediate": 5606,
      "scen": 5607,
      "Fre": 5608,
      "Gall": 5609,
      "largely": 5610,
      "nations": 5611,
      "temper": 5612,
      "widely": 5613,
      "standard": 5614,
      "appropriate": 5615,
      "joining": 5616,
      "Span": 5617,
      "inquest": 5618,
      "addition": 5619,
      "worry": 5620,
      "fighters": 5621,
      "male": 5622,
      "##ulf": 5623,
      "Prince": 5624,
      "obviously": 5625,
      "Mir": 5626,
      "##pir": 5627,
      "prove": 5628,
      "silver": 5629,
      "construction": 5630,
      "##cow": 5631,
      "visited": 5632,
      "49": 5633,
      "52": 5634,
      "balance": 5635,
      "Blues": 5636,
      "achieved": 5637,
      "trading": 5638,
      "investors": 5639,
      "declared": 5640,
      "PM": 5641,
      "Theres": 5642,
      "stood": 5643,
      "proced": 5644,
      "##encing": 5645,
      "Bell": 5646,
      "Ale": 5647,
      "mission": 5648,
      "volunte": 5649,
      "qualifying": 5650,
      "##ni": 5651,
      "infrastructure": 5652,
      "sleep": 5653,
      "renew": 5654,
      "happening": 5655,
      "threatened": 5656,
      "##ien": 5657,
      "2020": 5658,
      "Ol": 5659,
      "##esters": 5660,
      "ceremony": 5661,
      "Year": 5662,
      "recovery": 5663,
      "##borne": 5664,
      "dd": 5665,
      "adop": 5666,
      "spl": 5667,
      "Stur": 5668,
      "Mel": 5669,
      "feature": 5670,
      "Turkish": 5671,
      "welfare": 5672,
      "grad": 5673,
      "##oster": 5674,
      "##dict": 5675,
      "imag": 5676,
      "Stan": 5677,
      "Midd": 5678,
      "Spanish": 5679,
      "produce": 5680,
      "species": 5681,
      "compens": 5682,
      "eastern": 5683,
      "fan": 5684,
      "##ias": 5685,
      "crucial": 5686,
      "purp": 5687,
      "##ously": 5688,
      "exciting": 5689,
      "Portug": 5690,
      "Theresa": 5691,
      "records": 5692,
      "ign": 5693,
      "McK": 5694,
      "##off": 5695,
      "steps": 5696,
      "##gar": 5697,
      "actor": 5698,
      "compete": 5699,
      "Fox": 5700,
      "Laur": 5701,
      "definitely": 5702,
      "##eman": 5703,
      "condem": 5704,
      "employees": 5705,
      "version": 5706,
      "##worth": 5707,
      "dismissed": 5708,
      "presence": 5709,
      "deploy": 5710,
      "integr": 5711,
      "GB": 5712,
      "##atre": 5713,
      "##ulated": 5714,
      "##ivity": 5715,
      "century": 5716,
      "serving": 5717,
      "equipment": 5718,
      "sav": 5719,
      "##tered": 5720,
      "fresh": 5721,
      "bul": 5722,
      "rare": 5723,
      "Democratic": 5724,
      "nice": 5725,
      "Hong": 5726,
      "Central": 5727,
      "Middles": 5728,
      "hal": 5729,
      "driven": 5730,
      "southern": 5731,
      "##ordon": 5732,
      "##gress": 5733,
      "ten": 5734,
      "confirm": 5735,
      "voice": 5736,
      "DUP": 5737,
      "activities": 5738,
      "##bro": 5739,
      "HM": 5740,
      "End": 5741,
      "Author": 5742,
      "books": 5743,
      "scientists": 5744,
      "##fortun": 5745,
      "##iced": 5746,
      "51": 5747,
      "daily": 5748,
      "##onze": 5749,
      "minimum": 5750,
      "Academ": 5751,
      "Gard": 5752,
      "wish": 5753,
      "Tw": 5754,
      "##emen": 5755,
      "Walk": 5756,
      "floor": 5757,
      "Social": 5758,
      "hospitals": 5759,
      "##oe": 5760,
      "overs": 5761,
      "encourage": 5762,
      "##icate": 5763,
      "Palest": 5764,
      "##lines": 5765,
      "Iv": 5766,
      "Kong": 5767,
      "occup": 5768,
      "opinion": 5769,
      "##ko": 5770,
      "swim": 5771,
      "##pression": 5772,
      "Education": 5773,
      "gang": 5774,
      "severe": 5775,
      "Hot": 5776,
      "solution": 5777,
      "developing": 5778,
      "Wal": 5779,
      "Here": 5780,
      "##gers": 5781,
      "##itage": 5782,
      "##itable": 5783,
      "agencies": 5784,
      "nurs": 5785,
      "footage": 5786,
      "Rugby": 5787,
      "Cle": 5788,
      "weight": 5789,
      "feder": 5790,
      "offering": 5791,
      "##iven": 5792,
      "CC": 5793,
      "Ford": 5794,
      "rebel": 5795,
      "600": 5796,
      "excell": 5797,
      "Nigeria": 5798,
      "recover": 5799,
      "documents": 5800,
      "##ayne": 5801,
      "facilities": 5802,
      "lines": 5803,
      "emotion": 5804,
      "Four": 5805,
      "simple": 5806,
      "deeply": 5807,
      "Bal": 5808,
      "##onn": 5809,
      "##istr": 5810,
      "originally": 5811,
      "festival": 5812,
      "##pe": 5813,
      "Graham": 5814,
      "links": 5815,
      "alternative": 5816,
      "violent": 5817,
      "##nock": 5818,
      "recognised": 5819,
      "Judge": 5820,
      "stret": 5821,
      "##oes": 5822,
      "##aked": 5823,
      "Hughes": 5824,
      "Sturgeon": 5825,
      "meth": 5826,
      "forecast": 5827,
      "##emouth": 5828,
      "prefer": 5829,
      "San": 5830,
      "##iment": 5831,
      "##ington": 5832,
      "deals": 5833,
      "controlled": 5834,
      "returning": 5835,
      "offside": 5836,
      "smaller": 5837,
      "Cath": 5838,
      "task": 5839,
      "Free": 5840,
      "attempted": 5841,
      "##za": 5842,
      "outcome": 5843,
      "Insp": 5844,
      "##mine": 5845,
      "organised": 5846,
      "Di": 5847,
      "conver": 5848,
      "promotion": 5849,
      "withdraw": 5850,
      "Kim": 5851,
      "creating": 5852,
      "begins": 5853,
      "exerc": 5854,
      "willing": 5855,
      "Rog": 5856,
      "psych": 5857,
      "150": 5858,
      "household": 5859,
      "walking": 5860,
      "Pros": 5861,
      "Greg": 5862,
      "suspected": 5863,
      "inflation": 5864,
      "vast": 5865,
      "53": 5866,
      "frustr": 5867,
      "tie": 5868,
      "spark": 5869,
      "journalists": 5870,
      "Guard": 5871,
      "sitting": 5872,
      "secured": 5873,
      "disappointing": 5874,
      "##ran": 5875,
      "sanctions": 5876,
      "Kil": 5877,
      "occasion": 5878,
      "giant": 5879,
      "assistant": 5880,
      "Khan": 5881,
      "##rington": 5882,
      "Fire": 5883,
      "Local": 5884,
      "bench": 5885,
      "shadow": 5886,
      "##ryst": 5887,
      "mayor": 5888,
      "subsequ": 5889,
      "church": 5890,
      "##olic": 5891,
      "edge": 5892,
      "spect": 5893,
      "fuel": 5894,
      "fought": 5895,
      "competitive": 5896,
      "Dutch": 5897,
      "##agram": 5898,
      "Andre": 5899,
      "dispute": 5900,
      "lots": 5901,
      "expensive": 5902,
      "roads": 5903,
      "Out": 5904,
      "800": 5905,
      "Tory": 5906,
      "governing": 5907,
      "titles": 5908,
      "feed": 5909,
      "wedi": 5910,
      "##wide": 5911,
      "dram": 5912,
      "bag": 5913,
      "analysis": 5914,
      "blue": 5915,
      "application": 5916,
      "ministry": 5917,
      "Democrats": 5918,
      "##ching": 5919,
      "usually": 5920,
      "##guard": 5921,
      "subs": 5922,
      "Northampton": 5923,
      "outstanding": 5924,
      "wound": 5925,
      "hurt": 5926,
      "raid": 5927,
      "district": 5928,
      "##oring": 5929,
      "##arrow": 5930,
      "Turn": 5931,
      "prec": 5932,
      "##opp": 5933,
      "rape": 5934,
      "fears": 5935,
      "##weight": 5936,
      "##ritory": 5937,
      "Pre": 5938,
      "Ra": 5939,
      "concluded": 5940,
      "Cole": 5941,
      "Sean": 5942,
      "talent": 5943,
      "detect": 5944,
      "aimed": 5945,
      "Found": 5946,
      "storm": 5947,
      "suspicion": 5948,
      "##ova": 5949,
      "window": 5950,
      "session": 5951,
      "Rom": 5952,
      "##ala": 5953,
      "##uled": 5954,
      "##can": 5955,
      "photograph": 5956,
      "Sinn": 5957,
      "##ylum": 5958,
      "employment": 5959,
      "struggled": 5960,
      "roll": 5961,
      "Mont": 5962,
      "winter": 5963,
      "devices": 5964,
      "terrorist": 5965,
      "worried": 5966,
      "becomes": 5967,
      "feels": 5968,
      "properly": 5969,
      "God": 5970,
      "##ele": 5971,
      "Arm": 5972,
      "spoken": 5973,
      "prosecution": 5974,
      "keeper": 5975,
      "Sea": 5976,
      "Robinson": 5977,
      "##icop": 5978,
      "proceed": 5979,
      "animal": 5980,
      "##gen": 5981,
      "sources": 5982,
      "reaction": 5983,
      "apart": 5984,
      "polls": 5985,
      "purch": 5986,
      "##reme": 5987,
      "gay": 5988,
      "overt": 5989,
      "membership": 5990,
      "throw": 5991,
      "direction": 5992,
      "offence": 5993,
      "brand": 5994,
      "##hens": 5995,
      "adj": 5996,
      "fewer": 5997,
      "##eline": 5998,
      "##abled": 5999,
      "Human": 6000,
      "industrial": 6001,
      "##ka": 6002,
      "verdict": 6003,
      "Putin": 6004,
      "Public": 6005,
      "##uters": 6006,
      "##vis": 6007,
      "plays": 6008,
      "##portion": 6009,
      "remove": 6010,
      "Middle": 6011,
      "categ": 6012,
      "breaking": 6013,
      "Mat": 6014,
      "Exeter": 6015,
      "opponents": 6016,
      "##ship": 6017,
      "presented": 6018,
      "Win": 6019,
      "##bre": 6020,
      "wealth": 6021,
      "Nether": 6022,
      "enjoyed": 6023,
      "Van": 6024,
      "Mary": 6025,
      "sustain": 6026,
      "',": 6027,
      "asylum": 6028,
      "Charlie": 6029,
      "Brighton": 6030,
      "Instagram": 6031,
      "background": 6032,
      "sought": 6033,
      "climb": 6034,
      "56": 6035,
      "##more": 6036,
      "stick": 6037,
      "relatively": 6038,
      "Dou": 6039,
      "granted": 6040,
      "PS": 6041,
      "marriage": 6042,
      "voting": 6043,
      "Transport": 6044,
      "Osborne": 6045,
      "54": 6046,
      "referee": 6047,
      "Anderson": 6048,
      "Moscow": 6049,
      "Congress": 6050,
      "##oner": 6051,
      "unac": 6052,
      "proposal": 6053,
      "2000": 6054,
      "boat": 6055,
      "##ihad": 6056,
      "faith": 6057,
      "operate": 6058,
      "digital": 6059,
      "##la": 6060,
      "ei": 6061,
      "specialist": 6062,
      "##ighter": 6063,
      "connection": 6064,
      "suc": 6065,
      "##rible": 6066,
      "replace": 6067,
      "recovered": 6068,
      "Mas": 6069,
      "knock": 6070,
      "Call": 6071,
      "recognise": 6072,
      "Mexico": 6073,
      "##iad": 6074,
      "acting": 6075,
      "zone": 6076,
      "Wigan": 6077,
      "improving": 6078,
      "corpor": 6079,
      "##rier": 6080,
      "suicide": 6081,
      "Roman": 6082,
      "identify": 6083,
      "doz": 6084,
      "Euro": 6085,
      "2001": 6086,
      "judges": 6087,
      "doctor": 6088,
      "Belgium": 6089,
      "items": 6090,
      "Bridge": 6091,
      "knowledge": 6092,
      "claiming": 6093,
      "Ver": 6094,
      "considering": 6095,
      "favourite": 6096,
      "2002": 6097,
      "McI": 6098,
      "Sup": 6099,
      "Francis": 6100,
      "Palestin": 6101,
      "Brian": 6102,
      "execut": 6103,
      "scandal": 6104,
      "stars": 6105,
      "upon": 6106,
      "compar": 6107,
      "Organ": 6108,
      "complaints": 6109,
      "province": 6110,
      "bom": 6111,
      "writing": 6112,
      "acknowled": 6113,
      "younger": 6114,
      "possibility": 6115,
      "challenging": 6116,
      "pushed": 6117,
      "stages": 6118,
      "leaves": 6119,
      "Business": 6120,
      "Hamp": 6121,
      "max": 6122,
      "effectively": 6123,
      "relegation": 6124,
      "beating": 6125,
      "correct": 6126,
      "Jason": 6127,
      "funded": 6128,
      "helicop": 6129,
      "trick": 6130,
      "##acement": 6131,
      "receiving": 6132,
      "Ter": 6133,
      "damaged": 6134,
      "testing": 6135,
      "centres": 6136,
      "Mour": 6137,
      "ham": 6138,
      "text": 6139,
      "drawn": 6140,
      "Army": 6141,
      "Ann": 6142,
      "##antly": 6143,
      "therefore": 6144,
      "territory": 6145,
      "##iling": 6146,
      "yes": 6147,
      "travelled": 6148,
      "waste": 6149,
      "understanding": 6150,
      "##abbed": 6151,
      "billion": 6152,
      "investigations": 6153,
      "initi": 6154,
      "Direct": 6155,
      "Mod": 6156,
      "strongly": 6157,
      "##acements": 6158,
      "Corn": 6159,
      "##AF": 6160,
      "onto": 6161,
      "!\"": 6162,
      "Bourn": 6163,
      "##aed": 6164,
      "##och": 6165,
      "##ishop": 6166,
      "prize": 6167,
      "bound": 6168,
      "Netherlands": 6169,
      "Gordon": 6170,
      "##NA": 6171,
      "spin": 6172,
      "Essex": 6173,
      "pregn": 6174,
      "##nic": 6175,
      "##osen": 6176,
      "surface": 6177,
      "extended": 6178,
      "quoted": 6179,
      "protesters": 6180,
      "Having": 6181,
      "log": 6182,
      "Only": 6183,
      "Research": 6184,
      "Common": 6185,
      "Midlands": 6186,
      "Stew": 6187,
      "Tel": 6188,
      "coverage": 6189,
      "##dom": 6190,
      "Assad": 6191,
      "trained": 6192,
      "##yw": 6193,
      "Coll": 6194,
      "Dave": 6195,
      "Bournemouth": 6196,
      "##isher": 6197,
      "represents": 6198,
      "Before": 6199,
      "Eb": 6200,
      "Rail": 6201,
      "##RA": 6202,
      "wickets": 6203,
      "##verse": 6204,
      "parliamentary": 6205,
      "##road": 6206,
      "##okes": 6207,
      "##wr": 6208,
      "reput": 6209,
      "Carol": 6210,
      "Ren": 6211,
      "memor": 6212,
      "##dden": 6213,
      "civilians": 6214,
      "Independ": 6215,
      "attempts": 6216,
      "strateg": 6217,
      "witnesses": 6218,
      "connect": 6219,
      "Cap": 6220,
      "substant": 6221,
      "die": 6222,
      "Bern": 6223,
      "tru": 6224,
      "possession": 6225,
      "singer": 6226,
      "58": 6227,
      "starts": 6228,
      "thanks": 6229,
      "uk": 6230,
      "backing": 6231,
      "##inated": 6232,
      "Earth": 6233,
      "Gree": 6234,
      "##ernand": 6235,
      "narrow": 6236,
      "vice": 6237,
      "intended": 6238,
      "ourselves": 6239,
      "eyes": 6240,
      "finance": 6241,
      "##ublin": 6242,
      "Ell": 6243,
      "##entry": 6244,
      "retire": 6245,
      "Pen": 6246,
      "##agement": 6247,
      "explo": 6248,
      "effects": 6249,
      "bi": 6250,
      "57": 6251,
      "Clark": 6252,
      "Storm": 6253,
      "desper": 6254,
      "NI": 6255,
      "interested": 6256,
      "##abil": 6257,
      "Cov": 6258,
      "Dublin": 6259,
      "offers": 6260,
      "Asked": 6261,
      "closing": 6262,
      "Bow": 6263,
      "##ky": 6264,
      "Asia": 6265,
      "spell": 6266,
      "##ibr": 6267,
      "trouble": 6268,
      "spr": 6269,
      "unless": 6270,
      "Care": 6271,
      "IP": 6272,
      "##aser": 6273,
      "truth": 6274,
      "warm": 6275,
      "tribute": 6276,
      "vari": 6277,
      "##aks": 6278,
      "Linc": 6279,
      "regime": 6280,
      "yards": 6281,
      "##rison": 6282,
      "##rell": 6283,
      "restaur": 6284,
      "compr": 6285,
      "##otter": 6286,
      "##oln": 6287,
      "delay": 6288,
      "entered": 6289,
      "watched": 6290,
      "Patrick": 6291,
      "Bob": 6292,
      "##ait": 6293,
      "colour": 6294,
      "involvement": 6295,
      "slightly": 6296,
      "reforms": 6297,
      "##ania": 6298,
      "closer": 6299,
      "##mosp": 6300,
      "permanent": 6301,
      "##rystal": 6302,
      "manage": 6303,
      "critics": 6304,
      "formal": 6305,
      "Chester": 6306,
      "##ulate": 6307,
      "Barn": 6308,
      "59": 6309,
      "##overty": 6310,
      "Cross": 6311,
      "Econom": 6312,
      "Gen": 6313,
      "recruit": 6314,
      "Murphy": 6315,
      "Stewart": 6316,
      "Watson": 6317,
      "wake": 6318,
      "##anging": 6319,
      "films": 6320,
      "blow": 6321,
      "dramatic": 6322,
      "##alls": 6323,
      "resident": 6324,
      "retired": 6325,
      "predict": 6326,
      "cutting": 6327,
      "##burg": 6328,
      "##inger": 6329,
      "repeatedly": 6330,
      "yard": 6331,
      "Lincoln": 6332,
      "turning": 6333,
      "Championships": 6334,
      "honest": 6335,
      "##BI": 6336,
      "suggestion": 6337,
      "elsewhere": 6338,
      "fees": 6339,
      "Israeli": 6340,
      "detained": 6341,
      "Lad": 6342,
      "sudden": 6343,
      "goods": 6344,
      "Yes": 6345,
      "wicket": 6346,
      "reporters": 6347,
      "Vale": 6348,
      "discipl": 6349,
      "technical": 6350,
      "screen": 6351,
      "Star": 6352,
      "##lusion": 6353,
      "Officers": 6354,
      "everybody": 6355,
      "guys": 6356,
      "software": 6357,
      "transform": 6358,
      "exit": 6359,
      "profits": 6360,
      "Prot": 6361,
      "rapid": 6362,
      "Lions": 6363,
      "fee": 6364,
      "championship": 6365,
      "Benn": 6366,
      "Const": 6367,
      "married": 6368,
      "Wy": 6369,
      "##iar": 6370,
      "unus": 6371,
      "tells": 6372,
      "##verness": 6373,
      "division": 6374,
      "##uin": 6375,
      "allows": 6376,
      "consumers": 6377,
      "blamed": 6378,
      "Fund": 6379,
      "Society": 6380,
      "chosen": 6381,
      "active": 6382,
      "rh": 6383,
      "gain": 6384,
      "note": 6385,
      "matters": 6386,
      "fal": 6387,
      "ice": 6388,
      "hopefully": 6389,
      "belong": 6390,
      "Hor": 6391,
      "shots": 6392,
      "environmental": 6393,
      "Dur": 6394,
      "Inverness": 6395,
      "belief": 6396,
      "stronger": 6397,
      "reaching": 6398,
      "##urred": 6399,
      "Jackson": 6400,
      "heading": 6401,
      "##mad": 6402,
      "mainly": 6403,
      "investigate": 6404,
      "Dam": 6405,
      "Davis": 6406,
      "hat": 6407,
      "atmosp": 6408,
      "##oint": 6409,
      "Coventry": 6410,
      "managing": 6411,
      "Century": 6412,
      "Americans": 6413,
      "informed": 6414,
      "250": 6415,
      "pilot": 6416,
      "##equ": 6417,
      "struggle": 6418,
      "Mother": 6419,
      "excellent": 6420,
      "Long": 6421,
      "importance": 6422,
      "##obody": 6423,
      "subm": 6424,
      "bridge": 6425,
      "##ashion": 6426,
      "cleared": 6427,
      "grounds": 6428,
      "Instead": 6429,
      "##ao": 6430,
      "abroad": 6431,
      "entertainment": 6432,
      "##aum": 6433,
      "##ossible": 6434,
      "collaps": 6435,
      "overseas": 6436,
      "wonderful": 6437,
      "marg": 6438,
      "Staff": 6439,
      "location": 6440,
      "Once": 6441,
      "concent": 6442,
      "Among": 6443,
      "flying": 6444,
      "Fle": 6445,
      "disaster": 6446,
      "Wals": 6447,
      "Victoria": 6448,
      "Av": 6449,
      "rein": 6450,
      "lawyers": 6451,
      "Surrey": 6452,
      "##fers": 6453,
      "sun": 6454,
      "universities": 6455,
      "Gareth": 6456,
      "trail": 6457,
      "strengt": 6458,
      "succeed": 6459,
      "Max": 6460,
      "Flor": 6461,
      "##venth": 6462,
      "##rel": 6463,
      "##essions": 6464,
      "Foundation": 6465,
      "investigated": 6466,
      "prisoners": 6467,
      "Crime": 6468,
      "rid": 6469,
      "Wright": 6470,
      "activists": 6471,
      "greatest": 6472,
      "Charles": 6473,
      "unl": 6474,
      "satis": 6475,
      "##cy": 6476,
      "Sut": 6477,
      "Haw": 6478,
      "assessment": 6479,
      "plenty": 6480,
      "##iot": 6481,
      "##ussels": 6482,
      "permission": 6483,
      "Let": 6484,
      "Roy": 6485,
      "Ly": 6486,
      "referred": 6487,
      "breat": 6488,
      "##ears": 6489,
      "shel": 6490,
      "moments": 6491,
      "gathered": 6492,
      "exhib": 6493,
      "defending": 6494,
      "mention": 6495,
      "democracy": 6496,
      "museum": 6497,
      "##autif": 6498,
      "##iban": 6499,
      "heavily": 6500,
      "excited": 6501,
      "argue": 6502,
      "gard": 6503,
      "Lat": 6504,
      "lands": 6505,
      "easier": 6506,
      "payment": 6507,
      "chemical": 6508,
      "Pan": 6509,
      "##ardy": 6510,
      "wood": 6511,
      "covered": 6512,
      "lab": 6513,
      "##erves": 6514,
      "Defence": 6515,
      "educ": 6516,
      "##put": 6517,
      "obtain": 6518,
      "dominated": 6519,
      "judg": 6520,
      "sending": 6521,
      "##atured": 6522,
      "##ez": 6523,
      "revenue": 6524,
      "##oses": 6525,
      "losses": 6526,
      "Russell": 6527,
      "significantly": 6528,
      "surprised": 6529,
      "Taliban": 6530,
      "85": 6531,
      "64": 6532,
      "consequences": 6533,
      "hug": 6534,
      "Museum": 6535,
      "67": 6536,
      "Ful": 6537,
      "##sec": 6538,
      "Brussels": 6539,
      "fixt": 6540,
      "mistake": 6541,
      "impressive": 6542,
      "PC": 6543,
      "Lam": 6544,
      "##whel": 6545,
      "arms": 6546,
      "Watford": 6547,
      "exchange": 6548,
      "Aston": 6549,
      "Supreme": 6550,
      "Sweden": 6551,
      "programmes": 6552,
      "Poland": 6553,
      "bon": 6554,
      "notice": 6555,
      "unfair": 6556,
      "BBCNews": 6557,
      "grew": 6558,
      "##lers": 6559,
      "##ius": 6560,
      "sharing": 6561,
      "replied": 6562,
      "provides": 6563,
      "Us": 6564,
      "whatever": 6565,
      "Delay": 6566,
      "historic": 6567,
      "tested": 6568,
      "raising": 6569,
      "dealing": 6570,
      "interesting": 6571,
      "Mah": 6572,
      "##ivery": 6573,
      "trains": 6574,
      "##lder": 6575,
      "positions": 6576,
      "Rights": 6577,
      "Rother": 6578,
      "##ashes": 6579,
      "possibly": 6580,
      "innov": 6581,
      "##life": 6582,
      "compensation": 6583,
      "stands": 6584,
      "##ript": 6585,
      "motiv": 6586,
      "licence": 6587,
      "aband": 6588,
      "diss": 6589,
      "##hell": 6590,
      "savings": 6591,
      "regularly": 6592,
      "Bec": 6593,
      "labour": 6594,
      "intention": 6595,
      "##ining": 6596,
      "202": 6597,
      "threatening": 6598,
      "Muslims": 6599,
      "##iation": 6600,
      "##ques": 6601,
      "summit": 6602,
      "##ighth": 6603,
      "discussions": 6604,
      "##aze": 6605,
      "dogs": 6606,
      "opposed": 6607,
      "improvement": 6608,
      "steel": 6609,
      "distrib": 6610,
      "innings": 6611,
      "Cub": 6612,
      "Sports": 6613,
      "poverty": 6614,
      "solid": 6615,
      "currency": 6616,
      "internal": 6617,
      "choose": 6618,
      "Coast": 6619,
      "Bradford": 6620,
      "method": 6621,
      "spons": 6622,
      "surrounding": 6623,
      "earth": 6624,
      "Plaid": 6625,
      "##icial": 6626,
      "##ommod": 6627,
      "warn": 6628,
      "founder": 6629,
      "temporary": 6630,
      "##SA": 6631,
      "impossible": 6632,
      "hers": 6633,
      "##fire": 6634,
      "earned": 6635,
      "Sant": 6636,
      "seasons": 6637,
      "unique": 6638,
      "Jan": 6639,
      "stations": 6640,
      "##irt": 6641,
      "##do": 6642,
      "radical": 6643,
      "reputation": 6644,
      "scre": 6645,
      "QC": 6646,
      "Nathan": 6647,
      "artist": 6648,
      "identity": 6649,
      "resist": 6650,
      "murd": 6651,
      "mic": 6652,
      "negative": 6653,
      "incredible": 6654,
      "ticket": 6655,
      "hair": 6656,
      "accommod": 6657,
      "pointed": 6658,
      "teenager": 6659,
      "##stitutions": 6660,
      "##oucester": 6661,
      "Gloucester": 6662,
      "drama": 6663,
      "##secs": 6664,
      "seventh": 6665,
      "Holy": 6666,
      "decline": 6667,
      "##ishes": 6668,
      "degree": 6669,
      "Greek": 6670,
      "era": 6671,
      "Philip": 6672,
      "66": 6673,
      "Ay": 6674,
      "Ward": 6675,
      "apologised": 6676,
      "##aken": 6677,
      "##ols": 6678,
      "protected": 6679,
      "petition": 6680,
      "Japanese": 6681,
      "700": 6682,
      "ring": 6683,
      "##ardo": 6684,
      "##aron": 6685,
      "basic": 6686,
      "resol": 6687,
      "guide": 6688,
      "Nav": 6689,
      "performances": 6690,
      "Broad": 6691,
      "passion": 6692,
      "contracts": 6693,
      "heads": 6694,
      "learned": 6695,
      "Daily": 6696,
      "courts": 6697,
      "##itors": 6698,
      "Sel": 6699,
      "##ilst": 6700,
      "Argentina": 6701,
      "Qat": 6702,
      "Bayern": 6703,
      "racing": 6704,
      "reading": 6705,
      "##oko": 6706,
      "virus": 6707,
      "ethnic": 6708,
      "Row": 6709,
      "##unch": 6710,
      "appealed": 6711,
      "alive": 6712,
      "Ty": 6713,
      "tank": 6714,
      "##orough": 6715,
      "beautif": 6716,
      "##othing": 6717,
      "deliber": 6718,
      "selection": 6719,
      "angry": 6720,
      "62": 6721,
      "acts": 6722,
      "##apse": 6723,
      "ambulance": 6724,
      "##iable": 6725,
      "threats": 6726,
      "Bolton": 6727,
      "unaccept": 6728,
      "Scar": 6729,
      "distance": 6730,
      "frequ": 6731,
      "cas": 6732,
      "totally": 6733,
      "sees": 6734,
      "##cedes": 6735,
      "euros": 6736,
      "cold": 6737,
      "##wan": 6738,
      "##CA": 6739,
      "registered": 6740,
      "##ios": 6741,
      "##unk": 6742,
      "overwhel": 6743,
      "farmers": 6744,
      "minority": 6745,
      "structure": 6746,
      "Mourinho": 6747,
      "##vin": 6748,
      "deficit": 6749,
      "tennis": 6750,
      "contacted": 6751,
      "##oked": 6752,
      "atmosphere": 6753,
      "##lad": 6754,
      "formed": 6755,
      "stream": 6756,
      "pound": 6757,
      "##ront": 6758,
      "spirit": 6759,
      "##gus": 6760,
      "Div": 6761,
      "rich": 6762,
      "easily": 6763,
      "friendly": 6764,
      "pool": 6765,
      "medals": 6766,
      "destroyed": 6767,
      "Rem": 6768,
      "Jac": 6769,
      "badly": 6770,
      "##istrates": 6771,
      "Cont": 6772,
      "transfers": 6773,
      "fled": 6774,
      "Mercedes": 6775,
      "##gin": 6776,
      "caps": 6777,
      "buying": 6778,
      "cancelled": 6779,
      "lay": 6780,
      "balls": 6781,
      "coin": 6782,
      "stake": 6783,
      "Cost": 6784,
      "##fri": 6785,
      "delivery": 6786,
      "wides": 6787,
      "blog": 6788,
      "chancellor": 6789,
      "##ipe": 6790,
      "Serb": 6791,
      "Bet": 6792,
      "harder": 6793,
      "Children": 6794,
      "scheduled": 6795,
      "Rooney": 6796,
      "behalf": 6797,
      "tickets": 6798,
      "Dj": 6799,
      "featured": 6800,
      "mostly": 6801,
      "fashion": 6802,
      "Crystal": 6803,
      "Rose": 6804,
      "##eing": 6805,
      "illness": 6806,
      "Kelly": 6807,
      "##pread": 6808,
      "represented": 6809,
      "ideas": 6810,
      "seized": 6811,
      "Repl": 6812,
      "affairs": 6813,
      "multiple": 6814,
      "bronze": 6815,
      "Whe": 6816,
      "##wise": 6817,
      "houses": 6818,
      "tact": 6819,
      "vess": 6820,
      "##board": 6821,
      "##ida": 6822,
      "Gray": 6823,
      "Lloy": 6824,
      "appointment": 6825,
      "Sussex": 6826,
      "bats": 6827,
      "upset": 6828,
      "Hung": 6829,
      "sets": 6830,
      "##ashire": 6831,
      "Mem": 6832,
      "fundament": 6833,
      "Canad": 6834,
      "Lancashire": 6835,
      "golf": 6836,
      "thoughts": 6837,
      "replacement": 6838,
      "##iev": 6839,
      "feet": 6840,
      "du": 6841,
      "shape": 6842,
      "##ifest": 6843,
      "veter": 6844,
      "##ials": 6845,
      "counts": 6846,
      "Nato": 6847,
      "Korean": 6848,
      "##ancing": 6849,
      "Blair": 6850,
      "split": 6851,
      "Edwards": 6852,
      "Islamist": 6853,
      "Treas": 6854,
      "100m": 6855,
      "Lut": 6856,
      "shout": 6857,
      "managers": 6858,
      "Sud": 6859,
      "bear": 6860,
      "listen": 6861,
      "widespread": 6862,
      "Dean": 6863,
      "federal": 6864,
      "##eral": 6865,
      "Tun": 6866,
      "uncertainty": 6867,
      "Rotherham": 6868,
      "Grant": 6869,
      "ending": 6870,
      "Ak": 6871,
      "Dis": 6872,
      "stuff": 6873,
      "Arch": 6874,
      "healthy": 6875,
      "finishing": 6876,
      "institutions": 6877,
      "imposed": 6878,
      "Gri": 6879,
      "Walker": 6880,
      "##ogue": 6881,
      "##bar": 6882,
      "passenger": 6883,
      "mal": 6884,
      "Gill": 6885,
      "sear": 6886,
      "journalist": 6887,
      "herself": 6888,
      "allegedly": 6889,
      "Board": 6890,
      "Burnley": 6891,
      "##aped": 6892,
      "substitute": 6893,
      "##lies": 6894,
      "explain": 6895,
      "##employ": 6896,
      "contribution": 6897,
      "select": 6898,
      "electricity": 6899,
      "##osure": 6900,
      "##olen": 6901,
      "Stud": 6902,
      "vision": 6903,
      "##arts": 6904,
      "Miller": 6905,
      "highlighted": 6906,
      "##esty": 6907,
      "Bri": 6908,
      "Kurd": 6909,
      "##ords": 6910,
      "Authority": 6911,
      "lev": 6912,
      "relatives": 6913,
      "uses": 6914,
      "tech": 6915,
      "conducted": 6916,
      "magaz": 6917,
      "##elines": 6918,
      "Anton": 6919,
      "larger": 6920,
      "Blackburn": 6921,
      "Water": 6922,
      "intent": 6923,
      "unacceptable": 6924,
      "Valley": 6925,
      "Ports": 6926,
      "improvements": 6927,
      "proportion": 6928,
      "depend": 6929,
      "Low": 6930,
      "99": 6931,
      "races": 6932,
      "Big": 6933,
      "##onym": 6934,
      "essential": 6935,
      "closure": 6936,
      "Gat": 6937,
      "##aming": 6938,
      "Reuters": 6939,
      "Environment": 6940,
      "ultimately": 6941,
      "Osc": 6942,
      "exception": 6943,
      "##che": 6944,
      "fault": 6945,
      "loyal": 6946,
      "offensive": 6947,
      "mile": 6948,
      "Fulham": 6949,
      "Kat": 6950,
      "##iest": 6951,
      "##usion": 6952,
      "##iversary": 6953,
      "remind": 6954,
      "ties": 6955,
      "properties": 6956,
      "inspired": 6957,
      "borrow": 6958,
      "Du": 6959,
      "##lyn": 6960,
      "Ashley": 6961,
      "##uster": 6962,
      "estate": 6963,
      "Kl": 6964,
      "thinks": 6965,
      "##etic": 6966,
      "##fford": 6967,
      "##iny": 6968,
      "sick": 6969,
      "##ras": 6970,
      "manifest": 6971,
      "penalties": 6972,
      "Ye": 6973,
      "##oa": 6974,
      "enforce": 6975,
      "McA": 6976,
      "som": 6977,
      "kids": 6978,
      "reveal": 6979,
      "Aaron": 6980,
      "##enez": 6981,
      "factor": 6982,
      "Libya": 6983,
      "YouT": 6984,
      "crack": 6985,
      "##gal": 6986,
      "##itarian": 6987,
      "Post": 6988,
      "Az": 6989,
      "overnight": 6990,
      "discrim": 6991,
      "##inct": 6992,
      "Brent": 6993,
      "scrutin": 6994,
      "##ugg": 6995,
      "AFP": 6996,
      "tow": 6997,
      "teaching": 6998,
      "Hal": 6999,
      "##wealth": 7000,
      "Darren": 7001,
      "aims": 7002,
      "code": 7003,
      "##RC": 7004,
      "gri": 7005,
      "Pow": 7006,
      "Heath": 7007,
      "collection": 7008,
      "Jun": 7009,
      "Preston": 7010,
      "Fernand": 7011,
      "grown": 7012,
      "##enger": 7013,
      "Sarah": 7014,
      "##brough": 7015,
      "unn": 7016,
      "##ago": 7017,
      "Hudd": 7018,
      "shocked": 7019,
      "nor": 7020,
      "Dons": 7021,
      "##itzer": 7022,
      "Henry": 7023,
      "purpose": 7024,
      "##rah": 7025,
      "Commonwealth": 7026,
      "aren": 7027,
      "Nigel": 7028,
      "Hod": 7029,
      "unusual": 7030,
      "unbeat": 7031,
      "jihad": 7032,
      "facility": 7033,
      "Cre": 7034,
      "Ply": 7035,
      "rural": 7036,
      "##enda": 7037,
      "Leave": 7038,
      "draft": 7039,
      "emissions": 7040,
      "Morris": 7041,
      "63": 7042,
      "plus": 7043,
      "western": 7044,
      "blame": 7045,
      "index": 7046,
      "##attle": 7047,
      "Tories": 7048,
      "meetings": 7049,
      "recommendations": 7050,
      "##roke": 7051,
      "medic": 7052,
      "Marsh": 7053,
      "Squ": 7054,
      "shops": 7055,
      "Chancellor": 7056,
      "automatic": 7057,
      "entirely": 7058,
      "lowest": 7059,
      "##fortunately": 7060,
      "none": 7061,
      "hasn": 7062,
      "visiting": 7063,
      "machine": 7064,
      "Plymouth": 7065,
      "memory": 7066,
      "68": 7067,
      "Atl": 7068,
      "##losed": 7069,
      "Middlesbrough": 7070,
      "assets": 7071,
      "factors": 7072,
      "Arabia": 7073,
      "reass": 7074,
      "Calif": 7075,
      "eat": 7076,
      "pleaded": 7077,
      "Wild": 7078,
      "##pper": 7079,
      "Californ": 7080,
      "Curr": 7081,
      "Thompson": 7082,
      "Castle": 7083,
      "Channel": 7084,
      "##LA": 7085,
      "YouTube": 7086,
      "##kel": 7087,
      "##ican": 7088,
      "associated": 7089,
      "Eli": 7090,
      "heat": 7091,
      "seed": 7092,
      "extraord": 7093,
      "regulations": 7094,
      "deny": 7095,
      "camera": 7096,
      "anniversary": 7097,
      "wheel": 7098,
      "appre": 7099,
      "Ip": 7100,
      "Barry": 7101,
      "Well": 7102,
      "adults": 7103,
      "Replacements": 7104,
      "Oper": 7105,
      "flow": 7106,
      "isol": 7107,
      "likes": 7108,
      "Malays": 7109,
      "tun": 7110,
      "Colomb": 7111,
      "rally": 7112,
      "passing": 7113,
      "72": 7114,
      "##itan": 7115,
      "posts": 7116,
      "Blackpool": 7117,
      "unbeaten": 7118,
      "Portugal": 7119,
      "##bie": 7120,
      "Offside": 7121,
      "evac": 7122,
      "Griff": 7123,
      "Bail": 7124,
      "Phill": 7125,
      "subsid": 7126,
      "lit": 7127,
      "##fe": 7128,
      "##ela": 7129,
      "Kenya": 7130,
      "Independent": 7131,
      "exercise": 7132,
      "Ball": 7133,
      "micro": 7134,
      ".'": 7135,
      "liter": 7136,
      "defended": 7137,
      "consumer": 7138,
      "moves": 7139,
      "Thistle": 7140,
      "cultural": 7141,
      "maximum": 7142,
      "combined": 7143,
      "Mans": 7144,
      "##aire": 7145,
      "worker": 7146,
      "Foster": 7147,
      "Treasury": 7148,
      "false": 7149,
      "flights": 7150,
      "entit": 7151,
      "Saf": 7152,
      "section": 7153,
      "##icip": 7154,
      "Sever": 7155,
      "emph": 7156,
      "somew": 7157,
      "##uated": 7158,
      "beautiful": 7159,
      "##da": 7160,
      "Somal": 7161,
      "declined": 7162,
      "suspects": 7163,
      "traged": 7164,
      "insurance": 7165,
      "Because": 7166,
      "##icking": 7167,
      "##bel": 7168,
      "1999": 7169,
      "##hem": 7170,
      "realised": 7171,
      "praised": 7172,
      "busy": 7173,
      "Ca": 7174,
      "reporting": 7175,
      "Billy": 7176,
      "1980s": 7177,
      "odd": 7178,
      "##agers": 7179,
      "191": 7180,
      "legacy": 7181,
      "sustained": 7182,
      "cells": 7183,
      "relev": 7184,
      "crossed": 7185,
      "##ronic": 7186,
      "Hend": 7187,
      "symb": 7188,
      "08": 7189,
      "contain": 7190,
      "customer": 7191,
      "venue": 7192,
      "unemploy": 7193,
      "Neill": 7194,
      "doping": 7195,
      "wage": 7196,
      "promot": 7197,
      "values": 7198,
      "##box": 7199,
      "lucky": 7200,
      "occasions": 7201,
      "incredibly": 7202,
      "fish": 7203,
      "pledged": 7204,
      "61": 7205,
      "Jenn": 7206,
      "unions": 7207,
      "inspir": 7208,
      "write": 7209,
      "Harris": 7210,
      "core": 7211,
      "##ker": 7212,
      "Leon": 7213,
      "Louis": 7214,
      "Slam": 7215,
      "##ux": 7216,
      "Hampshire": 7217,
      "Somers": 7218,
      "magn": 7219,
      "stolen": 7220,
      "Five": 7221,
      "Portsmouth": 7222,
      "stable": 7223,
      "liber": 7224,
      "Queens": 7225,
      "Philipp": 7226,
      "1m": 7227,
      "Bry": 7228,
      "collapsed": 7229,
      "collapse": 7230,
      "guard": 7231,
      "Georg": 7232,
      "Nicola": 7233,
      "Are": 7234,
      "##rad": 7235,
      "##bours": 7236,
      "Gal": 7237,
      "approval": 7238,
      "comfortable": 7239,
      "truly": 7240,
      "delayed": 7241,
      "Fergus": 7242,
      "Lane": 7243,
      "##hill": 7244,
      "walked": 7245,
      "DNA": 7246,
      "##ersfield": 7247,
      "examination": 7248,
      "Falk": 7249,
      "emotional": 7250,
      "roles": 7251,
      "sharehold": 7252,
      "Mae": 7253,
      "##rog": 7254,
      "reducing": 7255,
      "Ronald": 7256,
      "Bradley": 7257,
      "##bell": 7258,
      "divers": 7259,
      "##cing": 7260,
      "successive": 7261,
      "listed": 7262,
      "blast": 7263,
      "escape": 7264,
      "hung": 7265,
      "argument": 7266,
      "relief": 7267,
      "contrast": 7268,
      "Swiss": 7269,
      "##ira": 7270,
      "##win": 7271,
      "adapt": 7272,
      "termin": 7273,
      "delays": 7274,
      "advised": 7275,
      "virt": 7276,
      "tend": 7277,
      "Hope": 7278,
      "##eren": 7279,
      "Huddersfield": 7280,
      "##kn": 7281,
      "performed": 7282,
      "Adams": 7283,
      "departure": 7284,
      "Spec": 7285,
      "punish": 7286,
      "rat": 7287,
      "stepped": 7288,
      "Notts": 7289,
      "sorry": 7290,
      "Hunt": 7291,
      "Yemen": 7292,
      "193": 7293,
      "mixed": 7294,
      "trigg": 7295,
      "absence": 7296,
      "desire": 7297,
      "deserved": 7298,
      "Greater": 7299,
      "##riers": 7300,
      "Allen": 7301,
      "mos": 7302,
      "##rent": 7303,
      "Also": 7304,
      "Alli": 7305,
      "satell": 7306,
      "academy": 7307,
      "sight": 7308,
      "Gun": 7309,
      "Bud": 7310,
      "pub": 7311,
      "Vir": 7312,
      "beach": 7313,
      "##combe": 7314,
      "discussed": 7315,
      "selected": 7316,
      "Yet": 7317,
      "##cean": 7318,
      "applied": 7319,
      "Polit": 7320,
      "Prosecut": 7321,
      "user": 7322,
      "##swich": 7323,
      "Ipswich": 7324,
      "yr": 7325,
      "capable": 7326,
      "prompted": 7327,
      "nav": 7328,
      "AM": 7329,
      "iP": 7330,
      "acqu": 7331,
      "Ferr": 7332,
      "Moore": 7333,
      "guy": 7334,
      "Jeff": 7335,
      "epis": 7336,
      "tradition": 7337,
      "Democrat": 7338,
      "restrictions": 7339,
      "reward": 7340,
      "advis": 7341,
      "##echan": 7342,
      "staying": 7343,
      "##alymp": 7344,
      "Doncaster": 7345,
      "Gib": 7346,
      "##quar": 7347,
      "carbon": 7348,
      "marked": 7349,
      "##ansion": 7350,
      "Canadian": 7351,
      "aggress": 7352,
      "Worcester": 7353,
      "CCTV": 7354,
      "Cru": 7355,
      "Nich": 7356,
      "accur": 7357,
      "knee": 7358,
      "95": 7359,
      "horse": 7360,
      "extend": 7361,
      "Switzer": 7362,
      "employed": 7363,
      "magazine": 7364,
      "realise": 7365,
      "aspect": 7366,
      "empt": 7367,
      "surve": 7368,
      "arrangements": 7369,
      "##rews": 7370,
      "##makers": 7371,
      "provision": 7372,
      "Somerset": 7373,
      "BM": 7374,
      "##ulations": 7375,
      "##isle": 7376,
      "Paralymp": 7377,
      "##ozone": 7378,
      "helicopter": 7379,
      "California": 7380,
      "mum": 7381,
      "causes": 7382,
      "breach": 7383,
      "Germ": 7384,
      "calc": 7385,
      "##fall": 7386,
      "Kyle": 7387,
      "Several": 7388,
      "pen": 7389,
      "##ota": 7390,
      "orders": 7391,
      "tourists": 7392,
      "Cair": 7393,
      "regret": 7394,
      "##eces": 7395,
      "##ulture": 7396,
      "##rest": 7397,
      "Switzerland": 7398,
      "09": 7399,
      "Mull": 7400,
      "##icul": 7401,
      "##ros": 7402,
      "Assembly": 7403,
      "competing": 7404,
      "birds": 7405,
      "##owed": 7406,
      "Venez": 7407,
      "2m": 7408,
      "Fe": 7409,
      "cup": 7410,
      "##reys": 7411,
      "##amber": 7412,
      "ut": 7413,
      "conceded": 7414,
      "##aret": 7415,
      "Dist": 7416,
      "numer": 7417,
      "##coming": 7418,
      "Venezuel": 7419,
      "##uction": 7420,
      "monitoring": 7421,
      "Qatar": 7422,
      "terrible": 7423,
      "cool": 7424,
      "quiet": 7425,
      "extreme": 7426,
      "##ograp": 7427,
      "Stand": 7428,
      "Mack": 7429,
      "F1": 7430,
      "Southern": 7431,
      "##outs": 7432,
      "winger": 7433,
      "Connor": 7434,
      "Kir": 7435,
      "##DP": 7436,
      "##liver": 7437,
      "lifted": 7438,
      "69": 7439,
      "fatal": 7440,
      "##antic": 7441,
      "conspir": 7442,
      "Fé": 7443,
      "ble": 7444,
      "forg": 7445,
      "extent": 7446,
      "detailed": 7447,
      "##enz": 7448,
      "##enson": 7449,
      "promise": 7450,
      "Ker": 7451,
      "##oli": 7452,
      "sym": 7453,
      "neck": 7454,
      "promin": 7455,
      "optim": 7456,
      "web": 7457,
      "arrival": 7458,
      "Like": 7459,
      "hugely": 7460,
      "Iraqi": 7461,
      "settlement": 7462,
      "Mort": 7463,
      "shift": 7464,
      "##inds": 7465,
      "ty": 7466,
      "generally": 7467,
      "connected": 7468,
      "##anged": 7469,
      "73": 7470,
      "##odes": 7471,
      "##ikh": 7472,
      "Cornwall": 7473,
      "gall": 7474,
      "campaigners": 7475,
      "Michel": 7476,
      "##mund": 7477,
      "clar": 7478,
      "knowing": 7479,
      "Marg": 7480,
      "River": 7481,
      "drew": 7482,
      "hitting": 7483,
      "pushing": 7484,
      "gained": 7485,
      "Alexander": 7486,
      "Up": 7487,
      "accus": 7488,
      "refugee": 7489,
      "##usted": 7490,
      "Bath": 7491,
      "calm": 7492,
      "river": 7493,
      "demands": 7494,
      "occurred": 7495,
      "tragedy": 7496,
      "##mers": 7497,
      "##bourne": 7498,
      "stated": 7499,
      "controls": 7500,
      "guidance": 7501,
      "afterwards": 7502,
      "encouraging": 7503,
      "Jay": 7504,
      "Qaed": 7505,
      "Qaeda": 7506,
      "legs": 7507,
      "Devon": 7508,
      "3m": 7509,
      "Cooper": 7510,
      "excess": 7511,
      "studies": 7512,
      "##unning": 7513,
      "qualified": 7514,
      "##sson": 7515,
      "Craw": 7516,
      "faster": 7517,
      "##ville": 7518,
      "extraordinary": 7519,
      "71": 7520,
      "##atter": 7521,
      "Naz": 7522,
      "##ita": 7523,
      "strengthen": 7524,
      "eighth": 7525,
      "Bru": 7526,
      "helps": 7527,
      "thrown": 7528,
      "Division": 7529,
      "gw": 7530,
      "comprom": 7531,
      "Wemb": 7532,
      "hate": 7533,
      "coaching": 7534,
      "papers": 7535,
      "fract": 7536,
      "Christop": 7537,
      "Loan": 7538,
      "##lan": 7539,
      "enth": 7540,
      "publicly": 7541,
      "1998": 7542,
      "##iband": 7543,
      "leads": 7544,
      "actress": 7545,
      "assistance": 7546,
      "Féin": 7547,
      "Pope": 7548,
      "bright": 7549,
      "councillor": 7550,
      "college": 7551,
      "coup": 7552,
      "cheap": 7553,
      "##adesh": 7554,
      "survived": 7555,
      "reduction": 7556,
      "resigned": 7557,
      "Johnstone": 7558,
      "videos": 7559,
      "guarantee": 7560,
      "Mass": 7561,
      "chain": 7562,
      "##itary": 7563,
      "autumn": 7564,
      "##ema": 7565,
      "Motherwell": 7566,
      "knife": 7567,
      "diagnosed": 7568,
      "Web": 7569,
      "##hone": 7570,
      "drag": 7571,
      "##opa": 7572,
      "##arton": 7573,
      "doors": 7574,
      "normally": 7575,
      "McM": 7576,
      "Stormont": 7577,
      "Get": 7578,
      "##nian": 7579,
      "otherwise": 7580,
      "relevant": 7581,
      "Catholic": 7582,
      "euro": 7583,
      "##friend": 7584,
      "awards": 7585,
      "migration": 7586,
      "phones": 7587,
      "shopping": 7588,
      "Owen": 7589,
      "Head": 7590,
      "Glob": 7591,
      "Campbell": 7592,
      "1bn": 7593,
      "bra": 7594,
      "##rient": 7595,
      "crossing": 7596,
      "Watch": 7597,
      "lock": 7598,
      "MSP": 7599,
      "Amaz": 7600,
      "lov": 7601,
      "crashed": 7602,
      "Network": 7603,
      "cry": 7604,
      "Holland": 7605,
      "Commissioner": 7606,
      "surviv": 7607,
      "cha": 7608,
      "multi": 7609,
      "photos": 7610,
      "anger": 7611,
      "undert": 7612,
      "Buck": 7613,
      "snow": 7614,
      "##arch": 7615,
      "stuck": 7616,
      "stores": 7617,
      "##akh": 7618,
      "indeed": 7619,
      "ride": 7620,
      "##velopment": 7621,
      "Wembley": 7622,
      "Daw": 7623,
      "conversation": 7624,
      "##hall": 7625,
      "substantial": 7626,
      "hun": 7627,
      "##sters": 7628,
      "scores": 7629,
      "opener": 7630,
      "Miliband": 7631,
      "Dick": 7632,
      "diplomatic": 7633,
      "anc": 7634,
      "captured": 7635,
      "Report": 7636,
      "resulted": 7637,
      "1997": 7638,
      "error": 7639,
      "##inth": 7640,
      "supposed": 7641,
      "distress": 7642,
      "74": 7643,
      "indicated": 7644,
      "entering": 7645,
      "invited": 7646,
      "Charlton": 7647,
      "drinking": 7648,
      "trag": 7649,
      "apparently": 7650,
      "77": 7651,
      "Kane": 7652,
      "neighbouring": 7653,
      "II": 7654,
      "Ministry": 7655,
      "Where": 7656,
      "royal": 7657,
      "personnel": 7658,
      "weren": 7659,
      "transpar": 7660,
      "superb": 7661,
      "cards": 7662,
      "##iano": 7663,
      "Rel": 7664,
      "##rig": 7665,
      "##uls": 7666,
      "oblig": 7667,
      "##venue": 7668,
      "volunteers": 7669,
      "##ortion": 7670,
      "manufacturing": 7671,
      "article": 7672,
      "##assador": 7673,
      "difficulties": 7674,
      "ast": 7675,
      "Academy": 7676,
      "governor": 7677,
      "manifesto": 7678,
      "cope": 7679,
      "hack": 7680,
      "hole": 7681,
      "2019": 7682,
      "package": 7683,
      "acknowledged": 7684,
      "Bos": 7685,
      "complained": 7686,
      "Investig": 7687,
      "rely": 7688,
      "entry": 7689,
      "Alexand": 7690,
      "Gw": 7691,
      "aside": 7692,
      "1990s": 7693,
      "qualify": 7694,
      "artists": 7695,
      "Asian": 7696,
      "representing": 7697,
      "units": 7698,
      "Inf": 7699,
      "smoke": 7700,
      "Live": 7701,
      "performing": 7702,
      "advance": 7703,
      "enorm": 7704,
      "funeral": 7705,
      "recommended": 7706,
      "Lis": 7707,
      "Lead": 7708,
      "increases": 7709,
      "Gab": 7710,
      "Bull": 7711,
      "Est": 7712,
      "Tes": 7713,
      "Milan": 7714,
      "pounds": 7715,
      "##cious": 7716,
      "Power": 7717,
      "##dog": 7718,
      "vacc": 7719,
      "Luton": 7720,
      "fastest": 7721,
      "Barack": 7722,
      "##agg": 7723,
      "concentr": 7724,
      "Fil": 7725,
      "intervention": 7726,
      "amend": 7727,
      "outs": 7728,
      "USA": 7729,
      "Airport": 7730,
      "Sudan": 7731,
      "somebody": 7732,
      "eurozone": 7733,
      "##kin": 7734,
      "clinical": 7735,
      "Fab": 7736,
      "],": 7737,
      "##orpe": 7738,
      "Abu": 7739,
      "tort": 7740,
      "founded": 7741,
      "urgent": 7742,
      "agent": 7743,
      "regions": 7744,
      "ranked": 7745,
      "Stev": 7746,
      "cyber": 7747,
      "roof": 7748,
      "misc": 7749,
      "brings": 7750,
      "Wre": 7751,
      "##ids": 7752,
      "ensuring": 7753,
      "discussion": 7754,
      "complaint": 7755,
      "Oliver": 7756,
      "FBI": 7757,
      "Lt": 7758,
      "prosecutors": 7759,
      "Kenny": 7760,
      "appreci": 7761,
      "Carlisle": 7762,
      "Jew": 7763,
      "manner": 7764,
      "##apping": 7765,
      "collision": 7766,
      "applications": 7767,
      "worldwide": 7768,
      "##light": 7769,
      "banking": 7770,
      "stayed": 7771,
      "Mitc": 7772,
      "lift": 7773,
      "Ib": 7774,
      "mountain": 7775,
      "##anka": 7776,
      "promote": 7777,
      "motion": 7778,
      "mand": 7779,
      "novel": 7780,
      "Colin": 7781,
      "height": 7782,
      "neighbours": 7783,
      "##ares": 7784,
      "##othes": 7785,
      "Stock": 7786,
      "cycling": 7787,
      "($": 7788,
      "##ta": 7789,
      "##ja": 7790,
      "reop": 7791,
      "Kurdish": 7792,
      "Whit": 7793,
      "qualif": 7794,
      "##areness": 7795,
      "proceedings": 7796,
      "##ding": 7797,
      "channel": 7798,
      "politician": 7799,
      "dealt": 7800,
      "1970s": 7801,
      "introduce": 7802,
      "taxes": 7803,
      "##isons": 7804,
      "Les": 7805,
      "theatre": 7806,
      "taxp": 7807,
      "##tenham": 7808,
      "suggesting": 7809,
      "revolution": 7810,
      "disruption": 7811,
      "prepare": 7812,
      "sustainable": 7813,
      "deadline": 7814,
      "Bennett": 7815,
      "##upp": 7816,
      "##ano": 7817,
      "unclear": 7818,
      "Jen": 7819,
      "hall": 7820,
      "lap": 7821,
      "##ovak": 7822,
      "Cheltenham": 7823,
      "Everyone": 7824,
      "stressed": 7825,
      "##iences": 7826,
      "##apore": 7827,
      "settle": 7828,
      "Ayr": 7829,
      "sacked": 7830,
      "drove": 7831,
      "Oscar": 7832,
      "##echn": 7833,
      "Singapore": 7834,
      "Professor": 7835,
      "##een": 7836,
      "af": 7837,
      "lessons": 7838,
      "traum": 7839,
      "Saints": 7840,
      "elder": 7841,
      "movie": 7842,
      "##xham": 7843,
      "Indones": 7844,
      "sparked": 7845,
      "Bailey": 7846,
      "fat": 7847,
      "constituency": 7848,
      "78": 7849,
      "disrupt": 7850,
      "coff": 7851,
      "attempting": 7852,
      "expectations": 7853,
      "Keith": 7854,
      "5bn": 7855,
      "speculation": 7856,
      "##kg": 7857,
      "%)": 7858,
      "allies": 7859,
      "campaigning": 7860,
      "loans": 7861,
      "checks": 7862,
      "sharp": 7863,
      "anywhere": 7864,
      "Supp": 7865,
      "##aug": 7866,
      "Resc": 7867,
      "##marnock": 7868,
      "smartph": 7869,
      "##cott": 7870,
      "##aint": 7871,
      "relation": 7872,
      "Elect": 7873,
      "Osp": 7874,
      "din": 7875,
      "##ray": 7876,
      "unex": 7877,
      "##oh": 7878,
      "parent": 7879,
      "weapon": 7880,
      "Sav": 7881,
      "##organ": 7882,
      "noted": 7883,
      "Mitchell": 7884,
      "equival": 7885,
      "Eth": 7886,
      "persu": 7887,
      "anx": 7888,
      "suffer": 7889,
      "Cy": 7890,
      "##kes": 7891,
      "EC": 7892,
      "##ba": 7893,
      "Stat": 7894,
      "Fro": 7895,
      "Micro": 7896,
      "condemned": 7897,
      "inquiries": 7898,
      "collabor": 7899,
      "##load": 7900,
      "Kilmarnock": 7901,
      "Costa": 7902,
      "Living": 7903,
      "Manu": 7904,
      "Pear": 7905,
      "gender": 7906,
      "delivering": 7907,
      "celebrate": 7908,
      "estimates": 7909,
      "Jean": 7910,
      "Bangl": 7911,
      "disag": 7912,
      "statements": 7913,
      "determine": 7914,
      "trend": 7915,
      "agenda": 7916,
      "encouraged": 7917,
      "Pac": 7918,
      "abused": 7919,
      "analysts": 7920,
      "Shia": 7921,
      "Conor": 7922,
      "flu": 7923,
      "##rahim": 7924,
      "Ray": 7925,
      "remarkable": 7926,
      "plants": 7927,
      "dollar": 7928,
      "Ener": 7929,
      "##hend": 7930,
      "##ologist": 7931,
      "##look": 7932,
      "##IA": 7933,
      "sporting": 7934,
      "trees": 7935,
      "##umber": 7936,
      "attracted": 7937,
      "inev": 7938,
      "?'": 7939,
      "ge": 7940,
      "holds": 7941,
      "fixed": 7942,
      "conservative": 7943,
      "Ahmed": 7944,
      "breast": 7945,
      "Ferguson": 7946,
      "brut": 7947,
      "Roch": 7948,
      "preparing": 7949,
      "##formation": 7950,
      "officially": 7951,
      "##arrass": 7952,
      "Burton": 7953,
      "Jake": 7954,
      "##indon": 7955,
      "offs": 7956,
      "policing": 7957,
      "pollution": 7958,
      "Syd": 7959,
      "administr": 7960,
      "unve": 7961,
      "acted": 7962,
      "mistakes": 7963,
      "##terling": 7964,
      "hy": 7965,
      "##olas": 7966,
      "Lucas": 7967,
      "##abilities": 7968,
      "manufactur": 7969,
      "##lock": 7970,
      "##yth": 7971,
      "##rehens": 7972,
      "Nas": 7973,
      "Ebola": 7974,
      "highlight": 7975,
      "Amazon": 7976,
      "forms": 7977,
      "consecutive": 7978,
      "Ladies": 7979,
      "phase": 7980,
      "glass": 7981,
      "symp": 7982,
      "awareness": 7983,
      "routes": 7984,
      "notes": 7985,
      "exposed": 7986,
      "embarrass": 7987,
      "Hearts": 7988,
      "Palestinian": 7989,
      "tourism": 7990,
      "Barns": 7991,
      "satisf": 7992,
      "dim": 7993,
      "Scots": 7994,
      "##agan": 7995,
      "##umed": 7996,
      "Top": 7997,
      "##uate": 7998,
      "locations": 7999,
      "Durham": 8000,
      "healthcare": 8001,
      "##ipping": 8002,
      "headquar": 8003,
      "rough": 8004,
      "tar": 8005,
      "Mand": 8006,
      "Shrews": 8007,
      "Elli": 8008,
      "Mount": 8009,
      "prosecutor": 8010,
      "Barnsley": 8011,
      "cyn": 8012,
      "##eler": 8013,
      "##viously": 8014,
      "Kn": 8015,
      "pal": 8016,
      "##chester": 8017,
      "owns": 8018,
      "skin": 8019,
      "Joseph": 8020,
      "sympt": 8021,
      "Cly": 8022,
      "mechan": 8023,
      "##vant": 8024,
      "approached": 8025,
      "bills": 8026,
      "supermark": 8027,
      "plot": 8028,
      "##ika": 8029,
      "bombing": 8030,
      "forget": 8031,
      "resolution": 8032,
      "enh": 8033,
      "knocked": 8034,
      "##ires": 8035,
      "emphas": 8036,
      "Mess": 8037,
      "intens": 8038,
      "Brazilian": 8039,
      "Stanley": 8040,
      "dozens": 8041,
      "##FL": 8042,
      "outbre": 8043,
      "missile": 8044,
      "entitled": 8045,
      "hero": 8046,
      "Derbyshire": 8047,
      "exhibition": 8048,
      "casual": 8049,
      "Ha": 8050,
      "laid": 8051,
      "root": 8052,
      "##wa": 8053,
      "##pet": 8054,
      "types": 8055,
      "railway": 8056,
      "Bas": 8057,
      "##tery": 8058,
      "feat": 8059,
      "Bat": 8060,
      "interim": 8061,
      "internation": 8062,
      "militant": 8063,
      "Senate": 8064,
      "##osis": 8065,
      "writer": 8066,
      "Shrewsbury": 8067,
      "Sydney": 8068,
      "flooding": 8069,
      "procedures": 8070,
      "neither": 8071,
      "Holly": 8072,
      "suspicious": 8073,
      "deployed": 8074,
      "Wrexham": 8075,
      "##rood": 8076,
      "scenes": 8077,
      "IRA": 8078,
      "Dal": 8079,
      "bond": 8080,
      "##ga": 8081,
      "Beck": 8082,
      "stabbed": 8083,
      "construct": 8084,
      "Downing": 8085,
      "cell": 8086,
      "lob": 8087,
      "Sutton": 8088,
      "lie": 8089,
      "mut": 8090,
      "Swindon": 8091,
      "pattern": 8092,
      "photo": 8093,
      "collected": 8094,
      "carefully": 8095,
      "Peterborough": 8096,
      "Spr": 8097,
      "toler": 8098,
      "Force": 8099,
      "conviction": 8100,
      "Ferrari": 8101,
      "##tar": 8102,
      "workforce": 8103,
      "grass": 8104,
      "reporter": 8105,
      "Sri": 8106,
      "Cow": 8107,
      "coaches": 8108,
      "marks": 8109,
      "trophy": 8110,
      "##uable": 8111,
      "expansion": 8112,
      "##orate": 8113,
      "repair": 8114,
      "equivalent": 8115,
      "##isive": 8116,
      "##gets": 8117,
      "elig": 8118,
      "Scarlets": 8119,
      "##gate": 8120,
      "contained": 8121,
      "##olling": 8122,
      "##ooker": 8123,
      "arrests": 8124,
      "Falkirk": 8125,
      "Bash": 8126,
      "Eric": 8127,
      "##orney": 8128,
      "supplied": 8129,
      "##aco": 8130,
      "pieces": 8131,
      "sensitive": 8132,
      "##mo": 8133,
      "sli": 8134,
      "##iy": 8135,
      "##abul": 8136,
      "infection": 8137,
      "Energy": 8138,
      "ym": 8139,
      "mates": 8140,
      "76": 8141,
      "Wayne": 8142,
      "##istor": 8143,
      "spotted": 8144,
      "Square": 8145,
      "Land": 8146,
      "Abb": 8147,
      "judgement": 8148,
      "enthus": 8149,
      "Gil": 8150,
      "##ams": 8151,
      "##idency": 8152,
      "clock": 8153,
      "handling": 8154,
      "achievement": 8155,
      "##chen": 8156,
      "##onia": 8157,
      "120": 8158,
      "toil": 8159,
      "##lying": 8160,
      "Special": 8161,
      "deserve": 8162,
      "05": 8163,
      "recon": 8164,
      "waters": 8165,
      "Sheriff": 8166,
      "tier": 8167,
      "cease": 8168,
      "Rodgers": 8169,
      "tragic": 8170,
      "##ashing": 8171,
      "##ingly": 8172,
      "##shore": 8173,
      "shouldn": 8174,
      "momentum": 8175,
      "Somet": 8176,
      "Dy": 8177,
      "Lyn": 8178,
      "usual": 8179,
      "command": 8180,
      "unpre": 8181,
      "letters": 8182,
      "Rescue": 8183,
      "##ooth": 8184,
      "babies": 8185,
      "Life": 8186,
      "##iat": 8187,
      "begun": 8188,
      "communications": 8189,
      "indic": 8190,
      "democratic": 8191,
      "err": 8192,
      "addressed": 8193,
      "category": 8194,
      "Phillips": 8195,
      "Cav": 8196,
      "aggressive": 8197,
      "##low": 8198,
      "##rist": 8199,
      "##idd": 8200,
      "chose": 8201,
      "partly": 8202,
      "accommodation": 8203,
      "tree": 8204,
      "Farage": 8205,
      "##onduct": 8206,
      "##emed": 8207,
      "yourself": 8208,
      "practices": 8209,
      "Rosberg": 8210,
      "].": 8211,
      "##otic": 8212,
      "deleg": 8213,
      "explains": 8214,
      "desc": 8215,
      "recognition": 8216,
      "Ref": 8217,
      "Add": 8218,
      "function": 8219,
      "puts": 8220,
      "Fleet": 8221,
      "supplies": 8222,
      "Reid": 8223,
      "songs": 8224,
      "remarks": 8225,
      "Brien": 8226,
      "##ether": 8227,
      "offices": 8228,
      "predicted": 8229,
      "retirement": 8230,
      "##NI": 8231,
      "Carr": 8232,
      "representatives": 8233,
      "experiences": 8234,
      "##erted": 8235,
      "discovery": 8236,
      "Christopher": 8237,
      "peak": 8238,
      "Bury": 8239,
      "Sout": 8240,
      "10th": 8241,
      "ballot": 8242,
      "towns": 8243,
      "Festival": 8244,
      "Federation": 8245,
      "export": 8246,
      "borders": 8247,
      "##essed": 8248,
      "employers": 8249,
      "Merkel": 8250,
      "subsequently": 8251,
      "garden": 8252,
      "enable": 8253,
      "electoral": 8254,
      "Albert": 8255,
      "Drag": 8256,
      "##oyle": 8257,
      "anybody": 8258,
      "transferred": 8259,
      "Griffith": 8260,
      "que": 8261,
      "imagine": 8262,
      "Lords": 8263,
      "CP": 8264,
      "##zab": 8265,
      "##inals": 8266,
      "##ocate": 8267,
      "##ppo": 8268,
      "spring": 8269,
      "Oldham": 8270,
      "counterp": 8271,
      "switch": 8272,
      "strategic": 8273,
      "07": 8274,
      "disturb": 8275,
      "robust": 8276,
      "lies": 8277,
      "schemes": 8278,
      "introduction": 8279,
      "hits": 8280,
      "relating": 8281,
      "Justin": 8282,
      "fundamental": 8283,
      "Terry": 8284,
      "anonym": 8285,
      "vig": 8286,
      "humanitarian": 8287,
      "empty": 8288,
      "Shaun": 8289,
      "Domin": 8290,
      "eating": 8291,
      "wedd": 8292,
      "Ho": 8293,
      "quit": 8294,
      "##approp": 8295,
      "##iscal": 8296,
      "##bast": 8297,
      "retain": 8298,
      "organisers": 8299,
      "zero": 8300,
      "##ouncing": 8301,
      "1994": 8302,
      "Lloyd": 8303,
      "numerous": 8304,
      "headquarters": 8305,
      "##greg": 8306,
      "##oration": 8307,
      "Deputy": 8308,
      "Ga": 8309,
      "Aleppo": 8310,
      "enforcement": 8311,
      "Ospreys": 8312,
      "factory": 8313,
      "Laura": 8314,
      "##ateful": 8315,
      "elite": 8316,
      "Holyrood": 8317,
      "Dum": 8318,
      "campaigns": 8319,
      "privacy": 8320,
      "Tan": 8321,
      "##onom": 8322,
      "Juvent": 8323,
      "volunt": 8324,
      "shoulder": 8325,
      "avo": 8326,
      "contributed": 8327,
      "Rory": 8328,
      "Sn": 8329,
      "flex": 8330,
      "Sov": 8331,
      "toug": 8332,
      "combat": 8333,
      "Rochdale": 8334,
      "Li": 8335,
      "consistent": 8336,
      "##uting": 8337,
      "offenders": 8338,
      "##ushed": 8339,
      "birthday": 8340,
      "desperate": 8341,
      "Juventus": 8342,
      "Aff": 8343,
      "##rage": 8344,
      "##roc": 8345,
      "returns": 8346,
      "Back": 8347,
      "maintained": 8348,
      "##mph": 8349,
      "requires": 8350,
      "innoc": 8351,
      "opponent": 8352,
      "ment": 8353,
      "nobody": 8354,
      "Fraser": 8355,
      "statistics": 8356,
      "tackling": 8357,
      "engineering": 8358,
      "##idden": 8359,
      "engage": 8360,
      "Executive": 8361,
      "Men": 8362,
      "clashes": 8363,
      "Commun": 8364,
      "cameras": 8365,
      "Magistrates": 8366,
      "successfully": 8367,
      "Haram": 8368,
      "##owned": 8369,
      "Norway": 8370,
      "Mayor": 8371,
      "attending": 8372,
      "devolved": 8373,
      "##ipper": 8374,
      "migrant": 8375,
      "04": 8376,
      "##pass": 8377,
      "targeting": 8378,
      "Iranian": 8379,
      "##BS": 8380,
      "exports": 8381,
      "Tunis": 8382,
      "gym": 8383,
      "heritage": 8384,
      "Jane": 8385,
      "##ework": 8386,
      "Spurs": 8387,
      "unemployment": 8388,
      "tall": 8389,
      "Thank": 8390,
      "Amb": 8391,
      "saving": 8392,
      "guidelines": 8393,
      "secondary": 8394,
      "directed": 8395,
      "survive": 8396,
      "Callum": 8397,
      "scrutiny": 8398,
      "unh": 8399,
      "earnings": 8400,
      "unt": 8401,
      "stability": 8402,
      "##cedented": 8403,
      "##aved": 8404,
      "attitude": 8405,
      "##die": 8406,
      "##olly": 8407,
      "##osition": 8408,
      "Mick": 8409,
      "ambassador": 8410,
      "resignation": 8411,
      "Vill": 8412,
      "talked": 8413,
      "Look": 8414,
      "nerv": 8415,
      "##uild": 8416,
      "legit": 8417,
      "submitted": 8418,
      "\"[": 8419,
      "pit": 8420,
      "Argy": 8421,
      "Twenty": 8422,
      "Show": 8423,
      "recruitment": 8424,
      "devastating": 8425,
      "Nad": 8426,
      "fairly": 8427,
      "converted": 8428,
      "prin": 8429,
      "models": 8430,
      "District": 8431,
      "##ycling": 8432,
      "unprecedented": 8433,
      "Warri": 8434,
      "please": 8435,
      "wounded": 8436,
      "IA": 8437,
      "trials": 8438,
      "advertising": 8439,
      "Wenger": 8440,
      "##arth": 8441,
      "##icing": 8442,
      "olds": 8443,
      "2bn": 8444,
      "Ba": 8445,
      "##ois": 8446,
      "Serg": 8447,
      "brothers": 8448,
      "Mohammed": 8449,
      "Derry": 8450,
      "##uine": 8451,
      "##estone": 8452,
      "clearance": 8453,
      "competitions": 8454,
      "fortun": 8455,
      "Front": 8456,
      "settled": 8457,
      "Die": 8458,
      "fu": 8459,
      "regarded": 8460,
      "##known": 8461,
      "##En": 8462,
      "##elson": 8463,
      "##assy": 8464,
      "Warwick": 8465,
      "Ghan": 8466,
      "##itious": 8467,
      "shirt": 8468,
      "##spur": 8469,
      "##aza": 8470,
      "investigators": 8471,
      "kidn": 8472,
      "Hiber": 8473,
      "Time": 8474,
      "overwhelming": 8475,
      "wave": 8476,
      "athlete": 8477,
      "apologise": 8478,
      "Coleman": 8479,
      "##ste": 8480,
      "##iro": 8481,
      "buried": 8482,
      "initiative": 8483,
      "1996": 8484,
      "humans": 8485,
      "lorry": 8486,
      "##liff": 8487,
      "insist": 8488,
      "Hotspur": 8489,
      "##lusive": 8490,
      "formally": 8491,
      "Jewish": 8492,
      "ninth": 8493,
      "opposite": 8494,
      "##sted": 8495,
      "upgr": 8496,
      "##iola": 8497,
      "genuine": 8498,
      "Hibernian": 8499,
      "Fort": 8500,
      "##itect": 8501,
      "protecting": 8502,
      "Duncan": 8503,
      "Officials": 8504,
      "fitness": 8505,
      "McN": 8506,
      "camps": 8507,
      "expecting": 8508,
      "arrive": 8509,
      "Soviet": 8510,
      "HS": 8511,
      "Tig": 8512,
      "apparent": 8513,
      "Roger": 8514,
      "rar": 8515,
      "##mon": 8516,
      "##place": 8517,
      "sam": 8518,
      "##lu": 8519,
      "Glen": 8520,
      "##orse": 8521,
      "conspiracy": 8522,
      "Techn": 8523,
      "bin": 8524,
      "##real": 8525,
      "##thorpe": 8526,
      "resolve": 8527,
      "consent": 8528,
      "broadcaster": 8529,
      "##iggins": 8530,
      "absolute": 8531,
      "highlights": 8532,
      "6m": 8533,
      "Tai": 8534,
      "airline": 8535,
      "Austria": 8536,
      "McDonald": 8537,
      "Rick": 8538,
      "percent": 8539,
      "Warren": 8540,
      "dad": 8541,
      "inapprop": 8542,
      "Hillary": 8543,
      "restaurant": 8544,
      "association": 8545,
      "agric": 8546,
      "insists": 8547,
      "argues": 8548,
      "fake": 8549,
      "libr": 8550,
      "##aments": 8551,
      "##endous": 8552,
      "Harrison": 8553,
      "explosion": 8554,
      "##era": 8555,
      "Elizab": 8556,
      "mine": 8557,
      "##bot": 8558,
      "planet": 8559,
      "commissioner": 8560,
      "##owds": 8561,
      "islands": 8562,
      "controversy": 8563,
      "Elizabeth": 8564,
      "demanding": 8565,
      "rig": 8566,
      "##eding": 8567,
      "Eas": 8568,
      "Tro": 8569,
      "tiny": 8570,
      "rescued": 8571,
      "tens": 8572,
      "##estyle": 8573,
      "##ella": 8574,
      "Millwall": 8575,
      "01": 8576,
      "Vinc": 8577,
      "mae": 8578,
      "wages": 8579,
      "##rett": 8580,
      "Blue": 8581,
      "warnings": 8582,
      "answers": 8583,
      "Little": 8584,
      "touc": 8585,
      "thorough": 8586,
      "##ado": 8587,
      "whilst": 8588,
      "##rapped": 8589,
      "Colchester": 8590,
      "suspension": 8591,
      "amounts": 8592,
      "landsc": 8593,
      "MK": 8594,
      "kicked": 8595,
      "##EP": 8596,
      "##orted": 8597,
      "##umph": 8598,
      "anticip": 8599,
      "tom": 8600,
      "trapped": 8601,
      "Morton": 8602,
      "Mot": 8603,
      "##uro": 8604,
      "##umped": 8605,
      "risen": 8606,
      "Delhi": 8607,
      "trem": 8608,
      "concert": 8609,
      "homeless": 8610,
      "abandoned": 8611,
      "Bangladesh": 8612,
      "symptoms": 8613,
      "Boko": 8614,
      "blaze": 8615,
      "coroner": 8616,
      "rounds": 8617,
      "councillors": 8618,
      "Brentford": 8619,
      "transition": 8620,
      "McLaren": 8621,
      "##bled": 8622,
      "##lection": 8623,
      "providers": 8624,
      "instruct": 8625,
      "entr": 8626,
      "200m": 8627,
      "Finn": 8628,
      "Information": 8629,
      "##aths": 8630,
      "scientific": 8631,
      "##olitan": 8632,
      "Community": 8633,
      "IM": 8634,
      "##uan": 8635,
      "Hard": 8636,
      "lying": 8637,
      "smoking": 8638,
      "Kingdom": 8639,
      "Ukrainian": 8640,
      "unknown": 8641,
      "intense": 8642,
      "Services": 8643,
      "websites": 8644,
      "swimming": 8645,
      "Collins": 8646,
      "enormous": 8647,
      "laugh": 8648,
      "##orious": 8649,
      "clothing": 8650,
      "reference": 8651,
      "Aud": 8652,
      "considerable": 8653,
      "##soft": 8654,
      "##othian": 8655,
      "arriving": 8656,
      "##unal": 8657,
      "cook": 8658,
      "adviser": 8659,
      "Ts": 8660,
      "king": 8661,
      "##hal": 8662,
      "convention": 8663,
      "prediction": 8664,
      "##leigh": 8665,
      "Island": 8666,
      "convin": 8667,
      "combination": 8668,
      "impressed": 8669,
      "admits": 8670,
      "Key": 8671,
      "##ingham": 8672,
      "##anna": 8673,
      "Belgian": 8674,
      "Microsoft": 8675,
      "Fal": 8676,
      "##mates": 8677,
      "expects": 8678,
      "Hy": 8679,
      "hur": 8680,
      "regulator": 8681,
      "bonus": 8682,
      "elderly": 8683,
      "Did": 8684,
      "##onso": 8685,
      "Associ": 8686,
      "Republicans": 8687,
      "networks": 8688,
      "4m": 8689,
      "conclusion": 8690,
      "##uations": 8691,
      "killings": 8692,
      "cart": 8693,
      "##ription": 8694,
      "mortem": 8695,
      "Fri": 8696,
      "##aro": 8697,
      "ambition": 8698,
      "Others": 8699,
      "##ean": 8700,
      "##fast": 8701,
      "##usal": 8702,
      "extensive": 8703,
      "eu": 8704,
      "##urance": 8705,
      "instru": 8706,
      "emails": 8707,
      "disappeared": 8708,
      "##ext": 8709,
      "Carter": 8710,
      "disappoint": 8711,
      "memorial": 8712,
      "##icks": 8713,
      "##ancer": 8714,
      "recording": 8715,
      "vent": 8716,
      "Ley": 8717,
      "Bishop": 8718,
      "Na": 8719,
      "06": 8720,
      "auction": 8721,
      "theft": 8722,
      "convinced": 8723,
      "##abet": 8724,
      "Juan": 8725,
      "creation": 8726,
      "Erd": 8727,
      "##iring": 8728,
      "##oub": 8729,
      "Rev": 8730,
      "restore": 8731,
      "Jersey": 8732,
      "##mann": 8733,
      "pregnant": 8734,
      "##jan": 8735,
      "Leban": 8736,
      "batsman": 8737,
      "lights": 8738,
      "Berlin": 8739,
      "fined": 8740,
      "##ibs": 8741,
      "Dems": 8742,
      "crews": 8743,
      "##esc": 8744,
      "1995": 8745,
      "BT": 8746,
      "coun": 8747,
      "master": 8748,
      "##elli": 8749,
      "disabled": 8750,
      "junior": 8751,
      "##ocated": 8752,
      "sufficient": 8753,
      "Lady": 8754,
      "Crewe": 8755,
      "Dri": 8756,
      "filled": 8757,
      "##fa": 8758,
      "regarding": 8759,
      "##hab": 8760,
      "##anche": 8761,
      "professor": 8762,
      "describes": 8763,
      "Virgin": 8764,
      "##uties": 8765,
      "clothes": 8766,
      "medall": 8767,
      "updates": 8768,
      "pod": 8769,
      "Supt": 8770,
      "grateful": 8771,
      "wildlife": 8772,
      "dollars": 8773,
      "##acle": 8774,
      "Sg": 8775,
      "damaging": 8776,
      "Famil": 8777,
      "defeated": 8778,
      "corporate": 8779,
      "##bery": 8780,
      "Campaign": 8781,
      "##imir": 8782,
      "survivors": 8783,
      "cin": 8784,
      "##stream": 8785,
      "encounter": 8786,
      "Angela": 8787,
      "Pier": 8788,
      "##folk": 8789,
      "reasonable": 8790,
      "Kirk": 8791,
      "divided": 8792,
      "surprising": 8793,
      "##inate": 8794,
      "gy": 8795,
      "stone": 8796,
      "Trafford": 8797,
      "satellite": 8798,
      "##asion": 8799,
      "legend": 8800,
      "eligible": 8801,
      "colleague": 8802,
      "photograp": 8803,
      "Jimmy": 8804,
      "interven": 8805,
      "Monaco": 8806,
      "photographs": 8807,
      "engaged": 8808,
      "'.\"": 8809,
      "Int": 8810,
      "##fordshire": 8811,
      "Joh": 8812,
      "creative": 8813,
      "Norfolk": 8814,
      "Hammond": 8815,
      "Doct": 8816,
      "rent": 8817,
      "triumph": 8818,
      "sentences": 8819,
      "##eping": 8820,
      "differences": 8821,
      "Medical": 8822,
      "diplom": 8823,
      "turb": 8824,
      "prevented": 8825,
      "Kerry": 8826,
      "Mail": 8827,
      "Orient": 8828,
      "##fighters": 8829,
      "##lett": 8830,
      "depth": 8831,
      "##water": 8832,
      "ownership": 8833,
      "Hodg": 8834,
      "republic": 8835,
      "1992": 8836,
      "metres": 8837,
      "hosted": 8838,
      "murdered": 8839,
      "##met": 8840,
      "Hungary": 8841,
      "Heathrow": 8842,
      "attackers": 8843,
      "commissioned": 8844,
      "##anne": 8845,
      "facts": 8846,
      "Heart": 8847,
      "Cz": 8848,
      "franch": 8849,
      "indec": 8850,
      "charities": 8851,
      "describe": 8852,
      "Tex": 8853,
      "GC": 8854,
      "suit": 8855,
      "producer": 8856,
      "HI": 8857,
      "rider": 8858,
      "pressures": 8859,
      "##cot": 8860,
      "Wolver": 8861,
      "accusations": 8862,
      "Hu": 8863,
      "respectively": 8864,
      "Cat": 8865,
      "remote": 8866,
      "minds": 8867,
      "Freedom": 8868,
      "operated": 8869,
      "Haz": 8870,
      "##ifications": 8871,
      "Each": 8872,
      "Ret": 8873,
      "ped": 8874,
      "192": 8875,
      "##pected": 8876,
      "Ibrahim": 8877,
      "therap": 8878,
      "##ureau": 8879,
      "moder": 8880,
      "79": 8881,
      "budgets": 8882,
      "Hun": 8883,
      "Raf": 8884,
      "disorder": 8885,
      "Brook": 8886,
      "suddenly": 8887,
      "8m": 8888,
      "auster": 8889,
      "##rant": 8890,
      "Alliance": 8891,
      "Nob": 8892,
      "Price": 8893,
      "Shan": 8894,
      "cycl": 8895,
      "austerity": 8896,
      "newly": 8897,
      "Sgt": 8898,
      "Food": 8899,
      "fishing": 8900,
      "ITV": 8901,
      "Europa": 8902,
      "Hand": 8903,
      "##FA": 8904,
      "accomp": 8905,
      "terr": 8906,
      "fier": 8907,
      "slip": 8908,
      "strict": 8909,
      "privile": 8910,
      "7m": 8911,
      "##ila": 8912,
      "apology": 8913,
      "outbreak": 8914,
      "IT": 8915,
      "Los": 8916,
      "##NS": 8917,
      "publication": 8918,
      "Howard": 8919,
      "Warriors": 8920,
      "Bed": 8921,
      "Tem": 8922,
      "nom": 8923,
      "promoted": 8924,
      "decent": 8925,
      "Edward": 8926,
      "##rific": 8927,
      "habit": 8928,
      "##prise": 8929,
      "memories": 8930,
      "Griffiths": 8931,
      "bes": 8932,
      "tensions": 8933,
      "Carm": 8934,
      "expand": 8935,
      "Bark": 8936,
      "context": 8937,
      "##ternal": 8938,
      "landed": 8939,
      "principle": 8940,
      "interp": 8941,
      "revenues": 8942,
      "AFC": 8943,
      "RAF": 8944,
      "##elle": 8945,
      "Exper": 8946,
      "consultant": 8947,
      "shame": 8948,
      "constitutional": 8949,
      "Serbia": 8950,
      "Major": 8951,
      "detention": 8952,
      "understands": 8953,
      "Heritage": 8954,
      "tonnes": 8955,
      "nurses": 8956,
      "##EC": 8957,
      "Ivan": 8958,
      "Ban": 8959,
      "icon": 8960,
      "Suff": 8961,
      "##oni": 8962,
      "households": 8963,
      "Wolverhampton": 8964,
      "promises": 8965,
      "personally": 8966,
      "Walsall": 8967,
      "##ladimir": 8968,
      "Ald": 8969,
      "advanced": 8970,
      "ordinary": 8971,
      "nominated": 8972,
      "Easter": 8973,
      "##rav": 8974,
      "boxing": 8975,
      "Cox": 8976,
      "Pay": 8977,
      "pin": 8978,
      "musical": 8979,
      "predecess": 8980,
      "inspection": 8981,
      "devastated": 8982,
      "metal": 8983,
      "T20": 8984,
      "devolution": 8985,
      "fod": 8986,
      "sand": 8987,
      "relationships": 8988,
      "##wydd": 8989,
      "whistle": 8990,
      "elements": 8991,
      "signal": 8992,
      "challenged": 8993,
      "bike": 8994,
      "vet": 8995,
      "fighter": 8996,
      "prominent": 8997,
      "fill": 8998,
      "Sa": 8999,
      "alert": 9000,
      "doubled": 9001,
      "Fleetwood": 9002,
      "Et": 9003,
      "dies": 9004,
      "comedy": 9005,
      "mortg": 9006,
      "discrimination": 9007,
      "92": 9008,
      "Cur": 9009,
      "Snow": 9010,
      "Helen": 9011,
      "##ivan": 9012,
      "Kennedy": 9013,
      "impr": 9014,
      "86": 9015,
      "interact": 9016,
      "Briton": 9017,
      "Tests": 9018,
      "volley": 9019,
      "contribute": 9020,
      "##utt": 9021,
      "##pat": 9022,
      "##repr": 9023,
      "ups": 9024,
      "Alonso": 9025,
      "hopeful": 9026,
      "requests": 9027,
      "##ropolitan": 9028,
      "Aut": 9029,
      "Maur": 9030,
      "BBCNewsEn": 9031,
      "BBCNewsEnts": 9032,
      "comprehens": 9033,
      "Czech": 9034,
      "ambitious": 9035,
      "bombs": 9036,
      "Margaret": 9037,
      "Rac": 9038,
      "dates": 9039,
      "Crawley": 9040,
      "##terday": 9041,
      "Erdogan": 9042,
      "##lon": 9043,
      "barr": 9044,
      "soldier": 9045,
      "Dougl": 9046,
      "Malaysia": 9047,
      "Bale": 9048,
      "Monitor": 9049,
      "Budget": 9050,
      "##appy": 9051,
      "presenter": 9052,
      "Kier": 9053,
      "chest": 9054,
      "patrol": 9055,
      "producing": 9056,
      "vessel": 9057,
      "characters": 9058,
      "Robertson": 9059,
      "promising": 9060,
      "episode": 9061,
      "dry": 9062,
      "##uts": 9063,
      "##ography": 9064,
      "religion": 9065,
      "representative": 9066,
      "chat": 9067,
      "crowds": 9068,
      "developments": 9069,
      "limits": 9070,
      "Capt": 9071,
      "Boris": 9072,
      "Hond": 9073,
      "resort": 9074,
      "describing": 9075,
      "marketing": 9076,
      "temperatures": 9077,
      "Brid": 9078,
      "Leg": 9079,
      "##rov": 9080,
      "unw": 9081,
      "elim": 9082,
      "Hind": 9083,
      "##erts": 9084,
      "installed": 9085,
      "Burns": 9086,
      "string": 9087,
      "rises": 9088,
      "##ockey": 9089,
      "computers": 9090,
      "covering": 9091,
      "harass": 9092,
      "Wolves": 9093,
      "backs": 9094,
      "headlines": 9095,
      "Raj": 9096,
      "##unthorpe": 9097,
      "operator": 9098,
      "Bush": 9099,
      "watchdog": 9100,
      "cycle": 9101,
      "obtained": 9102,
      "aer": 9103,
      "##olo": 9104,
      "Taiwan": 9105,
      "wanting": 9106,
      "adopted": 9107,
      "Jacob": 9108,
      "frag": 9109,
      "Scunthorpe": 9110,
      "##aley": 9111,
      "studying": 9112,
      "scorer": 9113,
      "Dor": 9114,
      "IPCC": 9115,
      "##acks": 9116,
      "##raid": 9117,
      "##br": 9118,
      "##ibilities": 9119,
      "plastic": 9120,
      "medium": 9121,
      "Marcus": 9122,
      "Such": 9123,
      "pip": 9124,
      "conservation": 9125,
      "McIl": 9126,
      "3bn": 9127,
      "rum": 9128,
      "stroke": 9129,
      "noise": 9130,
      "Claud": 9131,
      "witnessed": 9132,
      "escal": 9133,
      "scrum": 9134,
      "##iveness": 9135,
      "frustrated": 9136,
      "03": 9137,
      "GM": 9138,
      "Lin": 9139,
      "Vett": 9140,
      "Wycombe": 9141,
      "Ast": 9142,
      "triggered": 9143,
      "talented": 9144,
      "Tri": 9145,
      "##aring": 9146,
      "##ovil": 9147,
      "useful": 9148,
      "Jes": 9149,
      "mir": 9150,
      "Space": 9151,
      "Article": 9152,
      "Florida": 9153,
      "Baker": 9154,
      "Cop": 9155,
      "lad": 9156,
      "arguing": 9157,
      "valuable": 9158,
      "Douglas": 9159,
      "arts": 9160,
      "##athy": 9161,
      "publish": 9162,
      "Development": 9163,
      "viewers": 9164,
      "Egyptian": 9165,
      "Sergio": 9166,
      "flo": 9167,
      "silence": 9168,
      "##nesty": 9169,
      "##rence": 9170,
      "##etime": 9171,
      "Croat": 9172,
      "Bul": 9173,
      "##rik": 9174,
      "abortion": 9175,
      "Shaw": 9176,
      "##under": 9177,
      "##sung": 9178,
      "##bec": 9179,
      "##ifted": 9180,
      "Brend": 9181,
      "civilian": 9182,
      "criminals": 9183,
      "Tomm": 9184,
      "filmed": 9185,
      "falls": 9186,
      "##celand": 9187,
      "Saint": 9188,
      "Councill": 9189,
      "Wr": 9190,
      "visits": 9191,
      "truck": 9192,
      "bowled": 9193,
      "Rock": 9194,
      "##asters": 9195,
      "disch": 9196,
      "involves": 9197,
      "##irates": 9198,
      "##illance": 9199,
      "deemed": 9200,
      "recalled": 9201,
      "Maria": 9202,
      "##ye": 9203,
      "firing": 9204,
      "supports": 9205,
      "emerging": 9206,
      "freed": 9207,
      "routine": 9208,
      "Yeovil": 9209,
      "fulf": 9210,
      "##ls": 9211,
      "runners": 9212,
      "Lanka": 9213,
      "sac": 9214,
      "##irts": 9215,
      "Isle": 9216,
      "96": 9217,
      "##bl": 9218,
      "inappropriate": 9219,
      "##AT": 9220,
      "surge": 9221,
      "safely": 9222,
      "academic": 9223,
      "Cuba": 9224,
      "Iceland": 9225,
      "singles": 9226,
      "##egraph": 9227,
      "Thames": 9228,
      "winds": 9229,
      "Best": 9230,
      "dyn": 9231,
      "tied": 9232,
      "consideration": 9233,
      "shareholders": 9234,
      "Alexandra": 9235,
      "##ati": 9236,
      "rapidly": 9237,
      "02": 9238,
      "Sum": 9239,
      "##nam": 9240,
      "ward": 9241,
      "stamp": 9242,
      "actual": 9243,
      "presidency": 9244,
      "implications": 9245,
      "tariff": 9246,
      "Affairs": 9247,
      "Line": 9248,
      "coc": 9249,
      "##inations": 9250,
      "appealing": 9251,
      "tracks": 9252,
      "Director": 9253,
      "Vettel": 9254,
      "jur": 9255,
      "1989": 9256,
      "Jonny": 9257,
      "institution": 9258,
      "spells": 9259,
      "900": 9260,
      "Silva": 9261,
      "##ywed": 9262,
      "Marshall": 9263,
      "wedding": 9264,
      "gross": 9265,
      "##stan": 9266,
      "CE": 9267,
      "feared": 9268,
      "examined": 9269,
      "demanded": 9270,
      "overturn": 9271,
      "83": 9272,
      "##tering": 9273,
      "87": 9274,
      "Jav": 9275,
      "commander": 9276,
      "filed": 9277,
      "Financ": 9278,
      "Glam": 9279,
      "materials": 9280,
      "historical": 9281,
      "Bromwich": 9282,
      "conven": 9283,
      "tonight": 9284,
      "nervous": 9285,
      "Rad": 9286,
      "obst": 9287,
      "88": 9288,
      "salary": 9289,
      "##ourses": 9290,
      "somewhere": 9291,
      "Hodgson": 9292,
      "reck": 9293,
      "Nik": 9294,
      "SD": 9295,
      "boot": 9296,
      "congr": 9297,
      "##ogether": 9298,
      "##pective": 9299,
      "Islands": 9300,
      "gathering": 9301,
      "establishment": 9302,
      "princip": 9303,
      "invested": 9304,
      "estimate": 9305,
      "##arf": 9306,
      "agents": 9307,
      "remov": 9308,
      "picking": 9309,
      "machines": 9310,
      "PSNI": 9311,
      "bully": 9312,
      "##bed": 9313,
      "finances": 9314,
      "Georgia": 9315,
      "Rome": 9316,
      "immigr": 9317,
      "Stevenage": 9318,
      "##alysis": 9319,
      "map": 9320,
      "##ali": 9321,
      "Short": 9322,
      "##zb": 9323,
      "relax": 9324,
      "runner": 9325,
      "youngest": 9326,
      "Clegg": 9327,
      "update": 9328,
      "Denmark": 9329,
      "handle": 9330,
      "exclud": 9331,
      "communication": 9332,
      "branch": 9333,
      "successor": 9334,
      "latter": 9335,
      "pupil": 9336,
      "cul": 9337,
      "veteran": 9338,
      "Han": 9339,
      "alt": 9340,
      "capture": 9341,
      "necessarily": 9342,
      "adopt": 9343,
      "Oh": 9344,
      "egg": 9345,
      "##urse": 9346,
      "Play": 9347,
      "Dug": 9348,
      "##strong": 9349,
      "##inating": 9350,
      "##isclosed": 9351,
      "Djok": 9352,
      "phen": 9353,
      "##eland": 9354,
      "transl": 9355,
      "Hartle": 9356,
      "Hopefully": 9357,
      "Accrington": 9358,
[...]
